<s>
<e>
<unk>
的
，
。
我
我们
是
在
了
你
"
一个
这
有
他们
和
就
它
这个
都
可以
人
？
他
会
也
这些
上
不
到
说
中
做
就是
对
很
：
让
但
如果
因为
把
来
而
没有
能
所以
被
现在
—
想
知道
这样
什么
去
但是
问题
当
,
从
这是
要
你们
那
她
里
将
自己
、
它们
不是
并
一些
开始
更
需要
看到
用
给
好
然后
非常
个
着
时候
人们
可能
.
那些
像
还
为
世界
与
时
东西
一种
已经
--
多
地
所
年
所有
这种
很多
最
认为
呢
工作
过
发现
事情
这里
们
发生
看
一样
或者
如何
孩子
大家
不同
那么
吗
还有
地方
研究
而且
下
国家
生活
重要
通过
得
告诉
改变
其他
新
美国
时间
能够
方式
又
并且
事
为什么
或
吧
关于
于
以及
不会
使用
只是
人类
设计
·
任何
应该
后
进行
因此
故事
以
大
那个
必须
一起
希望
得到
觉得
成为
不能
出
再
技术
一下
正在
真的
比
还是
来说
跟
方法
只
其中
社会
数据
起来
今天
信息
喜欢
对于
那里
每个
这么
小
当然
使
系统
一
事实上
向
前
！
大脑
实际上
另
真正
最后
）
怎么
完全
之后
一直
公司
甚至
（
却
一点
每
同时
想要
存在
来自
帮助
作为
生命
为了
看看
也许
谢谢
找到
发展
其实
决定
了解
情况
两个
问
影响
想法
只有
由
结果
出来
创造
过去
相信
整个
有些
没
城市
才
过程
当时
照片
同样
之前
变得
产生
感觉
一次
简单
项目
拥有
组织
的话
于是
选择
一切
原因
许多
-
可
例子
未来
出现
地球
意识
理解
环境
之间
展示
想象
而是
解决
我要
其
学习
经济
能力
如此
提供
动物
不过
比如
无法
－
岁
有趣
朋友
谁
变成
叫
怎样
月
内
教育
是否
科学
听
学生
声音
?
行为
网络
有人
成功
思考
10
政府
非洲
一位
写
讲
者
学校
生物
那样
细胞
成
20
部分
利用
我会
走
是因为
身体
带来
:
更好
经历
运动
全球
女性
建立
带
完成
特别
尝试
机会
演讲
确实
意味着
多少
变化
空间
点
；
啊
方面
之一
一天
关系
巨大
一件
正
最终
进入
控制
之
实验
一定
《
》
另外
感到
音乐
科技
中国
高
请
钱
历史
做到
制造
她们
健康
印度
意义
语言
大概
回到
第一个
文化
大约
食物
看起来
性
几个
里面
电脑
治疗
获得
叫做
医生
一部分
建筑
宇宙
小时
该
模式
计划
机器人
接受
听到
曾
继续
起
等
更加
首先
活动
解释
目标
吃
太
几乎
参与
安全
答案
联系
艺术
包括
拿
总是
意思
个人
各种
才能
然而
爱
复杂
花
曾经
事实
站
最好
领域
游戏
自然
力量
工具
基因
作品
想到
分享
仅仅
重新
1
别人
病人
3
地区
合作
电影
区域
努力
最大
则
即使
关注
TED
疾病
讨论
实现
制作
事物
准备
做出
世纪
大量
一张
不@@
结构
身上
2
不要
机器
产品
每天
将会
或是
正是
住
政治
水
认识
接下来
找
这一
像是
明白
保护
5
价值
中心
数字
大多数
买
有关
类似
容易
或许
家庭
比较
观察
主要
市场
一@@
唯一
不仅仅
战争
不断
通常
处理
有点
超过
挑战
注意
很大
其它
显示
社区
模型
虽然
放在
用来
十分
以前
观点
代表
观众
寻找
第一次
那时
三个
上面
年代
一年
汽车
视频
形成
科学家
时代
理论
哪里
反应
只要
已
持续
人口
结束
一条
美元
概念
母亲
作用
看着
家
直到
图片
死亡
达到
有着
自我
不再
发明
考虑
最近
30
男人
大@@
一只
生产
大部分
看见
越来越
愿意
来到
增长
资源
一名
离开
死
实验室
令人
材料
支持
长
后来
女人
接着
传统
'
办法
坐在
车
病毒
这张
…
如
记得
仍然
创新
名字
行动
知识
现实
尽管
到底
些
间
谈论
真实
能量
具有
测试
相当
大学
下来
书
在于
父亲
50
基本
所有人
导致
海洋
样子
回答
目前
媒体
速度
错误
不仅
自由
内容
移动
这儿
4
伟大
足够
癌症
进化
设备
正确
试图
至少
应用
几年
这件
那种
例如
计算机
儿童
物种
机构
根本
服务
的确
角度
不想
不管
好像
记录
范围
画
数量
本身
建造
基本上
证明
增加
感受
网站
老师
种
某些
要求
直接
等等
手机
充满
15
减少
突然
能源
英国
有效
么
不得不
小@@
形式
造成
这项
明显
下面
全世界
面对
是从
团队
年前
不到
探索
只能
投资
交流
使得
方向
分子
现象
受到
其他人
正如
提出
每年
此
很快
永远
天
有个
父母
互联网
表现
快
程度
计算
一项
先
而言
快乐
手
药物
可是
图
哦
以后
肯定
事件
来看
女孩
失去
由于
清楚
保持
数学
功能
周围
基础
．
植物
人生
民主
经常
词
一场
拍摄
6
相关
位置
危险
DNA
那儿
似乎
100
即
开
加入
纽约
担心
困难
定义
飞机
根据
一般
关键
随着
所说
不用
除了
宗教
实际
年轻
是不是
上帝
说明
医疗
分析
遇到
经过
连接
石油
如今
预测
刚刚
传播
非常感谢
面临
嗯
不错
「
」
眼睛
有时
状态
各位
体验
医院
欧洲
地图
严重
参加
当地
我能
开发
某种
正常
真是
光
哪
多么
时刻
一旦
头
提到
确定
描述
他人
尤其
一段
手术
妈妈
越
称为
提高
任务
组成
分钟
精神
人@@
效果
表达
某个
难
回来
用于
自身
梦想
亿
便
及
您
图像
共同
房间
运作
进
受
绿色
从来
式
专家
道德
想想
化
还要
完美
本书
放
玩
万
过来
收集
有@@
目的
妇女
软件
帮
运用
到达
假设
聪明
物质
思想
相同
打开
法律
路
...
全部
允许
这次
12
奇怪
什么样
第一
训练
打
视觉
显然
土地
它会
房子
糟糕
森林
艺术家
指
非
美丽
消失
先生
话
别的
一半
绝对
生存
恐惧
基于
管理
去年
信号
40
电话
对此
强大
接触
小孩
标准
从而
阶段
经验
8
比如说
人民
两种
因素
需
商业
一家
值得
介绍
7
教
风险
神奇
当中
记忆
需求
拍
处
患者
会议
幸福
中@@
颜色
一群
星球
鼓掌
失败
之中
飞行
一系列
压力
见
试验
细菌
调查
形状
水平
政策
读
称之为
以为
体系
时期
线
动作
无论
智慧
表演
号
英尺
笑
表明
收入
中间
创作
错
跑
子
表面
太阳
在座
第二个
角色
度
装置
至
同
规则
所谓
美好
企业
结合
感兴趣
有时候
有意思
名
学
婴儿
关心
处于
类
程序
鱼
假如
西方
内部
大小
学到
花费
建议
无@@
看上去
权利
进步
暴力
现代
•
一份
质量
开放
三@@
话题
四个
上@@
人员
英里
吸引
转变
掉
第二
投入
60
远
神经
降低
测量
刚才
物体
很棒
电视
国际
晚上
条
每次
学会
9
普通
怎么样
特定
再次
痛苦
成本
成长
新闻
公共
危机
仍
出生
兴奋
可怕
见到
年轻人
达
谈
同事
刚
空气
害怕
设计师
独立
差不多
快速
这位
听说
说话
世界各地
低
家里
一步
特殊
多@@
互动
倍
监狱
离
早期
幸运
对话
25
之@@
这@@
很难
距离
革命
思维
出去
11
一块
表示
疯狂
外
约
靠
兴趣
拉
生长
儿子
总统
讲述
仅
运行
接近
卖
可能性
男性
狗
状况
属于
冲突
威胁
真
我@@
区
工程
公民
收到
不幸
条件
将要
下去
保证
蚂蚁
取得
两年
发出
停止
就要
本质
道
引起
平均
十年
情绪
放到
彼此
看待
并非
坐
力
资金
做些
任何人
感染
相反
少
长大
相互
邀请
理念
家伙
理由
负责
下降
行
阻止
从未
法
回
发表
阅读
水@@
逐渐
一生
情感
蓝色
惊人
鼓励
行业
办公室
神经元
日
以来
会@@
作
诊断
人会
斯
艾滋病
有没有
腿
常常
地@@
和平
干
平等
变
课程
回家
证据
面前
不够
高兴
感谢
教授
18
记住
要是
屏幕
主题
气候
啦
某
惊讶
噢
按
享受
背景
次
打算
谈谈
物理
不可思议
星期
日本
责任
心
拯救
特
博物馆
200
穿
多年
连
放弃
承认
飞
方案
红色
相似
财富
且
高@@
哪些
权力
相对
杂志
克里斯
价格
男孩
机
互相
弄
下@@
熟悉
工程师
温度
将来
完
认知
居住
所在
人群
包含
克
左边
试着
女儿
群体
层面
同意
规模
因
中有
报告
器
给予
一台
一边
星系
结论
相比
位
大型
也就是说
妻子
太阳能
拉@@
身边
自
改善
燃料
集中
破坏
积极
上升
物
文章
无
马上
英语
免费
利益
创建
找出
核心
很少
网上
塑料
终于
采用
模拟
这点
型
左右
限制
挺
确保
信仰
究竟
看法
不好
有用
电子
个体
文字
占
针对
B@@
米
加
建设
P@@
病
爆炸
体内
阿富汗
实在
右边
到处
本
之所以
一句
或者说
比赛
那@@
A
仔细
秘密
后面
80
较
活
领导
件
行星
好处
2000
两@@
报道
留下
一片
区别
警察
感
疫苗
一部
生
走进
适应
广告
得以
老鼠
那天
工厂
文明
原始
难以置信
70
细节
位于
身份
食品
银行
谷歌
纸
三
而已
全新
重复
援助
平衡
成员
S@@
最初
量
笑声
差异
元素
家人
成果
演奏
博客
很小
器官
贡献
观念
沟通
恢复
今年
称
信任
如同
分
贫穷
肿瘤
蛋白质
女士
对待
员工
比例
棒
以上
人物
操作
工业
往往
稳定
专业
恐龙
昆虫
前面
太空
谈到
从事
英雄
道路
跳
说法
创意
段
附近
数
一段时间
年龄
背后
球
团体
坚持
呼吸
各个
制度
卫星
记者
密码
重大
漂亮
早上
武器
皮肤
公园
老
德
生物学
农业
获取
之外
态度
辩论
迅速
垃圾
旅行
s
巴西
化学
送
检测
门
自@@
提
带到
心脏
往
掌握
特征
伦敦
类型
伤害
平台
一座
可@@
复制
途径
医学
各种各样
原理
新@@
火星
看过
完整
某种程度
满足
没什么
避免
之类
体
变革
长期
主意
社交
亿美元
热
公开
倒
释放
追求
美
二氧化碳
脚
21
按照
要说
加上
扫描
穿过
90
这会
别
培养
脸
外面
搜索
输入
提醒
卡
剩下
发展中国家
马@@
高度
竞争
心@@
为此
这场
慢慢
具体
小小的
节目
依然
爸爸
成就
富有
声
T@@
G@@
人体
原则
面
解决方案
资料
理想
旁边
反对
检查
用户
树
成千上万
公众
独特
著名
展现
职业
1000
令
近
技能
购买
气候变化
[
适合
军队
动力
选举
尔
习惯
H@@
应对
以下
深入
怀疑
漫画
原来
画面
处在
好消息
以色列
感知
]
从中
重点
却是
脆弱
更大
相当于
心理
我来
注意力
L@@
万@@
16
电池
D@@
四@@
案例
坏
事业
边
技巧
创造力
大规模
很长
懂
期待
报纸
拿到
秒
贫困
天@@
做法
便宜
衣服
期望
消耗
碳
等待
典型
值
神
蜜蜂
不停
他会
攻击
总结
一本
a
搞
必要
早
刺激
动
优秀
当@@
部门
州
约翰
走向
选
自闭症
猴子
涉及
进来
有所
看来
部落
消息
R@@
船
广泛
M@@
奇妙
为何
组合
看不到
─
趋势
!
版本
伊拉克
农民
出@@
率
障碍
i
旅程
哪个
建
机制
了不起
自动
大自然
开心
忘记
e
循环
解决问题
判断
总
C@@
药
发
顺便
激励
山
指出
强烈
字
启发
现场
不可
污染
说服
基因组
猜
舞台
粒子
/
即将
交易
症状
期间
除非
德国
播放
张
同一个
士兵
500
24
要么
第三个
死去
内心
得出
马
零
气体
重
种族
大众
渴望
取决于
交谈
来源
聚集
超越
我用
缺乏
热情
简直
拒绝
黑人
000
一幅
法国
共享
s@@
改造
14
做成
麻烦
准确
幻灯片
面包
装
美妙
待
斯@@
电力
行走
生态系统
一套
演示
C
;
鸟
维持
浪费
设想
改革
手段
最高
作出
自行车
半
物品
超级
上去
一点点
合适
玩具
一辆
恩
没错
可行
联合国
分布
标记
依靠
两
灾难
玩耍
猫
传递
血管
倾向
街道
种类
提升
开车
图表
过@@
打@@
隐藏
理性
进去
灭绝
开@@
转
博士
人数
块
五@@
对象
市
墙
转移
两者
旧
回去
年里
以@@
一面
调整
带给
策略
当作
从@@
费用
估计
呆
没法
多样性
场
三年
普遍
机械
丈夫
造
哪儿
古老
手@@
呈现
卡@@
片
非常简单
海@@
B
牌
阿@@
反
能否
17
女
一遍
管
发布
尊重
既
穿着
风
o
极其
路上
轨道
深刻
不久
丰富
便是
想像
依赖
期
犯罪
飞行器
％
改进
排放
2@@
伊朗
彻底
消费者
长时间
五年
工人
黑暗
沙漠
奖励
后果
板
同性恋
乐观
关联
睡眠
基础设施
金钱
基金会
19
旋转
来@@
进一步
回应
举个
未
主义
客户
采取
利
谈话
构成
固定
指数
算法
300
A@@
肌肉
比@@
还会
斗争
对方
本来
愿望
重建
K@@
望远镜
喝
打电话
二
应
---
一致
领袖
而@@
意见
肉
想起
重要性
极端
专注
万美元
怎么办
五个
整体
台
启动
成立
寿命
地面
教师
现有
消费
一篇
难以
全国
课
名叫
混乱
前@@
企鹅
干细胞
黑猩猩
衡量
这方面
几天
强调
无论是
紧张
照顾
不了
椅子
影片
研发
强
长@@
全球化
进展
好奇
上学
随后
哇
评论
派
肯尼亚
恒星
网
地点
做好
13
执行
模仿
居民
放大
穆斯林
赋予
建筑师
特性
图案
外@@
活跃
印象
律师
F@@
手指
流行
象
人性
公平
逻辑
艰难
常见
赢得
十@@
围绕
发@@
可爱
诗
用@@
灵感
死亡率
爱因斯坦
状
全
私人
致力于
识别
单词
意外
停
b@@
企业家
面积
视角
展开
小组
片段
边缘
内@@
毒品
领导者
这时
南非
摆脱
情形
样本
名为
大卫
地位
以至于
祖先
商品
效应
体现
仪器
灯
良好
教学
明确
达成
真相
难道
全@@
种植
曲线
没@@
愤怒
潜力
有点像
久
海豚
优势
加拿大
稍微
E@@
直觉
来讲
智能
说道
环保
混合
诞生
严肃
推动
就算
价值观
化石
层
演员
盒子
提取
之内
算
奇迹
观看
惊奇
做过
儿
微小
队
教堂
流
变@@
抓住
精确
m@@
保存
争论
脑
驱动
道理
埃及
最佳
图书馆
代码
火箭
点子
若
白@@
村庄
合理
标志
庞大
前进
带有
付出
专门
呀
覆盖
角落
部
发挥
练习
天空
光@@
寻求
头脑
y
作家
城
适用
疟疾
t@@
安德森
录像
生@@
小说
舞蹈
效率
集体
原子
圈
这条
学院
四
修复
字母
尽可能
着手
交通
极大
每当
同情
好@@
穷人
成@@
嘿
看出
引发
能@@
公里
懂得
打印
投票
培训
冒险
活着
损失
澳大利亚
群
p@@
高中
第
实践
藏
场景
微生物
开展
穿越
更为
加@@
认真
杀死
应当
氧气
黄色
教室
正好
手臂
正@@
额外
经济学家
万人
预算
河
潜在
他@@
矛盾
特@@
世上
反馈
短
热爱
信念
入
沮丧
对@@
差别
够
电
邻居
扩大
患有
礼物
唱
18@@
w@@
﹐
统计
不少
几@@
沿着
保留
运动员
促进
不必
反映
换句话说
标签
采访
取
致命
众人
语
六@@
当今
宣传
转@@
西@@
承诺
夏天
婚姻
照
翻译
相机
发射
构建
激发
为@@
合成
传感器
存活
所知
感情
袋
即便
融合
重@@
二@@
尼
忽略
金属
度过
生意
爬
难题
文件
组
心脏病
这类
阳光
不行
喜爱
一颗
这句
如@@
兄弟
有限
倾听
动机
太@@
专利
举
放进
400
影响力
an
i@@
以外
预防
利@@
靠近
不知
构造
蚊子
这有
口
移民
支付
E
黑客
符合
送到
与此同时
展览
清晰
流动
分离
决策
制定
头@@
立刻
书籍
多数
一个月
老人
光线
塔
评估
先@@
另一方面
老@@
探讨
罗@@
贴
象征
昨天
这片
俄罗斯
金
驾驶
影像
节奏
安@@
这部
Google
生态
这边
单位
玻璃
换
加速
坐下
擅长
高效
洞
百万
尼日利亚
编辑
血液
人士
着迷
黑洞
这份
取代
赢
这座
一根
中学
小型
g@@
受害者
屋顶
苹果
糖
走出
真@@
毕竟
再也
显著
每@@
激情
打破
饮食
第三
牛
规律
大象
那边
步骤
代价
昂贵
查看
加州
同情心
e@@
民众
多种
尽
实施
洛杉矶
去世
发光
追踪
猪
先进
给出
对比
延伸
得@@
里@@
防止
低@@
青少年
岛
规划
这幅
信
销售
链接
墨西哥
引擎
现状
无限
以此
争议
文
农场
和@@
咖啡
设置
单一
墙上
崩溃
芯片
玩家
风@@
全球性
小心
慈善
噪音
好事
只不过
人工
底部
吸收
重视
安排
分配
空中
华盛顿
一周
转化
护士
跟着
三分之一
制
地说
拿出
一所
禁止
想象力
欣赏
魅力
一间
色
远远
1@@
3D
听众
哲学
半@@
撞
鲨鱼
敌人
塑造
受伤
神秘
分@@
至今
相
桌子
品牌
陷入
庆祝
点击
推广
动画
精彩
出版
亚@@
偏见
自从
认同
假
k@@
满
N@@
震惊
石头
仪式
原本
页
回报
作者
W@@
讨厌
愚蠢
回收
景象
日子
看不见
停下来
包
资本
一代
电@@
比尔
150
白色
碰到
心里
同@@
成分
众多
表情
商店
时@@
由此
那位
一把
地下
达尔文
磅
亚洲
室
整合
成绩
一层
特点
一组
去过
枪
资助
学者
躺
形态
变暖
级
药品
瞬间
七@@
差
激动
街
土壤
疗法
志愿者
结婚
意大利
腐败
袭击
广场
T
频率
y@@
上来
娱乐
难@@
三种
在我看来
症
太棒了
同一
I
气
版
诊所
异常
试
火
国会
在线
性别
符号
产业
深
45
后@@
两倍
跟踪
太多
中东
远离
邮件
种子
引用
厕所
单@@
生成
好好
家长
白人
尼@@
金@@
es
比起
遭受
对抗
员
体会
安装
随机
之下
得知
运转
剂
亚马逊
阿拉伯
摄像机
液体
权
第二天
指导
四年
3@@
这块
灵魂
无聊
法则
大气
所@@
本@@
西
显得
er
谢谢你们
克@@
亿人
紧密
扩张
D
歌
性@@
布@@
确信
德@@
镜头
骨头
密度
要@@
明天
地上
感官
眼
毫无
爆发
以便
自然界
巴基斯坦
公@@
实时
定位
过度
区分
用到
最@@
最新
委员会
最为
交@@
规定
理查德
h@@
微笑
宣布
北部
供应
一首
风格
树木
千@@
家@@
形象
大陆
相@@
措施
美金
预期
古@@
舒服
透明
进程
欢迎
具备
雕塑
罪犯
消除
有机
不像
论文
花@@
承担
鸟类
设施
只会
出发
论
35
反而
桥
犯
繁殖
祖母
显微镜
扮演
摄影
生物学家
黑@@
敏感
国
既然
此外
传达
那一刻
治愈
巴@@
想着
云
戴
眼前
引导
几十年
流@@
业
房屋
厨房
推进
冰川
经济学
扩展
日常生活
扔
圣@@
饥饿
金融
朝
教会
干什么
放入
美@@
各自
交换
a@@
c@@
字典
纳
从没
掌控
分开
算是
天气
下一代
五
页面
海岸
储存
身处
框架
转向
女士们
勇气
命名
现今
编码
罗
份
冰
回顾
成像
各
动态
J@@
部位
d@@
移植
旧金山
黑色
法案
不去
写作
最早
植入
诗歌
地震
八@@
形
利润
其@@
促使
伊@@
本地
前往
气@@
火车
命运
多次
已有
某人
承受
幅
证实
格
单独
全都
乐趣
小孩子
牺牲
一方面
一堆
5000
百分之
在场
曼
头发
n@@
大楼
忽视
网页
伙伴
坚信
下午
重量
鲸鱼
可见
隐私
小行星
一会儿
好玩
领导人
差距
理
课堂
供
极
en
短信
赚钱
转换
l@@
睡
我花
词汇
手中
否则
非凡
X
含义
杀
事儿
耳朵
海
虚拟
辐射
定
留在
可不是
疼痛
不论
伤
遥远
波士顿
发起
携带
公正
挂
连@@
战斗
毕业
组装
尔@@
数据库
出于
内在
大会
势力
句子
视为
充分
多个
信心
演出
克服
干净
界
不止
心理学
相连
法@@
当下
自豪
身
讲话
数@@
花粉
有力
心灵
讲故事
前所未有
心中
无数
2008
一支
温室
两次
毫无疑问
水中
神@@
皮
脑袋
至关重要
关闭
亿年
民族
林
乐器
红
主义者
红@@
油
赚
突破
掌声
很@@
餐厅
50%
通@@
新型
各地
2010
折叠
正义
恐怖主义
吃惊
跨越
t
悲伤
粮食
伴随
百@@
贷款
抗生素
纤维
er@@
千万
就让
学家
救
物理学家
流感
GDP
不让
火@@
人才
人人
燃烧
讽刺
皮@@
只@@
美分
协调
即兴
患
海报
奥@@
悲剧
忙
接
连续
焦虑
到来
少数
死@@
资本主义
成熟
f@@
白
等于
整@@
师
序列
确认
清洁
圣经
搬
某种意义
起@@
年间
部队
运输
这才
出色
受@@
3000
走路
合法
看@@
六个
哺乳动物
伊斯兰教
起源
更@@
四处
国内
探测
酒
抓
大多
音乐家
监控
双@@
告知
未知
陌生人
楼
(
物理学
顺利
渐渐
质疑
基金
反@@
字体
采集
排
愉快
客
南部
热@@
部件
一同
竟然
普@@
绝望
设立
缺陷
塔@@
会想
增强
抽象
小时候
街头
开启
跳舞
体重
行@@
当成
乐队
哭
绝大多数
波
贸易
从来不
诗人
联合
瑞典
众笑
干预
协议
几分钟
模糊
保护区
三维
蝙蝠
研究所
前提
海水
根
一分钟
抱怨
般的
下载
安
in@@
无知
山@@
非@@
达@@
所处
睡觉
大气层
接到
气味
忘
分散
于@@
胜利
很酷
鼻子
解答
融入
不太
in
安静
笔
机场
分类
黑
地理
完善
立即
费
发送
说出
看作
童年
7@@
奖
一头
龙
水下
临床
小女孩
暗
数学家
革新
顾客
年@@
变异
点@@
再@@
失@@
亚当
方便
&
反复
Facebook
事是
手里
解放
河流
文@@
及其
别@@
90%
恐怖
走上
这台
与众不同
之上
外部
天堂
尺寸
车@@
阻碍
自信
史
描绘
满意
营养
面部
波@@
海底
一小部分
交给
随时
20%
高级
绘画
雇佣
数目
人造
付
一类
慢
整整
80%
鞋
机遇
R
身@@
演化
英文
经营
染色体
游泳
座
车祸
读者
X光
4@@
伊斯兰
退休
珊瑚礁
哈
午餐
提@@
埃
浏览
几周
体@@
想一想
无比
入@@
农村
眼镜
精力
首次
iPhone
街上
幻觉
品
视力
深度
合
韩国
挣扎
脑部
不安
正面
总会
可靠
布
I@@
珊瑚
角
困扰
好比
一刻
马克
荣幸
系
太阳系
含有
想@@
骨骼
边界
繁荣
炸弹
失明
空
每周
开来
相应
真理
当前
O@@
越@@
遵循
排@@
放@@
向前
en@@
家乡
随便
房
铁@@
第一件
巧克力
今晚
将近
走过
收获
架
洞穴
卡车
精神疾病
平
科学研究
600
失望
学科
注射
对应
伊
顿
学@@
纳米
主流
层次
变为
和谐
基
乡村
专@@
无线
门@@
血
表
替代
弹
0
爱情
绕
分裂
羊
叶
其次
希
奴隶
体制
蜘蛛
摧毁
抱
上网
结尾
走@@
作@@
不足
天才
杰出
碎片
贫民窟
偶然
哈@@
超
惩罚
10%
界面
按钮
仿佛
不如
亮
月球
2007
概率
帮忙
统治
争取
提议
评价
魔术
中央
太平洋
显而易见
遗憾
协作
编程
一员
与其
抱歉
几率
当做
东@@
怎么回事
始终
群岛
笑话
祈祷
幻想
康复
工作室
质
战略
接收
非洲人
心理学家
夫
政治家
强迫
怀孕
黄金
鲨
教@@
以往
缩小
生日
气球
很多年
留给
外界
媒介
首歌
爱@@
无论如何
孤独
有幸
飞@@
消灭
并不知道
见过
缓慢
作业
酒店
･
探测器
糖尿病
推@@
公寓
牙齿
非法
CA
人均
过于
老板
笔记本电脑
场所
主@@
统一
极度
注入
深@@
无关
目前为止
an@@
星
u@@
联盟
打击
re@@
维度
日常
北极
起到
Chris
再生
遗传
窗户
~
凌晨
对称
哲学家
保罗
顶端
六个月
嗨
服用
在乎
街区
试试
色彩
参与者
ing
女@@
高科技
项
家族
任意
申请
长度
种种
样
使命
建筑物
复杂性
奥巴马
飞船
酷
冰@@
我刚
产物
困境
接@@
工作人员
恐怖分子
事故
审视
口袋
欺骗
折磨
S
调@@
访问
食用
万年前
一小
男
遭遇
南极
队伍
男子
带领
乐
一副
维@@
盯
欲望
请求
on
在世界上
探险
苏联
海地
极@@
基地
地表
一切都是
北美
双手
诚实
纳@@
很多很多
分成
步行
时光
开关
灯泡
乔治
芝加哥
食
成人
目睹
南
原@@
集团
后代
解读
摄影师
多久
口@@
史蒂夫
自主
资产
熊
似的
血@@
创立
公布
虫
说@@
聆听
布朗
)
拥抱
参观
味道
被称作
空@@
蚊帐
取出
出售
写下
微型
科@@
纽约时报
宝宝
尾巴
GPS
底下
只用
岩石
6@@
第一步
做个
菜
监视
经典
排列
这段
做@@
你@@
代替
肢体
没人
油@@
制成
清理
亚
超@@
人权
全面
搭建
年纪
已知
推出
直@@
平常
清单
乳腺癌
电子游戏
化学物质
工
抗议
开源
比喻
产
工资
六
事@@
调
祖父
硬件
2005
形容
明@@
由@@
陆地
缺少
认可
段时间
原型
激活
司机
更新
整理
视野
信@@
沙@@
森
何时
ar@@
科
总之
你好
总@@
居然
骑
权威
源于
身为
准则
干@@
做点
丢
绘制
占据
尴尬
构想
夜晚
常
对付
姆
分别
进@@
抛弃
受欢迎
折纸
机@@
还@@
抑制
推特
轻松
创伤
NASA
木@@
亿@@
轻@@
所能
翅膀
脂肪
副
天然
草
过滤
合@@
打交道
各国
2009
刀
见证
详细
回忆
借助
书@@
干扰
花园
脸上
烹饪
有名
张图
写道
com
al@@
22
猜测
聚会
小镇
贝@@
监管
早晨
市长
水源
两天
然
依旧
迪@@
一架
感激
随意
引入
村子
土耳其
富裕
苍蝇
V@@
深海
鱼类
支撑
厉害
冷@@
歌曲
移
力@@
劳动力
短片
足以
自杀
拍照
称作
从根本上
确切
例外
刚好
乐意
负担
生病
正式
灯光
有益
聊天
鼠标
研究生
集
巴黎
邪恶
嘛
方块
可持续性
货币
优雅
九@@
管道
脱离
军事
G
传输
前景
遇见
成年
音
亲@@
瘫痪
反射
惊喜
此时
姿势
主动
办
指令
高速
带上
融化
本能
开玩笑
代
有史以来
同步
超市
图形
元
草@@
巨型
丝
栖息地
深远
不该
大街
般
设定
弄清楚
西班牙
标题
透过
情景
万个
时常
交互
生理
迪
大声
建成
假装
疯
蔬菜
哪怕
天赋
遍布
关
舒适
拜访
从前
兰
来源于
简化
幽默
实体
k
微软
传到
运算
土星
个性
狼
骨
听见
女孩子
国王
萤火虫
果蝇
地带
雄性
冒
批评
很感兴趣
被@@
积累
举行
第一@@
克斯
金枪鱼
举办
平面
今日
收益
曲子
流程
Twitter
英寸
肥胖
塞@@
有害
神话
省
亲爱
生气
M
亦
协会
国@@
巴
另一边
就是说
临时
5@@
蛇
因特网
保@@
r@@
it@@
灵活
有过
扩散
el@@
精英
活@@
有种
核能
轮椅
声@@
情@@
名@@
卢旺达
最快
常规
我试
两周
对不起
日@@
视
醒来
这首
勇敢
诸如此类
亲密
观测
外星人
三倍
这部分
负面
这家
装@@
喔
足
审查
那条
指标
发育
兹
挖掘
路线
犹太人
依赖于
迷人
天然气
回@@
轴
含量
可怜
剧院
极限
听过
成百上千
纯粹
沙
疑问
保险
人有
床上
坏消息
家具
用途
风暴
金字塔
在家
毁灭
上方
创造性
发达国家
瑞士
雨
讲讲
脑@@
打印机
皆
眼@@
维护
神圣
激素
乌干达
鸡
恶心
保障
初期
落
传染
水母
嘴
向上
福利
方
随
调节
情境
一个@@
性质
毛
拿走
扭曲
综合
触摸
镜子
舞
压
从不
市中心
at@@
轨迹
格斯
针
数码
满@@
推测
青蛙
物@@
千
et@@
投资者
阿
鼠
分解
特质
看成
车辆
七
博拉
当初
心态
轻
派对
随之
2004
顺序
两位
尽量
Ch@@
不可避免
捕捉
查尔斯
过时
家园
等到
单
纽约市
旁
一百万
床
1%
箱
怎样才能
族
运营
照明
讲座
相处
【
】
曼哈顿
图@@
温暖
撞击
德里克
海滩
成年人
遭到
新鲜
啤酒
依据
5%
脑中
每秒
沉默
文学
荷兰
近@@
病@@
震动
道@@
超出
多人
罗马
环绕
保守
领导力
哈佛
双方
战士
直线
询问
23
术
零件
法庭
无人机
‧
冬天
考试
法官
有利
二十年
检验
工作者
U@@
好莱坞
维
面@@
服
30%
录制
经
翻
最低
那次
情
27
一道
st@@
卫生
牛奶
通信
人脑
词语
上述
顶部
耐心
加纳
通道
球@@
鞋子
局
囚犯
基@@
人为
酱
困惑
要素
张@@
游
恰恰
未@@
班
个性化
2006
屋子
想过
两件事
操控
单纯
发行
六年
角度看
or@@
z@@
梦
打造
冷
周边
意图
干嘛
医学院
膨胀
塞
约会
贵
警告
通讯
医师
深深
石
存储
界限
高尔夫球
损伤
重力
太好了
天生
教训
我家
晚餐
把手
适当
店
短期
验证
托马斯
游@@
演讲者
电线
永久
免疫
坏事
屋
博@@
再说
40%
捐赠
米@@
一百@@
一点儿
不光
三天
非常复杂
任
见@@
暂时
集合
头部
1960
部长
为止
排放量
内战
寻常
非政府
开采
姥
山脉
景观
潜水
独@@
画@@
善于
肤色
严格
激烈
树@@
手上
好奇心
厚
ch@@
室内
恐怕
命
战
瓶子
匿名
盒
挽救
声明
令人兴奋
丧失
年来
早就
带@@
原料
放下
定律
活力
埃@@
这样一来
报@@
注
所用
七个
is
更是
中来
o@@
永恒
白天
交配
乳房
议题
破@@
地板
万年
知觉
游行
格@@
摄像头
排除
搜寻
轮
屠杀
主人
查
厂
劳动
电流
试想
据
匹配
作物
h
结局
精神病
埃塞俄比亚
坐@@
无需
读书
表格
制@@
封面
常@@
姐姐
地铁
抵抗
望
蒙@@
根源
研究者
艾@@
一共
结@@
相互作用
奇特
一模一样
业务
意愿
一对
明
十亿
阴道
鲸
蚁
鱼@@
19@@
毛@@
行不通
造@@
简短
异@@
不曾
节
题
ri@@
抑郁症
台上
指挥
放置
n
患上
渠道
包围
土@@
供给
偶尔
弯曲
神经系统
大胆
所见
养@@
这样的话
发现自己
湖
学术
费@@
使用者
竞赛
极为
二十世纪
键盘
阐述
明年
雷
蛋白
病菌
加贝
它@@
周期
蔓延
休息
五岁
团结
一路
或@@
路径
念
教导
友好
头上
见面
脑海中
解释一下
政客
二战
冲@@
恶化
此刻
猜想
年内
聚焦
八个
喜剧
命令
说起
切@@
外科医生
看似
公斤
玉米
救援
周
为例
一代人
返回
思路
局限
具
一大堆
解
翻@@
闻
轻易
奇
假@@
传@@
250
导师
在@@
数字化
各@@
骄傲
难民
谈判
多样化
核
加强
减轻
电视节目
蘑菇
妈
催产素
反抗
切
南@@
飞行员
不然
艺术品
论点
起初
el
St@@
宽
细
列表
登上
滑板
战场
动@@
男士
七年
放松
短@@
交通工具
大厅
智力
第一天
尊严
装备
雷@@
被迫
勒
野生动物
种群
核武器
简洁
狮子
操纵
维基百科
萨@@
暗物质
大脑皮层
名声
最小
泡沫
演变
纪录
指@@
哪@@
鼓舞
规范
人来
主导
林@@
目光
消极
小学
税
产@@
弦
而来
u
酒吧
尸体
漫长
碰
天花
链
官员
受过
比方说
瓦@@
手工
老年人
–
实质
添加
泰@@
am@@
YouTube
共鸣
普
四种
转动
医疗保健
杀害
尚未
更进一步
莫@@
碰撞
发掘
共同点
上班
总和
言@@
独自
生物体
几次
职业生涯
买@@
800
乐@@
残疾
钢琴
意
阴影
全是
毒
身后
帕@@
收@@
震撼
回复
四岁
不同于
屋子里
世
理@@
拉丁美洲
暗示
这时候
乱
线路
访谈
讯息
电子邮件
衰老
副作用
奇@@
从此
伯@@
32
俩
一无所知
d
杯
无处不在
箱子
开头
广播
普通人
星星
吸引力
一页
量子
75
火山
档案
4000
系列
大致
延长
危害
句
此@@
线索
此类
画画
编@@
抑郁
向下
没关系
搜集
托
损害
肺
主
强奸
列
个@@
瓦
包装
远程
这使
吉@@
短暂
测序
温@@
登
一款
诺
搭
追寻
激光
大人
膝盖
社群
撒哈拉
挑选
一百年
品质
生产力
做事
网@@
步
最有
120
痛
意味
入侵
总体
支出
监测
草原
激进
le
大海
邦
26
担忧
底
了@@
国民
追溯到
挪威
娜
回事
装饰
滥用
乘
印刷
无线电
宝贵
顾问
行驶
就@@
假肢
传染病
分辨
案件
汽油
青春期
熟知
尺
源
迁移
崛起
已@@
课题
海啸
伦理
雪
误解
平@@
立@@
男@@
快@@
废物
觅食
体积
用作
降落
共有
当代
截然不同
2001
存
苏@@
棒球
廉价
晚
有意识
周末
高速公路
飓风
99
不管怎样
解决办法
反正
餐馆
共@@
H
列@@
涂鸦
储蓄
盲人
点儿
风能
演说
发电
可惜
不在乎
瓶
啥
甲烷
飞过
议会
提问
自私
on@@
吹
理所当然
呃
讲@@
选项
因而
总共
众所周知
响
麦克风
终结
瞧
回头
家中
ro@@
逃离
预言
人能
授权
预计
半个
卷
P
称呼
战胜
理智
商人
决心
咨询
分数
脑子里
必然
包@@
带走
硬币
单元
复@@
修
工程学
错觉
全身
文献
感应
长达
颗
修@@
听@@
70%
三明治
修建
公式
再生能源
肝脏
上下
酸
管@@
得不到
脑子
低于
太大
花钱
电极
俱乐部
少@@
降到
万美金
the
报
帝国
希腊
产出
时尚
修改
2003
排序
慷慨
扎
端
受益
25%
强@@
问道
倒@@
驱使
卡片
持
揭示
精@@
ad@@
洗
团
财产
索@@
肉眼
那年
ag@@
第二次
ra@@
处境
特技
茶
叔叔
封闭
小男孩
v@@
刚果
护理
旅途
取@@
裔
阿瑟
群@@
可不
欧盟
皮层
普及
实行
介入
试@@
许可
到@@
戏剧
硅谷
图书
叫@@
amp
实用
浪漫
秒钟
艾
奥
喂
马丁
突出
热量
迹象
一大
首@@
感动
冲击
收
怪
早已
千年
妹妹
推
谋杀
j@@
隔离
1.@@
第二@@
三分之二
老化
第一位
突变
听听
绝@@
焦点
梅@@
军@@
脑海
路@@
四周
夸张
经理
抗
体型
板球
粪便
1990
版权
共识
工@@
始于
乌鸦
编
协助
竞选
65
气泡
伴侣
通用
妥协
施@@
该@@
在内
托@@
卓越
宗教信仰
亲自
远@@
歌手
David
从小
不愿
食物链
蛋糕
秩序
肩膀
冲
教练
癌细胞
世界银行
价
哥哥
造就
当年
抉择
至于
北@@
射击
更糟
28
停车场
盖
底层
组成部分
而后
蓝
上传
骆驼
替换
味
朝着
离@@
诺@@
这能
记
现实生活
灰色
吨
磁场
雨林
最多
套
断
仍旧
不但
举起
九个
可用
留
看做
这笔
手法
有助于
音符
基督教
弱
地去
厌恶
库
毫米
通往
架构
郊区
术语
组建
911
丢失
一封
后悔
加快
崭新
罕见
多巴胺
带入
出自
吃饭
二十@@
被动
沉浸
Y
启示
牙
诠释
蟑螂
联邦
直径
il@@
Mar@@
聚在一起
官方
猩猩
哒
眼中
画家
ed
视网膜
账户
有毒
性能
言
首席
化@@
雌性
工业革命
记@@
采取行动
偏@@
市民
上次
即时
提及
al
鲁@@
善良
五分钟
更长
呼吁
不好意思
统计数据
K
丹
刚刚开始
漂浮
环
产量
东部
新生
子@@
下次
乱@@
季节
脊髓灰质炎
地址
发给
混
实@@
通
公路
货物
新兴
有点儿
难度
紧@@
补充
不算
月份
引领
银河系
无形
仪
好多
传
应用程序
春天
线@@
拖
微妙
长久
强度
绝不
本人
这太
初
跑步
一门
桶
ey
印度人
HIV
座椅
微@@
带回
700
荒谬
滑雪
促成
名单
过后
防@@
亿美金
长远
锻炼
跟随
举动
m
不怎么
纪录片
光明
问问
校园
洗@@
加利福尼亚
故意
ol@@
洛@@
玩意儿
上百万
根@@
生于
空白
属性
养
来临
棉花
北京
清@@
在意
CEO
墨西哥湾
秀
酶
船@@
罪
录音
处理器
布什
位数
O
20@@
直升机
肥皂
痕迹
索
色@@
输出
救助
票
持久
＂
对称性
服务器
疫情
伸出
高于
玩游戏
照@@
借口
提示
边@@
尺度
回想
改@@
性格
唱片
好几个
辆
报导
卡路里
希@@
电路
广阔
合作伙伴
触及
ar
明智
收藏
问@@
安慰
教给
跳@@
着陆
弄@@
管子
雨水
寒冷
暴露
款
有太多
以南
帐篷
th@@
否认
城镇
牛@@
谎言
视@@
ab@@
us
牠
另一只
人道主义
r
汉堡
财政
苦@@
无疑
立场
荧光
深处
出口
烟
找寻
孩童
注重
根除
重塑
稍
泡泡
额
桥梁
篇
十个
残酷
语@@
姐妹
同行
参考
那段
作弊
纸@@
应付
上周
德里
宣称
北
Ma@@
帽子
画出
紧
航行
一艘
断@@
恶劣
一千@@
毁
青年
军
注册
应@@
外国
中文
指示
心情
更少
三十年
脑细胞
冰层
绳子
萨
麦
垂直
独一无二
镜
横@@
但@@
就此
很漂亮
鸿沟
温和
场合
搞笑
灵长类
MIT
水果
足迹
加热
钥匙
病例
骨架
底特律
关@@
西部
发作
定@@
大西洋
最具
背
2%
硬@@
不论是
8@@
落@@
幼儿园
转变成
等同于
彼得
经@@
船上
绿@@
刚@@
停下
荣誉
低成本
弹奏
麦克
吃@@
投@@
强有力
巧妙
库@@
城市化
多于
线性
之地
并未
末
不可@@
那会
木头
迫使
石@@
送给
初@@
将军
等级
脚@@
举手
及时
商
顶
船只
美味
玩@@
指责
同伴
遍
榜样
乔
2011
之旅
哥伦比亚
Y@@
除此之外
料
回归
60%
尊敬
经济体
饼干
目的地
威@@
考@@
福@@
非暴力
四分之一
戈尔
压缩
词@@
黑帮
聊
核@@
来回
詹姆斯
粗糙
转换成
设法
es@@
演
爵士
留言
霍@@
图画
盘
关乎
恰当
累积
礼拜
要花
奋斗
一瞬间
艾米
去掉
中期
当地人
海平面
长寿
水面
万物
老实
赛@@
性欲
一会
1500
诸如
重组
证
直观
歧视
党
犯错
珍贵
讲台
职位
起点
8%
撒谎
电子@@
美国政府
电视台
特人
氧
想想看
杀手
刺
专辑
天使
陌生
悬崖
两条
压@@
不仅如此
排名
推荐
升
上海
看一看
蓝@@
优化
早@@
分支
钟
侵入
导演
冰箱
引进
线条
一行
立
胳膊
巴勒斯坦
一英里
有效率
动手
穿@@
令人惊叹
兄弟姐妹
研制
第一批
主管
吹@@
安置
牛津
破
富
唱歌
缺失
停留
银行家
另一半
角@@
卧室
令人@@
保健
免疫系统
码
光谱
扫描仪
楼梯
三十
弟弟
薄
V
加以
药@@
食@@
hi@@
政权
吃掉
马路
人行道
逐步
后期
拿来
脱@@
罗伯特
实力
ha@@
左@@
100%
蜂
人工智能
条@@
树上
主观
贝尔
这栋
男生
怀特
虾
海里
潜能
就业
水里
捕鱼
搞清楚
野外
心智
牧师
多元
大学生
诸位
大师
一处
卖@@
标@@
as@@
叫声
一方
相遇
苏格兰
连接起来
旅游
种@@
奶奶
语音
护@@
土
John
29
求@@
冥想
3%
分割
优先
头骨
矮
创办
呈
暂停
这比
蒂
头顶
原
股
林肯
p
圆形
制造商
to
赛
伦
倾斜
迈克尔
素
杯子
最棒
同学
曼德拉
对手
没用
臂
死刑
琼斯
划@@
吸@@
牛顿
女孩儿
一圈
因子
真空
Al@@
窗口
热带雨林
停@@
智利
经费
因@@
临床试验
叙述
环节
主持人
算@@
and@@
容器
受损
古代
客观
混@@
三次
麻醉
并不需要
开支
紧急
肚子
至@@
打败
2002
拿@@
删除
弹性
我读
性感
开端
营销
艾滋病毒
赞助
声称
载
除
跨
玩笑
传送
捕食者
升级
户
夫妇
月亮
注视
迷@@
us@@
叶子
人性化
影子
DH
加工
科研
神经科学
举例来说
马拉松
虐待
感恩
数百万
进化论
篇文章
坦桑尼亚
......
岛上
首要
第三@@
壳
真菌
好人
中产阶级
圣战
反应堆
细@@
幸福感
主张
发达
选出
议员
剥夺
英国人
笔@@
三岁
苦难
低估
夜
第二点
随@@
激动人心
17@@
恩@@
z
愉悦
选@@
----
文本
聚@@
凯@@
浓度
2050
铁路
数年
主体
节省
绝
跳伞
起飞
置于
坚定
有钱
星@@
诺贝尔奖
古怪
付钱
前行
创造者
清醒
欧@@
电视机
潮
外表
替
巨@@
杜@@
一股
诱惑
何处
监禁
一番
喜悦
批准
持有
同等
Ro@@
雕像
福特
八
听觉
0.@@
节点
支架
胰岛素
古巴
歌颂
亿个
诉讼
海豹
KB
冠军
几
转化成
越大
问过
知
分为
高质量
车里
感@@
签署
价钱
目@@
进而
叫作
许许多多
收音机
ine
没能
外交
愿景
风景
玛
塔利班
不起
亚历山大
饥荒
雇员
十
建@@
所学
说实话
录
那场
散步
砍伐
沃@@
树林
发言
谷
杀@@
零@@
管理局
L
审判
黏液
Z@@
三角形
棘手
飞天
花朵
沙子
占领
南极洲
J
麻痹
类@@
投
奶酪
紫色
33
每月
顶@@
淡水
党派
is@@
肥胖症
as
平方
鳄鱼
海上
斯特
环@@
尽管如此
在外
一倍
财务
容量
弗兰克
不满
早餐
代@@
更具
中风
表述
ia
耳@@
一下子
抵达
遗产
考验
配@@
问到
反过来
留@@
总的来说
子弹
如果说
堆
折
背@@
颠覆
换@@
原先
罢了
很久以前
一杯
厨师
动词
求
货
照相机
研究员
莱
恰好
轮子
航空
辅导
民@@
son
亚伯拉罕
华@@
鼓
前后
巧合
b
BF
碎
几种
立法
木材
富人
子女
可笑
女子
寄生虫
两只
几何
频繁
白宫
综合征
设计者
案
曼@@
抗体
菌
煤炭
镇
案子
泄露
4%
意识形态
品种
关爱
故障
洗衣机
蛛丝
消化
遵守
束缚
意@@
毕业生
形势
核磁共振
意志
怪异
美的
烧@@
美国@@
歌剧
曲
夜@@
墙壁
女生
伤口
叙利亚
di@@
棕色
如下
条约
尼亚
盖茨
认出
亨利
绑
屁股
man
直至
海藻
探究
旧@@
生产总值
退出
综合症
极了
边上
人际关系
宠物
胚胎
横跨
千米
42
孟买
次数
吸烟
读@@
这套
编织
静止
最先
性爱
厘米
ou@@
交叉
征服
营
装满
充足
运@@
义务
指向
今后
铺
去除
肉@@
左
威尔
职责
惊@@
魔力
一度
电梯
开创
兔子
N
也门
爱好者
印
1950
英亩
终点
忍受
阿拉伯语
级别
偷
虚拟世界
合同
引力
弹@@
泄漏
义肢
八字胡
―
延续
钉
谱
说真的
撰写
剑桥
解剖
洛
莎士比亚
比特
上课
章
不变
一笔
每人
言语
先前
g
车子
更高
说谎
充斥
负
露
夏威夷
养活
1980
北方
脊髓
监督
层@@
齐@@
用以
玛@@
耗费
六岁
解@@
不敢
灌输
漏洞
提前
八年
联想
挑战性
第二种
一眼
越过
半小时
悲惨
士
名人
哥
去@@
大门
提交
不确定性
业余
小小
饼
华尔街
键
当天
天线
搞@@
模样
踏上
利亚
乳腺
把握
车上
享有
揭露
ic@@
6000
终极
旅馆
翻译成
逮捕
病患
资讯
尼安德
玛丽
无神论者
削减
剧场
膜
边境
受体
教科书
培育
针头
步@@
天文
侵蚀
烟@@
模块
这颗
总量
司法
葡萄
磷
经前
蜣螂
大片
照射
诸多
阶层
划分
令人吃惊
知@@
肯
喷@@
效益
老年痴呆症
主角
医药
拖@@
乌@@
事实证明
逼
完@@
谨慎
兵
退@@
制品
参@@
运送
配合
国际@@
群落
人中
抚养
创@@
领@@
南方
谷物
48
设
频道
三件
山顶
没人会
第一种
放慢
复活
迁徙
找@@
请举手
生育
尽快
近期
尽力
手势
总部
化合物
手册
15%
羞耻
丽
残忍
族群
新奇
不见
局面
之处
耶稣
好看
必需
心想
担任
微
数以千计
ay
贯穿
总有
输
脸书
商场
小提琴
大麻
麦@@
亚里士多德
雄
火星车
x
罐
探寻
少年
口号
棒极了
短短
充电
新加坡
投影
院
武装
书写
宇航员
霍华德
om@@
34
标本
一是
鲍勃
or
高峰
圈子
31
储备
乘客
水域
极好
人家
关掉
流行病
喊
一辈子
其余
现
两点
爱人
ul@@
盲目
仓库
碰巧
概括
中是
两张
要点
防御
现代化
孤立
那片
填充
并非如此
海拔
狂热
电缆
细小
无助
强制
蛋
目
雨@@
9@@
狂@@
孙子
数千
辨别
关节
眼光
热衷于
引@@
衣
明星
认定
选票
c
王
黄@@
壮观
群众
时机
化疗
查@@
摩@@
成效
分歧
瑞
丝@@
跳动
消亡
魔术师
生涯
躲
著作
治
沙丘
考虑一下
毒素
节能
慈悲
阴茎
杆
足球
尽@@
表@@
落后
变量
高达
大屠杀
美洲
题目
增长率
多余
一百
补@@
病症
大大
唱@@
The
树枝
画廊
走廊
地狱
禁忌
触动
图标
湾
中部
鹅
握
汤
名称
捕捞
议程
眼神
千个
必@@
注定
这门
书中
过渡
本杰明
忽然
新陈代谢
代谢
更快
乘坐
母
手表
圆@@
斯坦福
紫外线
拍@@
浮现
造型
而成
约束
子宫
软
遗忘
一人
胶
适宜
克隆
历程
神经细胞
爱好
第一条
我敢
总理
卢@@
这群
胡@@
涵盖
切断
热带
星盘
破解
恶@@
2012
宏观
铁
无家可归
节约
患病
科学@@
坏人
果
射@@
费曼
振动
双腿
债务
红杉
另一端
不用说
歌唱
百分比
何@@
Q
不利
简@@
iPod
守
祖父母
封
亲
幸存者
真是太
桌上
还给
私@@
萧条
读过
不远
嘲笑
扔掉
例
丁
天花板
何种
手腕
标识
新西兰
1999
封@@
音@@
蜡烛
强壮
哭泣
行程
队员
性行为
国外
平静
脏
Sh@@
坦白
包容
息息相关
并@@
思索
滚@@
犯人
挖
西雅图
名言
丹麦
插@@
第二件
住房
抗@@
爱尔兰
垫
迈克
无人
滑@@
夫人
与否
傻
肖像
量化
雪@@
伯
村
名词
含@@
地毯
安全套
平时
寻@@
灰@@
晶体管
顶尖
ur@@
候选人
四点
范畴
疑惑
发音
赛鲁士
基督徒
绝妙
属
二进制
一辆车
吓
长得
瓦特
可口可乐
士@@
冷却
id@@
程序员
36
格林
麦当劳
找个
圣诞节
莱斯特
盐
定制
丛林
霉菌
熵
小东西
峡谷
每隔
创业
追逐
谈@@
赶@@
右
图上
史无前例
百个
下方
收缩
叙事
偏远
DVD
关怀
上演
布鲁克林
招@@
圆
两分钟
电击
多大
实实在在
精神分裂症
传承
外出
容纳
et
编写
人去
容忍
追@@
野生
等@@
购物
应有
之心
七岁
还好
写@@
正要
锁定
病房
多岁
康@@
有权
支配
魔法
出错
场地
商业模式
奖学金
山上
纸张
否定
摆在
比率
双
现存
升高
组件
推断
捕获
非常容易
em@@
宝贝
培养皿
废墟
水资源
养育
某@@
请@@
类比
体温
藏@@
令人震惊
无视
咬
箭头
情节
献给
一整天
耶
连结
说唱
清除
任@@
大选
起床
面孔
婚礼
软@@
优点
伦@@
犹太
孔
英格兰
天文学家
想出
源头
兴起
细微
百分之@@
侵犯
辅助
交通@@
鸽子
两样
我该
发生变化
古
日益
无人驾驶
真主
壁虎
盖@@
地形
背上
奇异
盘子
是否是
学位
不太好
共
46
见解
章节
人格
话语
野@@
大城市
发觉
回馈
薪水
估算
响应
个人@@
麻省理工
合作者
le@@
F
淹没
互@@
绝大部分
少量
喂养
买卖
演唱
密集
双眼
打赌
休@@
获益
亲近
主宰
泥土
am
自行
后者
乐高
所作
这本
苏丹
电网
一栋
摄氏度
冷冻
直播
不禁
微博
自然而然
修理
球员
尖叫
笔记本
论坛
智能手机
糟
英@@
恰恰相反
面对面
巴士
富@@
Car@@
放射
善
看电视
Sp@@
板块
兆
前额
微不足道
有机体
制药
脚步
首都
组@@
改
砸
发明家
双胞胎
火灾
太小
RNA
勒@@
毒@@
中世纪
卡通
饮料
量@@
宪法
召集
直
挣
下雨
刷
不同寻常
运气
拇指
嘴里
枪支
恐怖袭击
兽医
加密
岛屿
抽@@
尖
彩票
杰克
腔
公交车
载荷
癌
面团
特斯拉
斯蒂芬尼
质数
毒性
操作系统
堂
协同
预料
期@@
头条
余@@
回路
非营利
不久前
两件
间接
智商
深层
佛@@
un@@
抗争
眼里
阴@@
样品
鸡蛋
平凡
特权
几秒钟
发动
随之而来
只好
视线
正当
证书
两岁
75%
取消
越来越少
潮流
我称
时会
骨@@
借
IBM
散@@
急@@
转型
体育
l
w
福
退化
衣@@
杀虫剂
配偶
洗手
知名
提起
感应器
头盔
Richard
杂耍
倡导
大厦
违反
破产
景
吓人
55
列举
停车
ac@@
撒
全美
百分之一
用处
起诉
自发
前方
冰岛
1970
探@@
装有
痢疾
归功于
世界观
服装
上空
明亮
自然选择
隧道
仿生
易@@
欺诈
错过
无力
耳机
未曾
粘
难过
偷@@
天性
平均值
难以@@
这要
法规
开会
造影
烧
史@@
写出
不足以
预知
归
品@@
音乐会
源自
LED
CD
松@@
支@@
ap@@
鸟儿
大洲
恨
流入
度假
包裹
支
过多
看清
在生活中
葬礼
男女
交往
插
时空
甚
女王
指望
骗
日期
所有权
抑或
位@@
反思
管用
三十@@
摩托车
潜意识
吉
菲利普
真实世界
滚动
车库
乔@@
佩@@
起步
画作
另一面
自愿
繁衍
速率
切割
顶峰
2020
越是
酒@@
一顿
避开
灯@@
我以
喜好
马达
增大
废弃
载@@
空调
第一年
粗@@
着@@
小伙子
物件
注射器
几千年
水分
莱@@
杰@@
香蕉
自动化
艘
切除
病情
迷
ad
摄入
劳@@
and
三点
狩猎
350
身高
帽
暗喻
肾脏
境内
是非
是@@
草地
原住民
亚特兰大
走神
买下
什
众@@
伤@@
踩
雌
2030
星际
化学家
固有
帕特
兰@@
伸@@
控制@@
毫不
此时此刻
足@@
与生俱来
测@@
接纳
校长
世代
策划
幕
宣扬
华
每一件
挺@@
山羊
东京
干燥
轻微
罪行
可乐
现金
解开
股票
付给
胎儿
吉他
耳
斯科特
舞者
ers
依@@
没事
黎巴嫩
动物园
类别
口味
展
沙发
觉
登@@
举@@
递给
大洋
座位
降落伞
越南
约@@
紧紧
烦恼
再也不会
毁掉
第三种
卡尔
密@@
干旱
易
印@@
走到
孟加拉
地下室
问题所在
做饭
三位
周@@
移@@
标注
常识
ig@@
ut@@
99%
导向
几位
枪@@
ter
ay@@
op@@
向@@
尾@@
硬
搞定
坏@@
新生儿
桑@@
精子
犹太教
特有
刺@@
海盗
选择性
弗@@
条例
母@@
生命体
飞跃
非常高兴
察觉
有意
难民营
友善
孤儿
出名
善@@
独裁者
1998
穷
言论
曾@@
即@@
所作所为
卵
交
帮@@
可视化
克林顿
带动
少于
当今世界
置
北极熊
号码
ir@@
继承
最坏
脚趾
采@@
透露
音频
支持者
原油
灵@@
维多利亚
香港
org
主席
风力
多元化
呈现出
击中
磁铁
不堪
..
蜻蜓
事先
笨
失业
师@@
服从
化学@@
字@@
辛@@
汤姆
大于
益处
资格
现@@
一声
测验
便会
恶
钱@@
作曲家
从那以后
所要
oo@@
浮@@
逃避
坚强
散
谋@@
圣
工业化
眼球
外观
将@@
养分
船长
遗传学
增@@
索马里
终身
辉煌
围@@
寄
im@@
大事
怕
传说
统计学
粒
列出
受试者
开放式
义
百分之九十
样式
十倍
时不时
真实性
砰
好了吗
贝
醒
莫
世@@
行人
云@@
捕捉到
柬埔寨
走动
激起
折@@
精细
迎接
云彩
十分之一
橡胶
鼓@@
洋@@
墨水
艰苦
橙色
液
轮廓
施加
赛车
ed@@
PM
桌面
多得多
底@@
莉
人类学家
oc@@
霍乱
杀掉
裤子
鬼
币
耶路撒冷
居@@
翻转
酒精
管制
葡萄酒
几百年
Z
决定性
流通
隐形
机率
一批
接种
脉冲
信息技术
汉
Bill
游客
绿
杠杆
盘@@
换个
违法
导@@
水流
木
泡
或多或少
计算器
嵌入
语法
吸入
捐
复苏
隐喻
蚁穴
印第安人
埃隆
近距离
厌倦
泥
选手
原有
与@@
告
领先
均
度@@
九年
生来
最难
一千
130
冲动
百
虚构
业@@
亲身
暴@@
降临
哈佛大学
水泥
脸部
减缓
稍后
人均收入
负责人
低收入
选民
av@@
鸟@@
苦
习惯于
伊朗人
会面
杂@@
管理员
供@@
An@@
风筝
愿
构思
青@@
切实
海湾
感冒
颤抖
道歉
做爱
扣
击败
伙计
猜猜
绑架
令人振奋
严峻
四天
肥料
宣言
壮大
朝@@
二者
合并
矿物
迈出
穿梭
逃@@
老年
著
人用
潜艇
发动机
绳索
锁
95%
粉丝
10000
二维
年长
艺术作品
首
睡着
医保
往@@
五千
供应链
取而代之
内向
怪兽
差@@
显@@
显现
方@@
百分之八十
农@@
传授
高层
纪念
校@@
72
吊@@
听力
圆圈
Re@@
十万
通过观察
用法
早些时候
狗@@
雕刻
本性
举例
光学
艾伦
对立
标
随处可见
素材
变形
村民
原谅
战@@
法语
Jim
栅栏
痴迷
核聚变
连接体
正常人
海外
系@@
阿根廷
沃尔玛
可卡因
安全带
心率
幻肢
1.5
流向
经济@@
局限于
社会@@
大幅
联邦政府
王@@
片子
预见
堡
斯特@@
涂
混凝土
换成
说服力
中等
古希腊
欲
清
客人
异
华丽
速
靠着
影
qu@@
沙滩
广大
肉类
蓝图
治理
总能
躲避
筹集
转身
活在
门口
开口
次@@
星体
结
打个比方
商@@
我想
意想不到
大笑
偏离
地平线
漫@@
损坏
实
拔@@
叉
潜水器
活性
东
菜单
Paul
这辆
想得到
开设
预@@
听从
三角
两边
太太
荷尔蒙
前沿
木星
拥挤
爬@@
单单
摆
妮
就行了
老虎
纯@@
粉色
指引
弹簧
10@@
归@@
赞同
间@@
1994
躯体
凭
授予
好笑
天体
敌意
在此之前
惊异
联@@
博
观
哥本哈根
测
无意
佛教
电台
氏
市场营销
公共卫生
广
蒙
抢@@
粘@@
重叠
两组
照亮
蒸发
顶级
ot@@
分泌
此事
禽流感
47
藻类
流量
85
进攻
人类文明
生动
天文学
突触
截肢
夺走
当局
科索沃
迷因
马斯克
代表性
高温
直到现在
急剧
亲吻
相结合
划
44
忧虑
一幕
奔跑
甘地
ll@@
令人激动
刻
铅笔
社会性
谈及
市区
乐团
渴求
拓展
使@@
接口
旋律
音乐厅
Me@@
喝@@
皇家
对面
一瓶
导弹
没想到
握手
污染物
报酬
从那时起
斯坦福大学
敲
背面
靠@@
捕食
路边
欢乐
领
猎物
路程
会谈
等式
一体
胸部
需@@
电邮
钢铁
琢磨
短时间
借用
再有
两者之间
非常低
柔软
针@@
37
实例
途中
泰国
三条
洪水
电源
跑道
境界
耐@@
平均寿命
Le@@
信件
承载
同一时间
绳
大地
跑@@
孤单
伤心
记录下来
助@@
课@@
香@@
鉴定
新一代
并用
咖啡馆
国度
性交
乘以
集@@
新颖
正方形
彗星
用品
奏效
心跳
饮用水
照料
ra
无辜
汇聚
闪光
我妈
赫@@
西班牙语
笼子
登陆
思
不难
舌头
配方
追溯
95
一看
抬头
展出
一棵
冒@@
慈善机构
说不定
阿尔@@
百科全书
争@@
泥@@
威廉
告@@
磁共振
尾
流传
好象
男孩子
贪婪
天真
娶
割@@
街@@
发放
书里
五种
恐慌
法院
快要
用药
灾难性
救@@
Wikipedia
«
»
章鱼
140
裂缝
硫化氢
几百万
有利于
行得通
总而言之
事务
推理
工作岗位
譬如
改良
世界级
考察
缩短
蒂@@
影@@
逃脱
沉@@
简
旨在
病原体
手套
滑
虔诚
签名
每日
陈述
有生之年
第三点
松
特效
de
多一点
出路
预先
脚下
羽毛
痛@@
责任感
限度
散发
寄给
贫民区
感性
一阵
忠诚
sh@@
颇
迷失
王国
1984
淡@@
食堂
快感
陪
计
澳洲
看得见
助手
草图
维尔
多长时间
浴室
出门
村里
虚@@
地被
敢
谢@@
激@@
据说
逃跑
某处
一口
能为
什@@
失调
踢
第@@
偏好
职
敬畏
高潮
两人
就象
漫步
权衡
夜间
程
父
大道
爷爷
微弱
光亮
立体
创始人
共用
贝拉
全职
筹款
思@@
科学界
右@@
不介意
户外
数十年
记载
一万@@
秘诀
工艺
开办
居
当选
阶级
做手术
习俗
市郊
摩擦
魔@@
捐款
昨晚
简易
筛选
谈一谈
独裁
充分利用
顺着
土著
飞翔
脊椎
签
发挥作用
挤
一两个
说些
肯尼迪
开销
元件
会员
格子
平行
击@@
收费
冷战
耳蜗
冲浪
剂量
甜
獾
氢气
哩
叠
叶@@
摩尔定律
Abed
手稿
格伦
娜塔莎
更深
鬼@@
荒唐
税收
每种
透明度
点燃
水准
班@@
一次性
系统性
才华
常用
致敬
动脉
久@@
史密斯
本土
念头
技术人员
获利
麻省理工学院
钞票
ie
每件事
制造业
都市
圣保罗
果@@
友
稍稍
虫子
出乎意料
参数
it
何方
女朋友
相片
排队
好友
德国人
环境保护
酯
海面
半岛
河@@
便利
借鉴
蒸汽
姑娘
图中
产卵
转折点
认@@
纠结
立马
指着
岁月
於
远处
骑@@
茨
Mo@@
收购
幻@@
百分之二十
新世界
用水
1995
升@@
入口
联结
信不信
十岁
临@@
整天
那张
波长
闪@@
毫无意义
不妨
乌贼
缺点
剩
os
见识
累
香水
梦@@
削弱
引出
罩
切片
黄
用过
更能
右手
便@@
过分
传粉
害虫
饲养
李@@
雇用
宏伟
笛子
适应性
圆柱
一盘
研讨会
飘@@
波斯尼亚
侧
ell@@
甚么
转过
饿
艾滋
流体
恶魔
人力
罗斯
提倡
氢
宝石
摸
铜@@
崇拜
双向
漫画家
二十
柏林
魔鬼
液态
对照
光照
上台
X@@
多亏
降@@
脖子
暴乱
无意识
内存
纹
棍子
超新星
误导
缓解
分形
胖
超人
打扰
画像
奖项
跨国
生态圈
印度河
狗狗
海洋生物
翼
平方英尺
柱子
别忘了
会为
一个个
芬兰
祖国
范例
特色
里约热内卢
重现
乘@@
砖
丽@@
楼房
你家
优美
推移
各类
歌@@
一首歌
W
一秒钟
准
深层次
角落里
客厅
那好
漂@@
进口
牡蛎
li@@
说来
享用
除去
纠正
埋
拜托
伸展
生命周期
上个月
过得
一侧
寄@@
抬起
畏惧
裤
在读
更强
贵@@
拜
性生活
减速
时钟
38
螺旋
戏
租
老龄化
不必要
胜
扎@@
笔记
欧
Steve
连线
通知
龙@@
信用卡
王子
上市
垂@@
浏览器
谜团
倾@@
蛙
Pete
挂@@
第四个
加仑
电子设备
境
占用
内心深处
温柔
尤@@
功能性
读取
穆@@
依照
运
节@@
减@@
秘鲁
卡塔尔
无关紧要
成型
适@@
后退
信奉
谋生
闻到
丢掉
很强
悬浮
16@@
量子力学
一棵树
追随
点亮
聊聊
剪@@
齐
红线
坑
研究院
调研
高尔夫
费城
浅@@
无趣
纹身
第四@@
清晨
八岁
抵制
Be@@
海军
纯
充满活力
纸质
摆@@
直面
网络@@
车站
敞开
美学
较大
抢
特例
大奖
五十年
坟墓
百分之十
毛发
核弹
ch
数十亿
电能
涌现
滚
ho@@
木偶
流感病毒
诺顿
变动
遥控
片断
滑稽
乐谱
岗位
童@@
下班
没见
波兰
重生
葡萄牙
烟雾
农作物
会场
英国@@
汉@@
野蛮
音调
无能为力
稍@@
唤起
研究成果
第一点
前来
奇怪的是
发声
光源
密切
有创造力
根本无法
既有
il
震@@
真诚
国旗
贴@@
堆积
1900
流失
神殿
凯文
触
无害
一对一
须
面向
几张
再见
权@@
仅@@
过量
出行
支柱
小事
乡下
播
必定
医疗系统
扼杀
雅@@
周五
填@@
拼
迷惑
馆
充@@
绝不会
千万美元
打动
强化
书本
机能
营地
标志性
吞噬
维修
光纤
存@@
钢@@
己
鲁
微积分
琳
请问
尔顿
井@@
违背
压制
爱上
峰
幼@@
活动家
住所
些许
屋里
惯例
放进去
谈过
民
助理
朗
佛罗里达
坎@@
球体
片@@
超声波
X射线
象@@
授粉
牛肉
之多
致死
直立
建构
教义
ev@@
惹
匠
2500
尽头
占有
太过
咱们
那有
路德
抛@@
抗拒
继续下去
输送
安全性
幻象
癫痫
纳米比亚
这事
险
质@@
谷@@
坚固
肺部
能源消耗
百万美元
鸭子
八十年代
面试
排斥
共事
饭
控制器
煤
停滞
x@@
多样
Jo@@
美德
菌丝
官
强力
水质
甘@@
沙特阿拉伯
同性
公交
服役
增生
岩洞
蜗牛
汇款
糖@@
交响乐
奥林匹克
压迫
基层
历@@
彩色
补贴
请来
众
升起
季
力气
窗
一双
光滑
诱因
衍生
就业机会
竞争力
留下来
池
降
嘈杂
ent@@
分化
那才
最少
第一张
不住
两百万
赶
数以百万计
2.5
认证
港口
午饭
手掌
消@@
奉献
灰
飞到
抵消
轮@@
特区
含
这间
肮脏
离婚
得来
若@@
奶牛
使人
步伐
灌溉
辛苦
营养不良
可悲
校
彻底改变
奖金
配对
粉
推销
树立
捐助
避难所
降雨
刊登
顺@@
摄像
计算机@@
东方
脱
温
默@@
荡
此处
43
生物@@
失败者
15@@
细致
世人
西藏
怀着
压抑
扯
斗
瀑布
钻
百分之百
熊@@
一串
加利福尼亚州
桌
夜里
十足
纽@@
剧本
灵
羊@@
这头
鸡@@
式@@
科学技术
辨识
切换
束
插入
革命性
几百@@
最高法院
推翻
玩意
协商
最让人
吻
仁爱
诗@@
竞争者
东欧
专用
亲人
艺术@@
小规模
突尼斯
九
十一月
书上
跳跃
假说
原子弹
假若
禁@@
胜过
失控
基石
半球
韦@@
证人
移除
贿赂
瘤
波动
导航
电器
um@@
颗粒
政党
十九世纪
陨石
胡子
前列腺癌
天上
电场
夸大
集中营
里斯
怜悯
尖@@
爱滋病
无线网络
董事会
林冠
展@@
160
透
地里
180
为生
单个
造福
急
不得
半年
次方
别处
写成
扫@@
左上角
64
参照
不感兴趣
纳粹
专业人士
后院
框
拆除
一阵子
十二
2.@@
乐于
佛
害羞
不太@@
功@@
孕育
而生
摇滚
赞成
轰炸
竟
旗帜
露出
跟@@
澄清
兵@@
寒@@
州长
浮游生物
珍惜
最最
乌托邦
攀登
怪物
极具
上个世纪
围着
Ar@@
耗@@
其一
建了
自由@@
更换
荣耀
镜片
省@@
有何
汀
家庭成员
避@@
初步
撒@@
裂
吸取
灰尘
井
绝佳
潜@@
隔绝
秋天
每晚
1997
修正
Tom
函数
待@@
好得多
失落
跨过
胸@@
看吧
肯@@
赞美
iv@@
换言之
出新
变换
0@@
第四
熟
雅
陷阱
知识产权
素@@
务@@
废@@
科幻小说
指控
我先
ud@@
降解
保守派
社团
Youtube
纷纷
短缺
抛开
网状
较@@
ec@@
种族灭绝
达赖喇嘛
名义
可兰经
散布
所指
客@@
皮革
相似之处
那样的话
香味
做不了
尚
遥控器
欲@@
3.@@
隐@@
周日
罪恶
派@@
活生生
累@@
生机
非洲大陆
推行
猜@@
茶@@
再用
同理
矿
植被
色情
面貌
透@@
老兵
发短信
深奥
姓名
翻车鱼
建起
台@@
但愿
入狱
我见
招募
剧
舒@@
ic
磁@@
应急
救护车
讲完
加剧
不动
瑞@@
戈@@
quot
游说
药片
周围环境
知晓
质子
CO2
幼虫
四轴
奖赏
竞争对手
约书亚
化身
周年
孤儿院
口音
部署
残疾人
Alpha
乌云
摇晃
山谷
玩乐
羞愧
长长的
7%
共性
学业
突@@
留意
行政
破碎
不受
钻石
欧元
路易斯
暗@@
声波
土豆
自我意识
涂@@
永生
精准
填满
差点
登录
刀@@
OK
提炼
高出
功夫
通向
百年
窗外
信赖
大面积
十月
摔倒
触觉
倡议
振奋人心
号召
遍及
艰巨
终@@
赤道
最能
首相
邮箱
德克萨斯州
亮@@
谈起
观众们
假想
一致性
脏@@
不出
树叶
辍学
ak@@
外星
雏形
奥秘
SETI
感谢您
然@@
扭转
毛病
积木
现成
戴@@
地步
狂
封信
找回
关键在于
第五
健全
里头
考
抓@@
安全感
儿@@
乎
维亚
擦
ot
史上
Dan
标语
不谈
建筑学
小狗
1991
宇宙飞船
豪@@
森@@
牢房
模
分辨率
鲜明
气温
减弱
行进
一夜
退
召唤
哮喘
署
流逝
九岁
小屋
汇集
教书
几百个
公立学校
期刊
剑
孙女
年初
摄影机
许
牲畜
共和党
账
农
终止
一枚
缩写
幸运地
2015
亲戚
势
永@@
宏大
花生
泵
蝴蝶
座@@
多重
债券
射
腐烂
该国
深深地
津巴布韦
金融危机
嗅觉
后续
父@@
振奋
韵律
底线
感染率
这篇
ip@@
侧@@
酸@@
外科
牙医
周遭
一到
切开
红酒
面纱
废弃物
固体
示范
盈利
教条
ub@@
减
宝@@
意料
后台
情报
溪流
坐标
沉重
～
一小块
坚硬
隔
造出
揭开
峰值
住宅
数值
婚@@
敌
死者
失聪
兼
1996
晶体
俄国
前线
光速
消防员
不来
领养
古典音乐
临床实验
民权运动
网民
1945
发电机
委内瑞拉
净
骨髓
真心
仇恨
ley
瞄准器
骨骼肌
特兹勒
最长
摆动
精致
共产主义
搬@@
闹
点钟
先锋
最差
纳入
两大
构架
威力
网格
厅
尖锐
吉姆
尔斯
聚
sp@@
怪人
斯坦
仅仅只是
敲@@
一扇
柜
传给
晚期
弓
迄今为止
音量
鸣@@
全力
怀
修补
联络
不管怎么
布满
渔民
蕴含
世界@@
全人类
收回
效力
余下
成品
上涨
信徒
话@@
捡
我爱你
忍不住
境地
营@@
Mc@@
班加罗尔
原材料
相对论
六种
一丝
并不一定
经济危机
烤箱
各处
微观
出版社
共和国
韧性
人心
灵活性
900
徒步
定期
带回家
附加
刮@@
走近
宁愿
恻隐之心
人想
副@@
吸
热门
呼叫
一提
一月
偏差
这辈子
观@@
一号
尼泊尔
静@@
叠@@
历史学家
云层
四倍
撞@@
疯子
买来
猛犸
标示
聚合物
政治@@
像@@
把戏
磨@@
杀人
Ad@@
距
老爸
战后
盟友
all@@
悲观
巴比伦
宽容
一整套
学过
车道
和解
抗药性
负@@
嘴巴
柯@@
耗尽
阿波罗
集会
怀@@
吓坏
地质
有天
起源于
弯
杀戮
一滴
方程
煤@@
目录
过滤器
肺癌
地域
出发点
电脑游戏
经受
假期
香烟
评@@
泰勒
鼻
赶紧
实物
变老
失效
往前
斯诺
左侧
一千个
苹果公司
末期
馅饼
之大
回避
打扮
ta
闲置
草坪
侮辱
现代人
冰盖
村落
茶壶
手提电脑
袭
Gu@@
螨
线虫
平民
评分
首领
执行官
蜂群
口语
披萨
丰@@
加油站
米洛
触角
脊
缩@@
丢弃
笑@@
抱负
阻力
制定者
毫秒
慢性
世俗
哪种
四十年
都@@
商业@@
觉醒
抛
戏剧性
氛围
圣诞
碗
异议
弗
94
器@@
歌词
甚@@
爵士乐
杂音
中东地区
所在地
浓缩
卖掉
容
共生
答
寂静
one
外壳
混淆
张力
显示器
渔业
四肢
卷入
抵御
介于
鼻@@
一个男孩
楼@@
Robert
擦@@
追
ore
无所谓
从未见过
新药
挫折
可言
港
拼@@
除@@
迷宫
答应
洗澡
慢@@
太快
嫉妒
写信
被困
输@@
携手
空地
区@@
演@@
三到
上层
观众席
打猎
剩余
瘦
全身心
一口气
开拓
勉强
注@@
像素
杰作
表层
备
述
人造卫星
8000
近乎
逆转
津
前列腺
当有
两到
・
环形
用心
电路板
颠倒
劲
借此
猪@@
弯@@
轰@@
苏珊
祝福
左手
深信
红利
生态学
渗透
共和党人
比利
噩梦
闲@@
接管
都行
大吃一惊
政府部门
ik@@
叹为观止
场面
向往
迈向
利比里亚
假定
缘故
初级
流动性
大猩猩
守@@
熟练
志愿
警察局
蜂鸟
积@@
害
幸好
送@@
初始
宽@@
Linux
出席
憎恨
坦克
致@@
偏头痛
地雷
百分之三十
隔@@
西方人
能用
一个点
越发
人种
东非
西伯利亚
所得
奥斯卡
毁坏
汇@@
矿@@
树脂
高压
自家
制造者
胡萝卜
仁慈
维生素
常态
黑板
紧接着
变小
问世
被捕
每分钟
开着
收养
摇@@
透明化
美食
条款
拉比
形@@
稀有
广@@
优@@
图里
水管
室外
不同之处
破坏性
大不了
血压
视而不见
驾车
异性恋
三周
限于
小麦
缘
节食
尖端
母语
本世纪
五十
礼貌
历经
蜂巢
手术室
Se@@
呼
偶像
废水
太高
哥@@
基本@@
民间
薄膜
对外
个人化
弥补
奴隶制
阴蒂
冷静
gt
平和
鲜花
JA
高尚
ang@@
阿拉斯加
维基
黑桃
盖瑞
播出
半数
梅琳
一端
捕
螃蟹
会用
长出
捕猎
雇主
招
典范
各式各样
化学反应
那座
逐@@
放映
7000
年底
知情
头衔
地想
州@@
其为
有所@@
许多年
道具
方形
他来
传奇
球场
音乐@@
东海岸
填补
评判
杂货店
枚
事后
爆@@
大使
at
吐
弃
跨国公司
海岸线
重心
外形
复合
斑@@
火焰
自觉
社会学家
行事
蓝鲸
着眼于
自然资源
小儿麻痹症
之际
十五年
以防
舱
遇上
久远
态
过往
广义
麽
博士学位
菲@@
Am@@
自给自足
拼命
会以
碎@@
粉碎
要花费
关上
译者
预示
一时
达拉斯
开发商
馆长
百分之五十
冰块
忘掉
解析
公元前
内疚
打字
责备
搜索引擎
lo@@
器械
文档
ow
翻倍
达芬奇
主持
重返
颜料
史蒂芬
席卷
改编
联网
唤醒
自我@@
画布
犯@@
困
指定
囊
侧面
争辩
漏
餐
会议室
木板
顶上
头痛
余
鸡肉
爱丁堡
濒危
存活率
椅
还原
布鲁诺
得主
许可证
欠
凡
丝毫
人类学
貌似
大家庭
整
哈里
错@@
并不认为
Ted
夜空
陈@@
皮质
展品
仔细观察
搞砸
年级
睡@@
瓦解
弄清
池塘
剪辑
巨星
万名
博弈
冷漠
童
走来
高空
世界卫生组织
过世
袋子
姆@@
归类
ve
制片人
暴力事件
精美
完完全全
有所作为
七十年代
螺旋桨
空洞
co@@
糖果
有所不同
第二年
敏捷
一课
超大
骗子
配
治@@
福德
略
双臂
蒙特
大国
谴责
自然@@
未经
放心
乙醇
赌
处方
法国人
掷
刻意
收取
设@@
备@@
马特
威尼斯
中心@@
he@@
极小
自由派
通货膨胀
氦
光芒
有位
ton
美军
这组
马可
氮
运到
学着
花掉
拍打
次序
甜@@
巢穴
万亿美元
生产商
伐木
George
古兰经
｢
｣
按下
马车
本拉登
行贿
半径
Alice
贤淑
喷发
三维空间
一团
爪子
源泉
各个方面
摒弃
喝咖啡
批判
钻@@
不许
残@@
缺@@
政
行者
视作
教学@@
官僚
第一代
内涵
扬
待遇
三百万
ace
110
］
较为
莫扎特
集成
营造
新书
简称
势@@
完全相同
弱点
作战
半夜
海域
塑料瓶
盐@@
奢侈
一个半
勾@@
老式
DJ
登山者
局部
枯燥
误@@
游动
国会议员
重新@@
返@@
忍@@
吸毒
出身
也好
露@@
九月
控
布置
信条
Co@@
第三次
驾驭
交易所
亲眼
做生意
野心
技术@@
浪费时间
环境@@
容@@
灭
忙碌
该死
湿地
试试看
按键
活到
恰巧
触@@
渺小
奈@@
尼尔
非得
加拉帕戈斯
约翰逊
就行
go
矩阵
越来越快
吻合
罗斯福
喜@@
1975
技艺
一秒
宇宙学
数量级
二号
另一组
依
伏
立方体
零下
赶到
祷告
碳@@
股东
做起
不复存在
推特上
彩@@
有的是
迎@@
书店
Michael
电话号码
会计
夹
诊
召开
排泄物
极少
自由主义
护照
忙于
海运
嵌
CT
几点
略@@
强暴
爱德华
散播
先知
清真寺
不适
棍
永不
团@@
根深蒂固
瑟
亲身经历
少女
ke
钱包
先是
击
摆弄
菲
摸索
惊叹
查找
se
军方
奥地利
塞拉利昂
肺结核
条纹
烤
五分之一
字符
欧洲人
捕杀
轻轻
滴@@
穷@@
沿
真得
雄@@
元@@
论者
喜
没人能
In@@
墨@@
时速
丑陋
生活@@
深受
十分钟
万能
万亿
猛@@
值得注意
1993
反向
脸谱
读到
各不相同
指南
审美
结晶
Mon@@
罐子
六月
终
朗@@
学期
免@@
锅
食谱
骗局
伊丽莎白
图景
96
电荷
方程式
芥末
执政
等等等等
布拉德
对照组
戈
头疼
露天
运河
挑
姿态
第三方
非裔
土卫六
算术
刹车
墙@@
衬衫
瞄准
雇
一条线
空间站
书呆子
帮派
贴片
思想家
冯
字节
对策
我成
疼
参军
伊甸园
开到
族人
利比亚
伪造
造出来
意粉
名片
艾迪
费洛蒙
地向
加勒比海
冒出来
用不着
漆黑
破裂
蟹
层楼
严@@
反驳
乃至
腺
气氛
孤@@
公认
这根
引人注目
购物中心
标准化
狭窄
超级计算机
壁
裙子
单身
阿姨
下周
生物科技
特意
自问
个人电脑
演绎
威
一块儿
附着
背包
一大群
块钱
信封
检视
供应商
作出反应
拨@@
打个
非同寻常
不可或缺
坦诚
分校
菲律宾
摩尔
地貌
急需
ing@@
市@@
板@@
作画
贝壳
可塑性
岸
栖息
牙@@
流域
热点
雷达
世间
航班
毁灭性
会长
外来
据@@
卡梅隆
中断
复发
祝
签@@
会上
长话短说
等候
空军
烂
败@@
脸@@
转到
外太空
航
判决
充满希望
附@@
描写
店里
速@@
恋爱
传遍
复兴
灌@@
之手
吓@@
一封信
牌子
争夺
保险@@
幸存
挡住
很想
子孙
不道德
历史性
端@@
替代品
肆虐
稳
蓝鳍
感谢上帝
巨人
最深
鳍
继而
里根
服务@@
月@@
种族隔离
打断
回过
胶@@
侦测
至此
伯格
延迟
冒犯
静态
不易
ster
很近
氧@@
只想
好似
发病
一则
香
现如今
第一台
汲取
启迪
障碍物
珠宝
放射性
纳税人
心血管
Susan
审核
干脆
ry
鼓舞人心
伤痛
仿生学
五百
BG
罪魁祸首
被判
凭借
严谨
倒塌
神父
县
能比
Anderson
腰
规矩
两千
展望
息
人口@@
阐释
甲@@
铭记
扔进
重申
物资
逆转录
淀粉
金星
出租车
下滑
开发者
殴打
真想
领悟
慈善事业
悬@@
雾
Pro@@
城里
健康状况
生产者
煤矿
一排
省下
庆幸
争端
预料到
yn@@
柱
信贷
汉斯
架子
2.0
棵
外套
金色
水泵
陈旧
京都
押
陪伴
印度尼西亚
来往
笑脸
电报
aw@@
英镑
力度
沥青
公共交通
第二条
不上
酋长
升华
窝
离子
贝多芬
逆向
坦
原子核
闪烁
命@@
莎
带宽
闪电
固@@
喝酒
数以万计
哈勃
移动电话
建模
抓取
愈合
总有一天
复原
1989
走开
友谊
养蜂人
割礼
取悦
芬奇
昏迷
非零
同类
失踪
出乎
强子
大笔
相近
Arduino
制止
Ushahidi
裸露
Danny
Romo
库尔特
艺术节
一氧化氮
WK
景色
伍@@
红外线
孔@@
毒害
活得
练
平均水平
鸣
投放
匈牙利
悬挂
捍卫
只花
方方面面
烦
得出结论
废料
转基因
好极了
［
发誓
新建
举措
音响
展现出
他用
哈哈
承@@
ak
易于
um
ant@@
录@@
U
充实
敌@@
41
服@@
扣@@
亲眼目睹
乌尔
耕作
站@@
伯克利
向外
坦白说
公海
可信
地是
惧怕
入手
串
下车
一连串
百分之二
往后
戴着
一般来说
犹豫
论证
增
往下
新闻@@
自然灾害
读完
中立
旁观者
CNN
泡@@
及@@
快点
把@@
射线
可行性
中年
不起作用
之快
往常
岸边
拽
剧烈
导
一束
顺从
很久
电动
初衷
9%
Andrew
转过身
获胜
萨拉
右侧
加州大学
崇高
清洗
数个
油画
推向
Skype
上瘾
车轮
异性
可视
跳进
征兆
撑@@
闭
防
仰望
筒
消逝
ff@@
先天
沉迷于
捷@@
外向
聚到
蛮
黏@@
太阳@@
主任
探
迎来
贾@@
细胞核
状物
胶带
辨认
形体
照相
抽搐
掌
狄@@
民主党
故乡
房@@
性命
1986
在历史上
麻@@
规@@
穿透
假象
舍
虚假
义@@
班级
打仗
织@@
动员
不起眼
衰落
教徒
借@@
全国性
院子
相互@@
系统地
灭亡
每位
花蜜
97
融资
粘土
股@@
外国人
示威
T恤
不应
为主
左脑
四十@@
债
思绪
北半球
远方
奥运会
望@@
数据@@
女友
开阔
Ra@@
镜像
寄钱
碳水化合物
耕种
铺@@
六十年代
顶层
碰上
坦@@
驾驶员
阻挡
军人
日历
溶解
逆@@
身材
心存
不已
触发
0000
目击者
胆@@
赤@@
列车
路面
答复
傻@@
炒
好吃
阿尔
敬@@
这话
不为人知
berg
尔特
汁
哥白尼
置@@
偷偷
携带者
患@@
国家@@
饱@@
琐碎
溜@@
巴贝奇
阿姆斯特丹
绕过
洋葱
保密
配置
Kar@@
牢固
污水
袜子
+
混合物
朱@@
神经学家
远比
孢子
眼泪
保姆
ana
au@@
夫斯
深渊
希特勒
提案
航线
继续前进
南美洲
蚁后
葡萄糖
富豪
拍手
掠
美国国家安全局
游击队员
蠕虫
吞@@
一一
下个
不经意
抱@@
橄榄球
问卷
却说
埋@@
决策者
付@@
金额
务
不良
一流
远不止
遗@@
多达
而战
警@@
加深
爽
痛恨
挤压
张纸
行为@@
各州
改动
永久性
谦虚
卡拉
流血
幅照片
拜@@
长滩
路过
布莱恩
习以为常
进食
远古
汤@@
多伦多
告别
三大
os@@
创
讲解
挠
大拇指
捕@@
大不相同
好转
幕后
社
减半
爬行
获
一再
星巴克
银行业
感触
ran@@
识
打着
难受
毫不@@
坐落
烂@@
极高
圈@@
抬高
峰顶
不断@@
生化
宜家
自传
太久
富兰克林
效
夫妻
殆尽
简历
挡
私营
后方
暴风雨
浪潮
孟加拉国
酷@@
很糟
讨论一下
突破性
耗
能活
右手边
碰@@
西海岸
劳工
更让人
诱饵
无声
四次
唔
刻@@
修饰
计数
Em@@
二月
教育@@
我举
讲个
格言
论@@
家务
布局
圣地亚哥
SA@@
对准
再现
奥克
52
谦卑
介@@
ass@@
美满
简而言之
银@@
宇宙空间
昏@@
睾丸
数月
一粒
度量
欢呼
最大化
独处
圣诞老人
偏爱
团结起来
表皮
迷你
办@@
天天
向着
功课
台阶
生态环境
步入
甲虫
落下
孕妇
世界纪录
生物量
非盈利
课本
图纸
燃料电池
纪念碑
天主教
年复一年
猿类
海马
一堵
格局
ah@@
完全正确
不带
歌声
蛋@@
转折
民主@@
进到
悲哀
政@@
亲手
寄生
那块
真有
垄断
科技@@
部@@
印刷机
不至于
日志
内罗毕
定居
猎人
个案
正向
保卫
本领
办到
状@@
结核病
不准
谚语
鲍@@
往返
确诊
MRI
平方英里
胰腺癌
渡渡
制服
稿
货车
来得
采
玩儿
机翼
疯@@
En@@
未必
五月
自上而下
自下而上
付诸行动
小额
纸巾
屈@@
祖@@
迫不及待
犬
先驱
陪审团
商业化
站立
从头开始
盗版
电视剧
风车
归属感
米尔
乏味
公共@@
航天
牙买加
洞@@
募集
枪击
驱逐
减排
挖@@
ion
瘾君子
ver
去向
货架
圆点
传来
更难
得病
摄取
用手
链条
铜
Br@@
轻而易举
滴
会花
着想
蜂蜜
骨折
本该
调控
晓得
休假
1968
太阳光
战役
火柴
流过
即可
牵@@
马拉
时装
园@@
人生@@
同胞
局限性
里程
传媒
指尖
日语
磨
花上
木炭
夸克
跨@@
起义
观察者
眠
At@@
查理
饱受
从何而来
照护
充气
九十年代
原始数据
2013
供电
抢劫
瓶颈
ha
安全@@
阿奇
後
开罗
肝
胞外基质
搭配
字幕
盐水
刑
ast@@
模因
飞越
丽贝卡
邻苯二甲酸
粪球
StoryCorps
海边
涌
再度
白痴
载体
不信
儿时
害@@
审@@
肌
仰@@
议@@
饭店
口中
日记
素质
人工@@
冰山一角
麦片
上时
几十亿
这层
犯下
故@@
卡内基
匹兹堡
财@@
汽车@@
结果表明
本科生
ce
合唱团
所想
一团糟
76
写给
蹦@@
室友
耻辱
反击
一家人
张贴
局势
解放出来
海绵
持续性
胃
奶@@
农田
游荡
炎
横向
很深
马达加斯加
预警
进度
环绕着
共同努力
免于
肺炎
跟上
心思
生产线
读出
长官
指挥官
每时每刻
互相@@
多钱
ach@@
时段
逃
活下去
执照
迈@@
不丹
给@@
公顷
套@@
谢
紊乱
迷恋
警示
驱动力
肠
习
品味
计@@
舍@@
未能
救济
码头
医治
门槛
据我所知
比较@@
冰冷
夏
殖民
头绪
栋
掩盖
背叛
汗
品尝
畅销
莎@@
精通
踏入
迫切
侵略
抗抑郁
诱人
竭尽全力
间隙
之情
文艺复兴
似
尝
维系
牛仔
诗意
调动
树干
磅重
攀爬
日光
各项
冰面
器材
眨眼
精神@@
万种
毕生
南美
巧
社会变革
尘
记下
宁静
被忽视
摩西
事例
刊
此地
羞辱
书名
某天
虎@@
穿行
喇叭
不吃
相像
无情
执@@
不大可能
演变成
砍
湿
七千
田@@
焚烧
痒
界定
废
抹
变性
ow@@
f
智@@
笨蛋
剥削
缝@@
iPad
辆车
停顿
耐克
终将
英
才@@
第三世界
一朵花
背部
装配
生计
三分钟
投射
上午
猎杀
简要
丰田
武力
59
大大的
协定
1800
常数
十五
54
号@@
血流
发明者
数学模型
映射
光子
后排
庄稼
默
铸造
胸
疗程
傲慢
He@@
热衷
相符
乳@@
决@@
瓶@@
围栏
阳@@
紧凑
广告牌
邮@@
污@@
急诊室
老天
自然环境
小点
if@@
阐明
James
镇@@
盲@@
巢
暴龙
良@@
右下角
警方
精神分裂
鹿
某件事
履行
堕落
125
高地
一趟
操@@
干涸
火腿
®
搬到
印尼
箭
着火
宿主
随时随地
不爽
付款
冷藏
赖以生存
能源@@
涡轮
医护人员
年时
全体
泽@@
闭@@
改变现状
泰迪熊
世纪末
幻灯
拉斯
与世隔绝
册
百分点
太难
净化
药剂
外科手术
碱基
发酵
宁
不敢相信
解除
付费
假体
原地
灵光
抵押
查询
地盘
塔斯
浪@@
减肥
塔拉
慈悲心
众生
四分之三
捐给
凯特
布鲁克斯
lt
Wolfram
派遣
取样
蝌蚪
生死
钓鱼
东亚
矿井
沃森
巨额
藉由
牛津大学
旅鸽
MA
爱心
基里巴斯
热能
追随者
蚁群
克莱@@
加油
建筑@@
越高
菲尼克斯
高血压
纽
季候风
达菲
建筑业
贪腐
AIMS
超导体
走遍
兹@@
骚扰
纵@@
阴谋
正因如此
熟@@
畅@@
优质
职@@
解脱
得益于
物理@@
棚
这天
毫无@@
读写
血统
酵母
卷@@
随处
辞去
撕开
干涉
股市
偷窃
回报率
高等教育
补偿
不单
Peter
节拍
操作@@
曲@@
重症
西蒙
杰
完好
西非
改成
夫@@
Su@@
空前
体育场
密
诉说
麻木
巴勒斯坦人
幼稚
炉
稀少
洋
龟
新奥尔良
水族馆
ss@@
采纳
裹
入睡
摸@@
止@@
此次
普查
商务
每条
沃伦
戒指
膝
好几年
我本
瞧瞧
电影院
连在一起
起因
买得起
别说
卓@@
起草
营养@@
萎缩
纸片
匮乏
光是
趋向于
春@@
保持@@
多动症
拆开
关联性
浸@@
床@@
性关系
晚宴
书面
转而
致
西欧
午夜
所有者
游泳池
路途
动荡
会变
原则上
下定决心
香肠
湖泊
下山
瓷砖
踏@@
咀嚼
感同身受
心底
液@@
一米
试用
摩托
专栏
拷贝
1982
赞
Par@@
航空公司
女神
轴上
自尊
批评家
掉下来
那幅
旗
稀@@
漆
平板
呼@@
献@@
牛排
卡特
谜
精华
一队
苏
千万@@
坠落
下落
盲
一步步
阿特拉
豹
流产
己@@
雌@@
德拉
有序
订@@
乐园
反之
信用
办公
休闲
雪橇
几条
大都
装在
空闲
全程
精髓
辞职
范@@
小家伙
查阅
小于
高密度
创新者
﹖
干得
锋利
数以百计
数百@@
共存
朱利安
民主党人
处@@
多万
台湾
搭@@
标出
一章
思想@@
最令
电脑@@
糟透了
嫁给
线上
神灵
逊
盛@@
千万别
语气
珍@@
抽出
落到
尚@@
事上
同感
嘴唇
左下角
三者
射杀
几千个
领地
会见
纳尔逊
做梦
抽烟
每平方米
并发症
阳性
账号
心扉
泪水
我画
一万
公共服务
探险家
盛行
eBay
钢
4.@@
瓣膜
更改
医@@
话筒
快餐
围
ard@@
炮
尼克
印记
预想
五倍
用尽
家庭@@
乐观主义
经由
精密
金融@@
之久
薪
大体上
衰退
拆@@
餐@@
活儿
同僚
大家伙
我选
闻名
玻璃@@
河边
蓝光
声响
单细胞
姓
官@@
起伏
海狸
两面
宗旨
代数
能以
感到恐惧
人要
车库里
ian
幅度
抽取
右上角
毋庸置疑
光合作用
氨基酸
Mor@@
倒退
Mu@@
卫报
效仿
戏剧化
从未有过
黑白
流浪
张开
腹泻
喷射
捐献
迪士尼
eb@@
另@@
加速器
ym@@
堵塞
俄@@
材质
摇摆
方向盘
悉尼
堆@@
锂
多点
煮
大黄蜂
电灯
自学
休
无尽
齿轮
开枪
示@@
类人
增长速度
My@@
美人鱼
Flickr
北美洲
巨变
迪拜
想念
养家糊口
科勒
蕴藏
替身
非常明显
粉末
无穷
表象
登革热
乌克兰
沙特
伪装
那头
To@@
平滑
骑行
ne@@
核反应堆
卫生保健
不可知论
虽
巡@@
难忘
长颈鹿
企图
49
非正式
杰西
绩效
死囚
螳螂
涌入
南亚
外交家
模拟器
天呐
官司
心电图
史迪芬
汽车座椅
慈悯
刘旭
抢发
莱杰特
喷出
热水
记号
揭@@
看重
淘汰
猫咪
天敌
掌@@
本国
前途
最强
新闻报道
数千年
胶片
融@@
今@@
莫斯科
会试
气象
口哨声
纳米技术
桨
丑闻
增多
齿
本科
窃取
小朋友
捏
似@@
疗效
便捷
演讲时
我想@@
最远
许多许多
集市
我常
阵@@
聊@@
言论自由
Mat@@
大豆
稳@@
城@@
现代@@
气流
熄灭
夏季
赞扬
余生
战火
口头
邮票
尿
周六
社会化
不清
徘徊
钩
Bu@@
黎明
之力
人际
那件事
五天
两项
光年
可观
旅@@
高昂
捐赠者
中西部
说到底
闹@@
打来
录取
每天晚上
奶
难看
丑
相关联
终点线
谢天谢地
学费
77
充当
栏
判@@
晚@@
妨碍
一千年
湖@@
哪来
一旁
开个
捷径
祈求
开场
报复
响声
$
牛仔裤
远景
资@@
赶上
age
mer
人文
批@@
普林斯顿
图象
TEDx
巧@@
时髦
SS
旅行者
猎@@
内心世界
很久很久
末端
一百个
唐@@
原创
琴
1600
付诸实践
核战争
TED@@
加大
不能@@
脱落
直升飞机
意志力
脂
饮用
1976
采购
百万分之一
新德里
订
拼写
更多地
长久以来
精神病院
极为重要
动力学
迹
尼古拉斯
四十
高中生
报名
街角
Bo@@
这段话
哺乳类
监@@
来试
类动物
派出
猴
学术界
内科医生
解剖学
升温
数字@@
照着
字面
夹@@
握住
Bar@@
拘@@
提名
敏锐
拉里
重构
带我去
探访
权益
机关
教材
年度
百万年
疲惫
例证
实质性
常理
早上好
同性恋者
奉@@
英语@@
殖民地
科塔
奔
凑@@
日复一日
弥@@
获得者
买不起
地中海
最底层
暴行
高中毕业
沾
千种
质问
体育@@
一轮
山丘
演进
镇压
Sa@@
梅
遭
种族歧视
存款
引
弗洛伊德
00@@
那本书
古典
旋@@
八十
加沙
芬@@
贩卖
计划生育
世界杯
交响乐团
极地
凡@@
1992
人口数量
秀@@
轮胎
罗宾
柔@@
妓女
第一阶段
城市规划
一万个
杰夫
不在意
番茄酱
决不
定理
易懂
Rob@@
用户界面
写过
实地
减小
德州
盗@@
飞速
减慢
不太可能
亮光
放出
洒
国务卿
解密
辈
城区
炮@@
交汇
垃圾桶
好几@@
女权主义者
丧生
油砂
个头
三千
粉笔
硅
堵
阿拉伯人
格式
当地政府
ib@@
负担得起
年收入
剧团
牌@@
这条线
盈余
前者
给与
航天器
引爆
寺庙
冰山
评论家
二十一
沙粒
腹部
看病
下巴
俗@@
机密
彼此之间
农夫
化肥
蒙特雷
伽利略
bert
基本粒子
一亿
棉@@
学说
壁@@
投身于
求助
难得
高管
福音
表征
减去
轮回
剥@@
播@@
指纹
十字架
艾瑞克
板子
安慰剂
积极情绪
橡皮泥
导电
正规
剧@@
界线
气管
打孔
体外
遗传信息
柏拉图
运动@@
两国
仿真
绘图
万英尺
无国界
安德鲁
最美
塑料@@
油轮
濒临灭绝
交织
尼尔森
解码
低温
脑电图
咬@@
尤为
喂食
贝索
平方@@
分流
菲尔德
薯条
恐吓
瘟疫
超声
遮@@
滑翔机
民主化
马尔代夫
圣母
戏法
范式
发电站
伏特
假死
伯蒂县
海浪
浮动
爪
看好
生命危险
机械@@
成就感
减低
另一头
大幅度
命题
小子
十几岁
荣
悲痛
缝
安妮
争吵
难以想象
投向
拆
Per@@
呵呵
百分之七十
痛楚
社会科学
代币
梅隆
抵@@
免
长期以来
乐曲
颇具
拨
作曲
丹@@
碟
树冠
空虚
工作量
德黑兰
州立大学
纬度
塑料袋
移居
搬进
居住地
分发
动摇
长相
蠢@@
art
纸板
攀岩
讲课
排练
传递信息
故
领土
CA@@
到位
布鲁斯
总数
顽固
盆地
抓狂
明信片
五十万
悲@@
很早
CO
大腿
取得成功
年老
阵营
队友
卫生巾
用纸
珠穆朗玛峰
ham
顿@@
老婆
正以
级@@
驻
前一天
几句
保险公司
art@@
玉米@@
延@@
激增
狠狠
冬季
入学
弗斯
化妆
凯利
亲切
退回
衰竭
黑莓
家庭作业
柏@@
透彻
荷@@
山坡
落实
一幢
常说
便于
不朽
炸@@
喜马拉雅山
时所
手写
IT
临近
一词
野兽
小岛
变大
受邀
上千
比尔盖茨
毛衣
对折
回声
ne
ash
ann@@
研究@@
终生
无所畏惧
争执
神庙
止
埃里克
Earth
卡西尼
撒哈拉沙漠
一例
牢@@
出狱
警卫
算出
Rob
那晚
跌
智
长成
下游
喷洒
水龙头
冠
某种原因
夏@@
偏向
封锁
邻里
咖啡厅
疑@@
卫生@@
欢@@
钟@@
170
肩
跳出
小鼠
格尔
聚合
斜@@
妙
胜@@
罹患
才智
撕裂
模板
味@@
拥有者
瑕疵
率@@
科学知识
有次
不小
承包商
炎热
开辟
向前走
一千亿
片状
隔开
细胞@@
啊哈
旗@@
死后
胎
域
肉体
点头
女权主义
迈进
出人意料
勃@@
波斯
用语
奴役
好多年
志
鸡尾酒
传染性
弃@@
纹理
曝光
这就是说
翻开
92
这下
存放
论据
外围
岩
希腊人
掠夺
占@@
源代码
识字
平均年龄
暴力行为
斗@@
血腥
良知
伯特
一手
蹲
高山
锁@@
六十
千人
右脑
幼年
模棱两可
羊毛
四月
艇
450
英国政府
要来
上将
聘请
销量
家门
颁发
随身带
伍
钟爱
母牛
尽情
罐@@
炸
56
买单
护
五次
心愿
发型
360
补助
阶梯
兔
怒
出版商
环球
好听
定罪
检@@
证词
效@@
神经网络
热气球
专心
Wal@@
新娘
卫生间
换取
情报机构
Ke@@
Al
沼泽
举出
两名
53
阻塞
反感
工匠
回过头来
豆
外交官
冰淇淋
浪
彩虹
汗@@
在世
周期表
飞往
相比之下
咽
佩戴
催化剂
知识分子
挨着
矿物质
流行病学
挑@@
拍下
帧
瑟@@
总在
万维网
密切相关
宝
平原
钻探
预见到
法学院
la@@
Tony
游击队
多一些
手斧
急性
公主
摇
西亚
of
代理
学区
谎
热烈
一线
高大
屏蔽
图示
SJ
就够
学徒
85%
低廉
收容所
里克
57
生命力
驻@@
传教士
中午
得分
降温
察觉到
顺
测试@@
莱特
超乎
几千
信息@@
无线电波
伴
舌
太贵
珍妮
刑@@
房顶
工业@@
荷
可疑
知之甚少
1973
IM
称赞
ina
尤
中子
地外
Mary
潜水员
横渡
情愿
肿
成见
中国政府
拥堵
孙
毒药
海量
模@@
默斯
前兆
印度教
12%
布拉
斐
伟业
巴厘岛
达尔富尔
迷思
=
托拉
谢丽尔
中观
狱警
塞尔
支离破碎
手脚
第二步
推崇
友@@
美好生活
分工
十年间
关键问题
执行者
窄
即便如此
几十@@
第四种
文化背景
礼@@
赤脚
船员
尘@@
丁@@
莉@@
隔壁
无须
实话
保护@@
非理性
无神论
州政府
市场@@
儿童@@
归根结底
奏
整齐
表达方式
头像
跌倒
ill
频
播放器
发自内心
球队
石膏
这名
哈尔
瓶盖
甲
鉴于
播报
郊外
历
乡@@
生态@@
深夜
具@@
邻近
马桶
盆
退后
十多年
投身
深陷
温哥华
回首
屋@@
严厉
责
照看
伤疤
场@@
MBA
境况
怪@@
离奇
遇
猫头鹰
人死于
过剩
应得
农产品
快到
万吨
货@@
创新性
按@@
交易@@
手头
财政@@
万分
不知情
实现目标
郁闷
一大笔钱
心怀
约瑟夫
配有
上部
理会
非常少
太少
保持沉默
届
的确如此
浅
68
阵
不时
漩涡
气息
资深
傻瓜
有形
话说回来
凉
最酷
花瓶
取笑
og@@
沸腾
发了
识@@
门外
1985
RG
....
这回
前排
计算机科学
98%
三样
壁画
测出
育@@
睡衣
ity
走访
靴
ez
贴切
弦琴
面世
1200
三号
格外
颞叶
脑干
横
掌管
And@@
白血病
卵子
吸管
氯@@
奥克兰
做好事
再举
澡
插座
超前
路标
保持平衡
穆罕默德
台下
人手
怀有
厚@@
神经@@
蛾
彩
有益于
试一下
20
处女
粉红色
模特
鲜为人知
上边
选中
劳伦斯
斯里兰卡
爆
送入
百分百
7.@@
储藏
担负
倘若
植@@
吉尔
分隔
搞错
考量
国界
拨款
签订
籍
ess
极点
想来
迎合
相差
写字
统治者
颁布
法令
复制品
Ne@@
离去
面具
凝聚
繁@@
株
富含
负面影响
管理@@
世界地图
小姐
象征性
近来
讲到
Th@@
外交政策
概@@
牵涉到
转弯
苦恼
介质
打倒
从头
五万
舞会
倒下
资
氢原子
北冰洋
烧掉
循环系统
ure
这行
牙刷
误会
沙拉
耗能
ner
怎么着
潮@@
成名
小区
攀升
据此
被遗弃
发电厂
河里
贫困线
霜
纽约州
自行车道
待会儿
走私
剪刀
光辉
1983
定价
经济衰退
历史@@
商家
组织者
质感
走运
笨重
误差
克莱顿
一桶
起码
亚利桑那州
蒂姆
伏@@
回溯
ru@@
轨
保佑
园艺
蜂类
生殖
引人入胜
庇护
灌木
水池
该是
市场经济
失误
统计学家
残骸
朝鲜
糊涂
时态
鲍鱼
精巧
工具箱
磁带
自如
填写
圆顶
八百万
警
der
赢家
反反复复
时间段
诱发
要用
联
建筑设计
医
更近
机体
大妈
守卫
两半
做得好
支援
当场
无可@@
89
领悟到
那辆
帝王
嘉@@
绅士
干过
泪@@
切成
星系团
宽广
燃油
警惕
静脉
试管
ell
世界末日
五角大楼
阻断
带进
忠于
摇篮
根基
鼬
脸庞
两段
垒
喉咙
肌@@
档
挑剔
基因组学
我国
胜任
超重
基督
装上
枯竭
开普勒
法律@@
1987
帆船
洛克
摔@@
再来
冲破
精神障碍
考古学家
凶手
真实情况
草甸
ard
克莱
珠
天地
珍视
Far@@
猎豹
巴拉维
契尼
病变
PS
天里
台灯
一无所有
交集
旁@@
TS
人力资源
错误@@
某事
兽@@
损
CL
备受
百分之五
超自然
数额
牧羊人
安定
贬低
警报
双重
1.2
太晚
口罩
学得
Scratch
审讯
订单
捕鲸
程式
阿基米德
渲染
Bob
瓜
玛雅
班卓琴
Emma
贺卡
炸药
职能
波纳契
MO
维珍
交通拥堵
骚乱
黄瓜
招式
屏气
临界
投弹
版权保护
唱诗班
贴近
厌烦
受够了
很差
残
适应能力
小猫
闭上眼睛
惨@@
机械化
敢于
走走
35%
税@@
高度@@
管理者
墓地
事关
动用
一向
岩@@
不间断
记录片
六千
讲得
各行各业
主人公
积极@@
高估
谁@@
发送到
北卡罗来纳州
马克思
绷带
引诱
迈
百分之六十
提过
烫
摩洛哥
不便
随心所欲
墙面
吐@@
凝@@
奏@@
垮
驱@@
醇
田
收成
公元
去往
东北部
邦@@
短短的
恋
样@@
铝
窗@@
走入
缠
手肘
准@@
鼠@@
富饶
普遍性
引向
惊恐
突发
正试图
为的是
战术
好运
人间
售
这些年来
苦苦
留着
担当
轿车
人质
离不开
纳州
皮带
所属
恒@@
预定
领带
数千@@
避孕套
圣人
潮湿
何
持@@
律
干吗
霍金
周游世界
远远不够
不大
账单
电信
使用量
送往
的@@
摔
扑
忙@@
幽默感
无用
大桥
纸上
瑜伽
铃
就会@@
数以
步调
商标
斯顿
双赢
兴@@
现代主义
拿掉
强健
实验性
青春
山峰
文凭
进出
遗体
耳边
闻@@
感受一下
电脑屏幕
杂乱
数据中心
八千
英特网
裁@@
拉德
呼唤
哇@@
本应
获取信息
值@@
Windows
ack
启蒙
眼下
私有
句号
社会学
Bl@@
ma
授课
打包
掩饰
北边
曲目
无穷无尽
历史博物馆
消退
相伴
骂
显现出来
画笔
一株
华盛顿州
1957
攀@@
期盼
高处
ath@@
低下
尿@@
墨西哥人
消融
斯密
怀念
噪声
无时无刻
关键时刻
漫游
废除
描@@
十天
粉刷
上画
够@@
提炼出
挤@@
片刻
山姆
勇士
转为
西北部
稳定性
高风险
ka
67
保有
可口
市场化
第二阶段
诺贝尔
左撇子
制约
初次
挣钱
百分之四十
能耗
溶@@
闪亮
垫子
白蚁
奎@@
筹到
简陋
版@@
Ab@@
埋葬
造访
pp@@
镇上
朝向
返
游戏机
徒
性取向
国防
波特兰
不对劲
娃娃
挺身而出
邪@@
偏僻
自恋
发展趋势
鞋@@
传记
国土
上天
大帝
1979
共处
驾照
剔除
侵略性
城堡
83
敌对
订阅
亿元
暗中
胶囊
电影@@
一万年
字母表
叠加
阿里
掀起
缅甸
僧侣
捐@@
养老院
ter@@
三百
确
开着车
一个多
遗迹
汇总
幕@@
分量
卖出
尔德
胡
问及
建立联系
前卫
菜@@
花椰菜
其间
日程
自大
大都会
滥@@
强加
站点
链@@
杆菌
急救
家用
臭@@
打扫
劝说
产生共鸣
后天
以致于
斯基
心理医生
任何事物
副产品
地看
漫画书
四条
雕
五十年代
搭档
车间
戴上
大批
戒
体细胞
肠道
医学界
生物圈
脊椎动物
俯瞰
下沉
修女
隐秘
笨拙
美国国会
虎
反响
光束
用光
讲过
小船
风向
水生
主权
断裂
掩@@
索尔
风险投资
接手
中餐馆
道菜
碳氢化合物
油价
工作@@
这仅
小心翼翼
涉足
长到
这棵树
扬@@
1965
词是
.@@
合约
大学毕业
MT
虽说
隔热
巅峰
海洛因
置身于
一招
披露
肺@@
领会
翻天覆地
are
放开
光盘
试一试
重重
结实
有条
生理学
洞里
贪污
87
编制
微米
舞@@
关进
沐浴
现行
Sha@@
弗朗西斯
be
沃
枢纽
系统@@
MS
历史记录
诸@@
经济效益
结果显示
反应器
配备
蜘蛛侠
晒
必不可少
电子化
斯蒂夫
大得多
Amy
来过
得意
黑手党
Joel
野牛
Sebastian
资源@@
兼容
冲向
丘
刑事
丹尼尔
相关性
分给
作坊
石油@@
和弦
根本就是
人世
乡
滤@@
酗酒
逝去
全麦
丛
鼓动
乌
金子
四千
兆瓦
Zipcar
一回
乱七八糟
控制力
侵害
为期
远距离
膀胱
摔跤
JH
互联
透镜
臭
鲜@@
人脸
洁净
亿吨
镜@@
国际货币基金组织
技术性
中央政府
预兆
刺穿
抽
一岁
放大镜
锯@@
宗@@
长者
重拾
薪资
脑震荡
阿曼
纪念馆
德斯
选取
执法
BBC
通风
赌注
谣言
人工合成
叛乱
龙王
巴尔的摩
荒漠化
az@@
保住
本齐
验证码
涨落
da
乔纳森
玻色子
尼特
欺骗性
尼莱坞
王蛇
母亲节
FOXO
艾凡
弹拨
Panbanisha
HG
泛
索尼
山脊
v
倾倒
沉积物
创业者
保加利亚
要学
童话
瞎@@
建设性
奔@@
遥@@
行列
高水平
头版
型@@
欣慰
荣@@
拉近
难懂
搜@@
平流层
丰厚
吹口哨
来时
伞
银色
空气@@
装着
学龄前
坚@@
翻阅
协@@
身心
年龄段
挚爱
合成器
有如
庞@@
住院
之道
采样
多名
调子
之初
逼迫
踢@@
心理健康
前去
篮球
淡化
est
紧密联系
星期五
疏远
主旨
泽
生菜
内外
油漆
修剪
粘合
里边
de@@
内置
两台
宣@@
让步
属@@
公约
没听说过
分布图
病毒感染
恍惚
洗手间
安东尼
惊呆
周二
警官
宾@@
汇报
老朋友
脚印
巨头
少许
MA@@
愈发
挫败
不合理
好些
正值
评级
助
长距离
有效性
平均@@
满是
宿舍
哈利
波特
新英格兰
哼
不看
撑
每张
跳过
环顾四周
蓬勃发展
没想
宗
懒
困@@
负荷
楼下
丧命
梯@@
城市@@
滋生
搬迁
平稳
重新组合
两层
拥护
混合@@
多功能
完工
推迟
时才
凭着
几件事
赢@@
格雷
下水
不知不觉
无穷的
近年来
扯@@
吞
通话
喀麦隆
顿悟
责怪
相较
低头
盖住
发邮件
紧迫
销
你会
罢工
索要
方框
无效
往回
羞耻感
缝合
必
怒@@
维拉
飘
满怀
ini
火花
劫@@
忘却
谋
笼
科学实验
养殖
戒@@
仿@@
绒
首个
跌@@
冰上
Har@@
中毒
生殖@@
流淌
阳台
潮汐
露营
扎根
偏
苹果电脑
优越
挂毯
奖@@
大战
学童
蒙古
才刚
斜坡
其后
桌边
店@@
风扇
东南亚
差一点
挥舞
脚手架
淋巴结
两块
掏出
5.@@
置换
七十
染上
染色
左手边
old
巴特
坍塌
若干
趣
雨季
前任
体育馆
宫@@
集装箱
育儿
大程度
个州
身体健康
皇后
以免
狂喜
印度语
坚决
拥护者
国籍
总算
De@@
错失
住在一起
甜甜
槽
文盲
晋升
扮演着
宴会
化为
1918
拉开
无非
鱼儿
南加州
相邻
电子产品
整套
嬉戏
沃尔@@
杰克逊
先例
租赁
第一份
尽我所能
几小时
果然
利他
笛卡尔
赫
住@@
稀奇
帅
戴安娜
排出
整年
II
呆@@
不定
式样
机票
援@@
自来水
奥妙
勤@@
银
番
双脚
职业@@
数百个
喷
案@@
甚至于
一两年
西红柿
烤@@
高等
认得
新词
RISD
炼@@
孵化
腾@@
总监
测绘
est@@
精心
草根
犯罪率
服刑
开发@@
耶@@
稳固
感恩节
旅客
沟
失业率
悖论
可知
作法
克拉克
ics
马修
代言
完蛋
裸体
ola
深入研究
神经学
紫@@
EB
自由式
这所
纷争
端的
响@@
人住
管家
小孔
纯洁
插图
多媒体
改建
杂烩
闪耀
饱
燃煤
地球表面
人称
收录
纳米级
碳纳米管
声誉
世贸中心
总人口
主页
苛刻
郡
发疯
染@@
醉
房地产
一桩
稀缺
很难说
女声
我出
暴
读懂
门前
焦
南半球
自然科学
砖@@
杀伤性
投给
单子
野
99@@
洞察力
环状
下潜
潜入
阿凡
图拉
6%
里会
仓
解决之道
粗略
化学元素
心碎
格雷@@
时至今日
据估计
服药
功效
截@@
那会儿
有件事
糊@@
兼@@
暖化
军事@@
心声
广播公司
才行
思考者
态@@
造林
栓
反弹
满足感
两党
扎克
弥勒
萨达姆
敢肯定
清洁工
薄片
眉毛
疾@@
住处
礼
莎拉
桑
ro
救赎
1949
托尼
天后
凯
俄克拉何马
老是
德语
独白
庇护所
正轨
年份
iz@@
第三件
辩护
极其重要
打分
社交@@
精简
IDEO
Ver@@
2014
监察
气压
红毛
另一方
徽章
腹腔镜
国际性
看不出
氢@@
瓷器
开放性
相似性
疏@@
垃圾堆
蜘蛛网
最受
三角洲
炭@@
狭隘
舅舅
往来
商机
阿兰
沿@@
此项
皱纹
说完
模范
来电
男女@@
寒
关押
ok@@
每天花
旅
40@@
牧场
手下
热忱
家庭暴力
列为
咯
ah
一分
我爸
专业知识
测定
忧郁
作用力
矩形
TE@@
红十字会
金斯
面粉
加拿大人
静
拼图
AV
碳原子
铁轨
温带
敏感度
中共
Speech
对撞机
开门
Pixar
Brian
六分之一
奢望
参议员
善款
几件
神经外科
赏@@
绞
结点
Free
塞尔吉奥
〉
FGM
格温
求救信号
各异
化学成分
华氏度
烟囱
收割
厄尔尼诺
到头来
放手
艰辛
末@@
74
勇@@
放眼
AM
搭乘
斑
所写
确确实实
握@@
五到
事会
匆忙
芬
湿@@
道德@@
万一
担@@
网球
寿司
买到
蜡
空隙
烧伤
看护
花销
摊
长期@@
巡演
维也纳
州立
声学
半前
此前
id
巴赫
可谓
低音
Alex
叫喊
饮
西边
队长
叫醒
深知
访
家庭主妇
布里@@
小鱼
展望未来
十七世纪
食品@@
房车
商讨
面板
店铺
恶意
纵向
羡慕
软弱
稀释
海龟
管辖
哥斯达黎加
闭上
两端
上百
发病率
少见
推动力
支票
科目
中止
Bi@@
十字路口
许诺
多种多样
逛
哭@@
Bra@@
驾@@
必需品
葛@@
年头
直视
六年级
搏斗
多谢
恋@@
ug@@
能干
仍@@
混蛋
诡异
坚实
Sch@@
1974
游历
按时
下个月
小马
玩偶
腾
心理@@
优于
集中精力
截止
从头到尾
装进
打碎
算不上
窍门
深思
农场主
按摩
动人
体味
启发性
壁垒
分心
耗时
行李
程@@
贴纸
流离失所
大相径庭
节日
节约能源
泛滥
下水道
策
想不到
晕
房里
园
竞技场
发展@@
里程碑
结冰
一大块
惊慌
面上
多地
康
兆@@
这艘
云端
一说
尊@@
探险者
数百万年
前所未见
厌
宫
软件@@
ee@@
美观
乔布斯
隆@@
磁性
尼斯
our@@
同龄人
辣@@
闭嘴
真切
亚里
14@@
玛利亚
一大批
委托
外层
图解
表演者
co
旺盛
夭折
太远
纽带
忧@@
老兄
缺
呼喊
矫正
保育
新泽西
一个三维
禁锢
撕@@
纵观
星期一
民意调查
凶@@
捆绑
冻@@
额叶
遇难
Ste@@
洗衣服
路口
并排
歇
正直
错综复杂
滑行
取自
亮度
好用
更多人
一艘船
不需
第一句
庆@@
都柏林
作风
普遍存在
生物医学
险@@
ist@@
太近
夺@@
功
饲料
热狗
宁@@
ani
威利
著@@
三年级
积极分子
规章
98
不符
裂@@
窗帘
轶事
电压
辞@@
邻@@
蝙蝠侠
面罩
塞尔维亚
演唱会
全家
同盟
差劲
泪
登记
配件
结识
固然
39
根本性
功劳
克拉
Cal@@
挑出
捉@@
绿灯
星期二
宣告
袖手旁观
保持联系
同一天
沉没
治好
弹钢琴
傻子
芭蕾
宫殿
后座
确@@
做广告
腰@@
柴
ent
解体
制衡
力所能及
振@@
约旦
果实
han
共同之处
政变
危@@
理应
老太太
濒临
滋养
抄
1930
敬意
Thomas
by
之路
无畏
精灵
语言学家
没准
到场
和平@@
不计其数
克里@@
岂
小额贷款
离家
踪迹
寸
冻
毛里求斯
Sc@@
罗伊
工程@@
自负
淡
佛罗里达州
地用
Martin
题@@
有钱人
金丝雀
密西西比
束手无策
Bronx
四百
沿岸
指明
弱势群体
不比
改写
尽全力
骗@@
可控
看得
围墙
并不多
可不可以
十五分钟
三月
伦理道德
呼应
辞
亚瑟
串@@
塞缪尔
书页
小人
份子
ff
藻
灭@@
窃@@
它用
诱导
中会
今
8.@@
迈阿密
筹
塞进
监听
SM
NA@@
Cl@@
动植物
纳德
流经
章@@
控制系统
降雨量
刻板
数学@@
祝贺
羚羊
公共部门
全部都是
罗斯林
获奖
拼凑
追赶
户@@
外婆
更有意义
磁
效能
印在
成天
网址
独有
比重
训练有素
起身
眼科
齐心协力
免受
抗议者
大到
ir
Di@@
Ed
会带
ick
多出
Joseph
吃药
别无选择
间断
两幅
事要
厄瓜多尔
贵族
感叹
ck
准时
小车
飞快
广岛
相撞
中央@@
捐献者
备用
铅
火车站
事务所
流畅
退学
克里
吉米
加在一起
谦逊
定向
所受
柱@@
蜂@@
粉@@
聊天室
比作
普通@@
移植手术
绕@@
光环
贩卖机
线圈
Dave
尼科
关键点
无与伦比
突起
肩@@
已故
数十亿年
杂
我学
Lu@@
硫
发性
镁
交互作用
装载
高端
NGO
布料
割
送上
信息量
浩瀚
胺
组织@@
恶行
愈
重复使用
宽度
穷国
亲属
篮子
对数
爸
Stewart
志@@
赞叹
呐喊
席@@
眨
零售商
预约
交朋友
盗取
Ron
环顾
值钱
时报
ks
成员国
先后
开业
染料
诚然
有待
巡逻
这架
缺口
胸前
紧缩
偏误
IM@@
地质学家
不规则
氮气
钢丝
阴暗
转盘
重达
假使
岛@@
念@@
亿万富翁
71
致癌
ill@@
填
上千年
市政府
不知所措
这群人
零部件
青
挪动
当人
She@@
多哈
海峡
接收器
核电站
个人信息
剧作家
麦克@@
404
检查@@
一月份
疑
竞技
催眠
LG
开明
异教徒
理想主义
赞比亚
Neil
颠覆性
阿富汗人
限定
真人
计量
季节性
Eric
下手
大峡谷
里昂
播种
猝死
切口
罗杰
消沉
点点
合法性
大意
蛛
分叉
心力衰竭
重获
迪米特里
朱莉
Sudhir
手持
反恐
石块
羞@@
欧文
迟到
聪明人
约定
菲尔
营利性
划船
婆罗
加速度
潜水服
生物性
战地
麦哈麦
郑重
肠胃
伽罗瓦
拖丝
〈
Anas
共感
Kathryn
盖拉
两侧
倒数
Q@@
睁
并不@@
年青人
严酷
公共政策
招聘
高效率
数周
荫
彼@@
治疗师
共通
制作者
这真
贫瘠
以致
而出
喂饱
仙@@
科技领域
DIY
激怒
大赛
荷兰人
施
答对
自称
游走
又会有
数不清
利斯
大都市
职员
俄亥俄州
以内
习@@
动感
摇滚乐
不及
／
认
局@@
红外
指针
GB
大叫
迪斯尼
质地
作响
完后
坐飞机
枝
途@@
药丸
数百
耕地
ate
飞过来
具体@@
夏日
脱节
衣物
出海
平方公里
北欧
施压
严格@@
联合会
亮点
沃德
哎
攻克
两千万
繁忙
穷困
投入使用
砖块
情人节
星期天
男朋友
大屏幕
已久
葬
外号
粗
悄悄
这么久
起始
推论
微波
斯坦@@
诉求
换来
所称
停滞不前
粮食@@
82
验@@
划过
一年级
欺@@
读读
拼装
放回
接下去
慢下来
长椅
成堆
放学
商界
赶快
低价
更为重要
造价
当代艺术
观赏
十八
涨
两难
这为
没有@@
事项
选定
简单化
脑后
写信给
大为
松鼠
黑线
折腾
思考问题
表达出来
峰会
渔夫
伸
筹@@
RO@@
时间推移
Jeff
亏损
一曲
医疗保险
万次
比较简单
这周
真棒
一段话
打死
隐蔽
篇章
小鸟
字眼
译
厚度
实习
我心
不解
互惠
捣@@
在政治上
辩@@
柏
藤@@
上映
伸手
卸@@
冻结
暴风
Beck
迷茫
竭尽所能
身旁
机理
不问
生殖器
DE@@
尿液
季度
五百万
婆
停电
玫瑰
剥离
因果
低调
埋藏
溜
顾@@
公益
不说
季@@
租@@
框@@
马上会
洲
一带
房租
新泽西州
摩
象是
便携
系数
此后
well
不通
伽@@
仪@@
一点一点
何不
讯
衔接
录像机
Barry
发明创造
练@@
棒子
色素
牛粪
左派
答道
致力
炭
班上
成群
美景
砍@@
采伐
大火
石器
选用
回忆起
拉丁语
电脉冲
毯
卧@@
灵性
地为
伽
违@@
嫁
双性恋
地站
诅咒
两百
好坏
作证
下台
Do@@
奢华
变好
攻@@
地质学
仍会
伟人
宪章
第三阶段
上放
到此为止
限
育
兰花
下颚
金属@@
狡猾
穗
孙@@
编造
促@@
沟@@
高明
继@@
筹资
性别差异
灿烂
地理@@
担保
褶皱
政体
末日
取得胜利
警车
ive
抗击
反对者
不公
田地
服饰
花样
强行
1967
鸦片
乘着
续集
坠@@
El@@
Josh
幽@@
意象
纠缠
六周
印度洋
du@@
愚昧
一百万年
抄@@
几百万年
敬
能带
花园里
方舟
威士忌
日内瓦
剪
席
着实
想方设法
不得了
偏远地区
分销
1988
滑动
正是如此
Av@@
模子
ory
视图
Mike
织物
马斯洛
酝酿
纯净
食者
津贴
自制
栩栩如生
始
一身
俗
堂@@
数码技术
空气污染
enn@@
老旧
高峰期
硕士
传导
互动性
万到
Pat@@
Ber@@
空间@@
ood@@
关注点
外力
石化
肢
宾州
安心
不见得
释@@
IP@@
世贸
婚
酮
因果关系
挨饿
叛@@
史前
核弹头
蓄@@
阵列
高清
限@@
就读
宿
奥威尔
Sk@@
Fl@@
次要
舆论
帝国大厦
棕榈树
3.5
生态学家
苔藓
生存@@
围巾
球赛
譬如说
社会关系
缝隙
猖獗
苹果派
190@@
霍尔
到时候
河水
油井
数据量
Smith
很傻
走势
十分相似
裂谷
射出
翻过来
借给
加倍
架飞机
四位
已婚
公车
腿@@
生命@@
远去
波音
放着
退一步
联赛
能源危机
ation
劳
迪克
上床
防治
予
赶出
序@@
光荣
纳斯
冠@@
跑步机
第六
温室效应
格陵兰岛
几百
热潮
水力
浴缸
水上
起居室
餐桌
现时
椭圆形
投资人
任职
极少数
芝士
鞭@@
刷@@
二极管
算了
百万@@
笑容
宝马
牧@@
梁
Rick
肥@@
写诗
me
鄂
草莓
中国@@
备份
一晚
ike
理想化
第二次世界大战
拔
蓝点
迷路
无序
怯场
七月
Gillian
1300
外语
恢复过来
硬化症
览
赞助商
染
有机物
总裁
十二个
农药
墓碑
问起
关键@@
附带
危及
电磁
曲线图
广告@@
会令
遵从
采矿
千分之一
烧烤
指挥家
勇于
沉
马戏团
有远见
专业化
一级
赌博
低级
星期六
全然
锡@@
乳草
人口密度
净@@
航天飞机
鬣狗
电话簿
无罪
离谱
太慢
搜
南边
急速
售价
放飞
赖
画板
Ray
玻璃杯
乌龟
喷雾
电磁力
激励机制
无能
传统@@
荡@@
取名
原生
咳嗽
胃@@
AT@@
菌类
诚@@
一夜之间
变迁
一九@@
变态
66
简短地
反常
两万
规划师
弥漫
臀部
梅花
这支
慈善家
之物
夸@@
半钟
油污
巴格达
娅
那人
塞内加尔
无所事事
产权
国际化
来信
對
潜
小房间
出奇
无法@@
1962
料到
创造财富
编排
取舍
病因
性别歧视
令人不安
毅力
卡门
信誉
大错特错
H5N1
NBA
地产
惩@@
运营商
we@@
使劲
网路
凝结
塔楼
ABC
中央银行
钢筋
逃走
维京
社@@
一节
丛林中
流浪汉
圈子里
渐冻
Acumen
欺负
帐
鉴别
用电量
杆子
受害人
放任
BC
橄榄油
宝贝儿
回合
千真万确
浓
上诉
烤面包
SL
豆腐
密修者
Nicole
卧底
洗钱
黑眼睛
赛车手
DL
肝酱
RD
ICU
葛瑞丝
泰坦尼克号
潜水艇
能动
几英里
壳@@
指甲
红点
腹@@
多远
施展
难怪
做错
称@@
排行榜
团结一致
PISA
一国
算上
年幼
博士生
马来西亚
驾
十八岁
评
躲@@
厌@@
遗传基因
特尔
水滴
实验@@
木匠
经验丰富
安然
技@@
丘@@
几秒
股票市场
高校
哥伦布
随即
打游戏
敲击
钢琴家
詹姆士
托德
表现@@
Fre@@
大喊
重演
适应环境
扰乱
塑造成
喜剧演员
床边
我活
转发
-----
太迟
我俩
垃圾场
1100
84
无法控制
扔@@
陆@@
对人
io
饰
扭@@
触碰
心理治疗
德克萨斯
斯德哥尔摩
鱼群
洞察
物流
源源不断
内裤
难为情
男友
数码相机
科恩
解构
看时
独自一人
For@@
一列
误
晃
Lee
Bri@@
反之亦然
上级
瘦@@
骑车
缘@@
电波
精湛
od@@
漏掉
饿死
充沛
至上
可可
十亿美元
独角兽
最合适
迷信
周一
题材
破灭
痛心
私立学校
梳理
狂人
肾上腺素
收拾
光顾
远大
码@@
遇@@
洛克菲勒
气候变迁
红树林
专长
相互影响
让你在
省钱
十万人
二是
相等
延缓
不多
词来
销毁
锤子
喘
溺水
实惠
走来走去
员@@
红灯
丢下
屈服
自责
输掉
天下
哔
Mac
批
中用
学习@@
Ben@@
种族问题
尘土
美化
征@@
暴雨
归结为
Ap@@
穹顶
Un@@
先驱者
刮
儿女
团聚
诉@@
断层
荒@@
星空
相提并论
驻扎
雀@@
大山
ris
雌性激素
辨@@
气质
商学院
聚光灯
道义
自主权
汽水
乌拉圭
自小
看得出
装修
把头
戏@@
五点
现已
兽
间隔
中枢
DARPA
各大
一分钱
心痛
辩
例@@
垃圾@@
残障
程序@@
软骨
连接@@
除掉
不容@@
Hu@@
莫名其妙
侵权
称其为
两三年
建筑材料
杜
钻研
智者
记忆力
勾勒
屏障
想成
大体
译注
援
对错
序
箴言
许@@
ena
无法忍受
布道
穿戴
Shi@@
难堪
一集
附属
穆巴拉克
圈圈
奔波
圣殿
公关
捉
冲着
那颗
希拉里
温床
一帮
恭喜
拉斯维加斯
专制
非洲地区
缩
长着
不怎么样
sl@@
台词
舞蹈家
万元
利息
空壳
想些
词组
地理位置
贝蒂
板车
利比
先说
赛局
耕
社会主义
利他主义
富足
身着
死神
掌权
恰@@
维和
奥利弗
烦@@
仓@@
无所不在
旅游@@
预感
电子书
悬念
痊愈
妄@@
多多少少
祖
别提
Nat@@
臂@@
方言
安全局
365
通电
先看
分组
何在
沉思
晓
一路上
美国宇航局
古董
弗雷德
落入
锅@@
主动脉
缠绕
CAD
涩
Tre@@
高手
窝@@
善待
词典
连锁
酸奶
Lab
捡起来
弓@@
正统
善意
小册子
惨剧
马里
怀旧
马力
一期
快捷
South
利于
all
松散
哥伦比亚大学
世界性
大众化
甩@@
会先
美女
援手
充满热情
ake
爱迪生
互助
释放出来
凌@@
巴菲特
极力
斯大林
魔
退缩
承担责任
无名
ull@@
短跑
瓜@@
体检
反面
趋于
显示屏
连续性
旋
办事
管它
灵巧
日落
打磨
马克笔
往下@@
⋯
家属
见见
有罪
明明
改为
归来
指认
目击
拐@@
220
细胞膜
微粒
飞得
仅此而已
左转
枕头
ica
Pal@@
SA
ber@@
中央公园
心目
上车
接待
席位
画成
列入
购@@
战略@@
中奖
军官
大米
之夜
屑
田纳西州
变形虫
石油价格
遗骸
颅骨
夺
编纂
江@@
刷牙
义工
香豆素
枪声
国防部
第一名
候选
恋人
新式
马里兰州
混杂
定量
喀@@
安迪
小孩儿
腐@@
CPU
画图
社交圈
弱@@
七天
那首歌
升降
趟
有句
1981
男孩儿
日后
排泄
ara
Jay
工会
砍掉
奢侈品
罗素
漂移
交替
看清楚
海胆
武@@
求救
巴哈马
长短
老妇人
最贵
分娩
计算机程序
生物进化
试图用
售卖
增进
消防
较少
尿布
缩减
功率
那根
蛆
于心
盖子
午@@
语调
办公@@
Jack
早前
那台
听懂
net
裁
完毕
eg@@
ence
曙光
肤浅
交通运输
一日
款项
贾
甩
兰德
索取
很慢
减掉
预测出
无著
达到目标
Ger@@
矿场
工序
想当然
ust@@
中微子
家们
胀
很远
表现形式
音高
人道
四分钟
体力
杂交
暴动
出头
沾@@
1978
益@@
灾害
输家
摄影者
平坦
中性
禁
一百万个
Airbnb
描绘出
潜质
夏洛特
定时
临终
耶稣基督
辛
蜂箱
凯西
那份
ick@@
穆
控@@
出院
灾
烟草
高超
历时
各方
批量
常人
感悟
变戏法
耳环
毛泽东
瑞典人
繁多
具体来说
受苦
La
赛事
获@@
小盒子
改装
太空服
娱乐@@
陶瓷
钉子
干活
多种不同
肠@@
Frank
酸化
北爱尔兰
合法化
开除
借贷
乳癌
底座
表上
退役
Lim@@
砂@@
关键所在
鸽
初中
迫在眉睫
根与芽
北非
亨
试点
哨声
威尔逊
制裁
决议
电动汽车
铀
征求
破译
一笑
Netra
巴顿
卢比
宽带
狭小
唯有
解说
多变
之春
红色高棉
被告
1969
受访者
规模化
采取措施
渍
没人@@
轻度
PE@@
晚饭
福克斯
长城
上线
偿@@
阿拉@@
嘴@@
一站
血清素
循@@
请愿
崩塌
财政部
嘘
YR
萨拉热窝
荒野
胆固醇
用餐
淘金热
博士后
布尔
Com@@
五分
手枪
令@@
拉各斯
巴西人
印第安
大学教授
政界
会儿
医疗机构
AK
薪酬
盖尔
宿@@
真地
E8
脉搏
81
掌上电脑
布雷顿
SOPA
益虫
高铁
复合性
管理费
烤面包机
深圳
蛛网
查莉
肥鹅肝
康恩
基本定律
高架
daf
NM
cymatics
马里奥
Kanzi
斑蝶
禁毒
负鼠
ZK
两英里
电脑前
霍
蜷缩
只管
先来
悲
吼
教育领域
蠢
目的性
ant
山地
场上
基准
平庸
巩固
高性能
头条新闻
逾
仅为
媲美
骇客
控制权
米兰
百万富翁
普拉
大白鲨
好不好
着重
斯利
生机勃勃
哈拉
他家
丢@@
响起
推到
不平
防水
腐蚀
弊
tt@@
搬走
78
生产率
大提琴
公共场所
相识
13@@
凹@@
凸@@
大得
谱写
迪伦
per
浑@@
MP3
浓@@
差错
严重性
小姑娘
小球
一大部分
乔丹
丙@@
横穿
起先
人到
捞
Sm@@
羊群
愚@@
协调@@
晚会
僵硬
视频@@
深蓝色
航海
帕
一体化
获得成功
一千万
社会群体
Pra@@
另一侧
发来
感人
哈莱姆
气概
混在
拳头
下层
纤维素
自助
契机
延续下去
数百年
急切
喻
无休止
劳作
结构@@
生产@@
悄然
伊利@@
买家
愿@@
参考@@
终端
比亚
战略性
胜出
一试
看望
周三
表扬
测试者
由此可见
越久
以此类推
鸭
健身
受不了
述说
斗士
重新考虑
意大利人
死板
疲劳
另一回事
一书
过头
遗失
默认
93
营业
性工作者
销@@
赔偿
猛烈
电费
凉爽
涨@@
兼顾
核心@@
下棋
艺术馆
事来
命中注定
病理
五十@@
多活
两百@@
虚弱
线粒体
我错
珠峰
十分困难
昆@@
建好
牢
阅
翠@@
窒息
网络连接
光波
挥@@
万事万物
研@@
特里
之声
百老汇
PC
747
驾驶舱
ue
ice
市场份额
借来
第三代
贫乏
投掷
批判性
证@@
熟练@@
Pl@@
压根
看透
守则
归于
交际
售@@
解药
之战
安放
褐色
蟋蟀
58
安娜
交互式
迁@@
全局
调和
难以捉摸
毕加索
弹琴
层级
心血
礼堂
搭载
何等
巫@@
钛
陡峭
连同
陷
We@@
我带
原话
小脑
安静下来
ess@@
呼声
有水
并行
星座
暑假
文化@@
内有
香槟
裸@@
帆
Ca@@
饮水
拍卖
跃@@
全景
猿
脑电波
趋@@
活体
克雷格
自转
工作组
参议院
小步
立体声
绝非
MBI
康涅狄格州
迟
咖啡杯
数位
预备
豆@@
Daniel
同种
龙虾
范
坚果
共和
背道而驰
彼此间
右翼
创作者
头号
值得尊敬
无数次
看不懂
逗@@
逗
浆
大灾难
残杀
烧毁
捐出
邻国
公用
犀牛
脊柱
特写
国家博物馆
两性
舌@@
驶过
国际象棋
dy
凸显
另类
瞪
陷@@
左腿
卖淫
残暴
Apple
文物
发布会
略微
数万
送回
林木
法子
趣@@
飞来飞去
知不知道
弗吉尼亚
圣诞树
记着
拳@@
一叠
裙
击打
黑点
一朵
甲壳虫
许多次
赶走
难闻
景@@
垮台
在此期间
报社
竖
那句话
纷@@
蠕动
洒@@
隐瞒
坦率
激动不已
主导地位
近代
猛
赌@@
脱口秀
接上
化解
付出代价
越战
实际行动
道德观
行径
迫害
昂@@
同心协力
一匹
详尽
近几年
传授给
忧郁症
每件
本意
第一本
拿下
景点
胶水
暖@@
变化@@
六百
八点
ker
恶性
分解成
想必
拉丁文
遗传学家
四万
五千年
电池板
河岸
愤世嫉俗
停战
远见
一罐
高低
医务人员
出钱
偷走
真谛
之源
某项
一具
文件夹
马耳他
失
短语
手机@@
接受者
委@@
订购
新增
库珀
黄油
冰激凌
庄园
香料
攻读
科幻
移到
碱基对
巨大成功
甜蜜
过山车
1953
第七
挪
箭@@
有色人种
尔曼
鲜活
宽恕
ins
恩惠
存钱
四十亿
青霉素
某一
消耗量
电量
寻
人时
脾气
管理人员
储蓄率
厂商
信息源
人机
渡@@
抽象化
88
科技进步
rey
危险性
擅长于
恐@@
吉普车
红细胞
遗传物质
钙
油墨
畅销书
势头
嬉皮
急救室
催@@
匪夷所思
数据资料
绝好
渔网
无私
锐@@
悠久
从现在起
本源
隐患
说教
抬@@
最糟
钦佩
好的开始
某样
%
惹@@
坎
一顶
薄@@
计算@@
残害
山区
时代广场
档案馆
府
侵扰
86
面朝
冬@@
地铁站
两千@@
这帮
帮人
栽种
捞@@
凝聚力
浦@@
水位
学了
私营部门
失灵
美国国防部
出资
猪肉
西兰花
左宗棠
老百姓
韩@@
倭
Craig
毛巾
竹@@
千里
贪@@
ally
丝绸
剑桥大学
偶
抢救
恐怖@@
绿线
分界线
彻头彻尾
垃圾邮件
珍珠
口气
ric@@
兴奋不已
谈论着
一丁点
七分
零售
园区
推倒
哺育
不切实际
Arthur
嚼
惨
打字机
架@@
恶性循环
施暴
叫法
一刻起
非比寻常
高跟鞋
毯子
AC@@
自然法则
疲倦
代理人
密封
愈@@
屡@@
克利夫兰
阁楼
发财
一小片
ton@@
阿肯色州
芝加哥大学
合格
骑士
起舞
达尔文主义
0.0@@
依赖性
遮住
微观世界
其二
悬殊
蜜@@
喷泉
固执
高层次
耗资
却@@
版图
饭@@
零食
多难
无所@@
星团
丹尼
网络攻击
豪华
关键因素
罪@@
尘埃
迄今
弗里
身子
而行
炫@@
史瓦西
拉伸
发抖
湿度
斯多德
为食
整洁
th
帐号
断言
时间机器
太酷
分析师
燃@@
漏@@
切尔诺贝利
植物@@
讲述者
喷气
诺曼
扇
成功率
尼亚@@
效用
减重
人则
修炼
毛骨悚然
幼儿
NI@@
腌制
万有引力
瞩目
跟前
陈词滥调
拉特
埃克森
.5
演讲人
遭@@
刻画
扑@@
副本
忠实
宗教@@
宾馆
自相矛盾
凶杀
典
钻头
暖气
顽强
去处
受精
搬运
音节
布莱尔
杰斐逊
大块
投影仪
政治体制
血缘关系
用力
ID
寄主
重击
着装
230
挑衅
专
器具
1947
国民收入
冰雪
第一架
表面积
病床
暂@@
动手术
经纪人
常有
敲门
团伙
银行@@
气囊
廷
生还
石器时代
客气
维斯
狼@@
凭@@
几只
察
电视@@
吸尘器
竭力
车臣
倒闭
畸形
亲眼看到
书桌
哎呀
套装
此种
佐@@
持续增长
Gra@@
一加仑
致癌物
处处
陛下
艰@@
矿工
精度
律法
侵袭
足球场
产能
伽玛
芽
那双
外壁
逸
Gre@@
CP
基线
Evan
接通
共同@@
彻
氧化@@
爬行动物
构筑
从零开始
移开
份量
克尔
办公桌
麼
赞@@
泰
顾及
劲儿
上司
帝@@
特洛伊
幽灵
唯@@
梅尔
肢@@
正视
isa
试纸
持有者
准确度
保留地
毕业@@
养成
血糖
嘻哈
学来
伤员
ump
SB
九十
龙卷风
RS
西南
伤感
逝者
典礼
神力
山地车
设计方案
俄勒冈州
奥普拉
后遗症
犯罪者
确定性
七种
三项
一新
成形
馆@@
卡特里娜
撒旦
Mark
纵轴
人症
精明
极端主义
Kiva
per@@
灰质
职场
抖
au
百事
早衰
杏仁
露脊
髋骨
烘培
礁
半边
博雅
GPHIN
臭氧层
编剧
屏住
福布斯
止步
FBI
船厂
飞碟
薯片
前端
军校
精液
赫顿
Furby
萨利
基特
JL
干部
苏茜
纳格
Di
KS
重新认识
最深处
海床
喷口
尾部
每星期
裹@@
不靠
动物界
眼看
反义词
欢笑
应为
感觉良好
边际
苦差事
OECD
教育家
业绩
扪心自问
天分
打下
空气质量
倾注
15000
太空@@
论述
骨子里
年轻一代
白板
深远影响
冲洗
叙@@
夺去
些小
根植
口哨
渗@@
水层
有多@@
腿部
稍作
地方性
小群
预估
十诫
两家
泛@@
治安
数据分析
密歇根州
密歇根
仅用
力求
萨克斯
帕金森症
小巧
排成
人格@@
介意
素养
音效
晚些时候
契合
流行起来
段落
ight
演奏者
篮@@
hat
bor@@
心爱
跳下去
并存
拖延
要紧
逆境
亡
相见
橄榄@@
int
乙@@
辛格
出产
极致
田园
赞颂
身体状况
敏
歪曲
开发新
勘探
埃莉诺
厄运
马尾藻
地区性
遏制
斯图尔特
最穷
人口数
百分之九十九
维他命
暂且
拐杖
十字
费劲
发言人
咖啡因
记忆@@
要不然
不怕
闹钟
条条框框
途
后背
后备
绑@@
强劲
ry@@
整晚
信服
问候
咒语
互相帮助
搅@@
方圆
祸
Pe@@
特伦斯
努力@@
黑夜
懦夫
微薄
自由选择
自由市场
额@@
极有
落地
脉
销售额
准确率
当着
创造@@
奔走
竞@@
争斗
乐子
叹@@
懒@@
花些
实证
听不见
今天下午
动性
怎能
添@@
旱灾
市政厅
乔治@@
堤
比方
关键词
前有
领略
后部
下部
第一场
开工
不能容忍
不好玩
就会
判
医药@@
不负责任
巨大变化
喜马拉雅
游过
碎石
逊@@
人选
活过来
第一眼
扶持
通讯@@
全力以赴
吞食
水手
产品设计
型号
眼睁睁
敲打
复杂度
Photoshop
Mac@@
主演
诀窍
Fri@@
ier
硕士学位
批改
表达@@
多项
ler
参与度
弄错
面容
门上
滋味
点到
苗条
享@@
自此
生出
贝斯
yn
崇尚
妻@@
可靠性
神秘感
录影
相隔
意念
两类
传统意义
滋@@
-@@
奸@@
确立
变体
艺术展
际@@
AR@@
第四次
昵称
梯子
12000
要命
疮
乃@@
齿@@
杉
塑@@
op
幼崽
自以为是
弗里德曼
福祉
商量
麦迪逊
小说家
夏令营
粗暴
凝视
佛祖
公共场合
ep@@
往外
wh@@
偿
活泼
侄子
一班
三张
娃
背着
进化史
水牛
绵羊
努@@
杜克
尼古拉
猴@@
自控
恒定
渐@@
良性
早年
秘书
FDA
sch@@
耍
裁判
破损
培@@
分析@@
朱萨尼
党员
社交活动
汽@@
星球大战
房产
精妙
毕@@
做时
窗子
很穷
破烂
著称
煎熬
露西
足足
一堂
捧
深切
囊括
爬树
身在
嗅
数以亿计
1908
竖起
认清
有件
不着
Sam
青睐
头巾
基督教徒
Charles
倒入
史诗
懒惰
eth
百姓
柄
第三条
赚@@
金矿
手提包
人民@@
坛
准许
庆典
坏主意
两极
趁
某物
后腿
开花
烈
浑身
ett
乐手
赞赏
倒霉
唠叨
惯用
91
吊
俯视
志同道合
雪花
英雄主义
说成
全年
登月
跨学科
施加压力
徒@@
im
极端分子
有无
奴
挨家挨户
民意
社会保障
敦促
伙
梭状
摆放
莫桑比克
重型
死因
戒律
怨恨
鬼魂
被子
标杆
怎@@
直立人
十八世纪
回溯到
多长
同位素
地理学
浮
嬉皮士
时时刻刻
喀布尔
军事行动
请愿书
售出
手推车
开灯
大小便
大便
针对性
捐助者
疲@@
长方形
原子@@
颇@@
情结
完全一致
三人
巨石
薄薄的
力学
恰到好处
拍下来
猎鹰
原版
鹰
德尔
硅@@
蜡@@
胸腔
到处跑
仅次于
美国农业部
运往
插头
狄克
雇@@
ver@@
捡起
机动
不列颠
自行@@
金刚
高雅
延展
内陆
公共汽车
萦绕
交通堵塞
废话
九成
恒温器
梦境
高强度
同龄
两三个
强势
俯@@
犯错误
联邦调查局
趋向
污
件@@
公开@@
汉语
古生物学家
留心
魔幻
脚本
电锯
美术
传真
醒过来
鱿鱼
翻译@@
这么回事
不由自主
庞然大物
饥@@
戴维斯
6500
鲸@@
赶来
无所不知
近亲
模拟@@
刑罚
应激
瞎
信息处理
翼服
估测
若想
乐在其中
煮@@
竟@@
壶
纸币
sc@@
当事人
蓄意
巨浪
刘易斯
察看
利兹
径直
咖啡@@
示意
衫
保安
亭子
25000
净水
超凡
简单明了
呐
我教
脱掉
不成
外包
特许
忧
劣
全球定位系统
资本家
鸡块
布雷
动力@@
欠@@
限制性
遗址
籽
宝藏
弹射
偏偏
交警
ED
那就是说
陷入困境
展厅
Vi@@
顶点
微乎其微
堵车
顾
晕@@
相互连接
铝@@
脆
设身处地
多方面
怪胎
教皇
运输@@
喝茶
指导员
开普敦
内脏
发出声音
位子
哥们儿
西装
马丁路德
侍@@
情侣
沉迷
越少
表演艺术
事迹
演奏@@
那首
不算什么
令人满意
暖
作个
宽泛
归纳
观察@@
恼火
扮@@
耶鲁大学
分区
石灰石
坡
Larry
迁
马萨诸塞州
紧急情况
决定权
那类
恐惧症
拼接
均匀
自由度
照耀
绿洲
玄@@
戳
估量
烦躁
激进分子
盎司
驶@@
前期
死地
栖@@
髋关节
摩天大楼
遗漏
头牛
各个领域
敏感性
隐含
五亿
ould
Ed@@
特拉维夫
星光
自杀式
终究
其实不然
IP
让@@
奇观
欧罗巴
化妆品
OM@@
望去
一动不动
推导
有望
传回
不自在
一现
感染力
价格@@
何为
Gapminder
睿智
流利
关系网
蓝线
触控
过高
带子
糊
图样
纺织品
管理层
加州大学洛杉矶分校
截然
分枝
同卵
回放
塔尔
铺设
旱季
试飞
钦@@
航空@@
卫@@
罐头
囚禁
螺@@
宇航局
客观@@
菩提
卑鄙
卡住
肝@@
鼻孔
再造
判定
精确度
补
斑点
赫兹
同意书
触手可及
世界大战
耐力
文学作品
伐
乐土
狱中
栏@@
贸易@@
鳕鱼
精神病学
关门
微处理器
尾声
词儿
科威特
安逸
随身携带
不当
试过
等会儿
游戏规则
环游世界
妇
51
博弈论
Julian
出生地
袋鼠
皇@@
二零零@@
用电
佩里
八月
憧憬
用具
妄想
横轴
1850
贫富差距
应是
亚洲象
棕榈
几星期
层层
二年级
脑力
加重
为本
深厚
个别
英特尔
教员
意料之外
罗西
碳纤维
Ex@@
航@@
宜居
斯尔
弧菌
看得出来
itt@@
Ph@@
索引
驱赶
妻
安乐死
国务院
首页
东北
非线性
语境
摞
神经病
第一部
放上去
怀特兄弟
理论@@
缠@@
兼职
收集器
Rus@@
私有化
首选
鹦鹉
复活节岛
爸爸妈妈
小偷
尸@@
Pink
奥斯曼帝国
阿拉巴马
族长
阿尔及利亚
AL@@
转播
珠@@
甲状腺
象牙
中非
Ev@@
发言权
抬
打出
变冷
棋盘
气愤
毒液
体面
讲演
催生
巨大@@
手提
來
stein
惰性
me@@
ook
半天
独木舟
司法@@
检察官
钻进
虐
尼龙
车程
饭碗
那层
真人秀
兰迪
危地马拉
没收
45%
骰子
oy
新车
令人厌恶
地标
ey@@
停车位
不顾
上用
柯
免疫@@
示意图
陀@@
推断出
文化大革命
嗒
核实
司法部
和蕾
金牌
Sam@@
银河
壮举
红头发
乳酪
救世主
非典
橘@@
rat@@
电厂
私营企业
高楼
电视频道
ony
大使馆
蒙大
AS@@
覆盖@@
诈骗
堵住
240
出汗
这两项
门人
宝莱坞
司
僵局
奧
公交系统
Worldchanging
格拉
退休金
角色扮演
沉积
RHex
甘多
学术期刊
笛
肥皂剧
奶油
Mathematica
此人
塞塔
花豹
搭便车
内华达州
PIPA
果断
深水
伯明翰
巴克
步兵
声源
实用主义
换气
这令
斯特灵
内燃机
攻击性
Fab
边界线
纵横
音速
叮咬
巴布亚新几内亚
Minto
ata
加尔各答
Eduardo
投球
沙漠化
篱笆
ord@@
教育工作者
洛斯
谜语
Jerry
打勾
双金属
若然
车型
棘龙
ESG
投石
取货
上游
正经
岩浆
热液
涌出
供养
群居
打斗
感光
几十亿年
生存环境
徒劳
闲
卖力
做主
强国
应变
疏忽
最出色
不佳
解雇
着眼
学生会
雄心勃勃
连贯
年会
研究课题
举足轻重
数十@@
挥手
日渐
深感
租用
典@@
流泪
1948
弗尔
社会活动
分子生物学家
胖@@
反光
嘎@@
学术研究
奸
多到
令人信服
融为一体
积极参与
权势
大部份
埃尔@@
流行音乐
成真
皆@@
之歌
可循
低谷
新年
平面设计
伞@@
环流
胃里
购物@@
子孙后代
狂欢
BR@@
再也不能
可贵
室内@@
停止使用
Ter@@
模具
吵闹
出没
离岸
洋流
渔@@
爆炸性
上加@@
重回
二十万
百分之九十五
粗鲁
纸杯
魂@@
琼
集合起来
于世
肯德尔
楼上
新鲜事
体中
较长
陶
中将
突击
合理性
火力
月经
贼
好几
忘@@
亦@@
另有
现身
见效
终极目标
安德@@
壮@@
六天
逝世
引述
低效
任由
讨
超级大国
下跌
径
接入
议
放上
英雄@@
回味
地来
年期
谈不上
回信
乖
几句话
慢速
性高潮
禁令
努力学习
罚单
丢脸
生物钟
极富
击垮
广为人知
预设
编号
臭名昭著
音箱
施工
中层
第五@@
衰弱
根本原因
失常
适量
冰冻
我下
象征意义
三角@@
默默
大理石
会到
最高@@
哈德逊
卡斯特
海岸边
虚无
决赛
原型机
受众
小玩意儿
向导
抵触
专利@@
DP
前夜
uel
Scott
置信
正中间
sky
抵抗力
单调
逃出
科学杂志
花点
勤
积极性
惭愧
全能
败
鲜血
从小到大
涌@@
裁决
润@@
于是乎
有朝一日
震
You
艺
后会
留住
安稳
最想
想像力
比利时
前台
肩上
树种
条线
猜猜看
一角
荒废
绘
族@@
美感
演奏家
惨重
水壶
登顶
最高点
杂物
日出
峰@@
轻便
钓@@
一心
这股
集聚
全神贯注
uk@@
ba
外加
肿块
镑
阻@@
欧洲@@
拍电影
重担
有利可图
隆
得体
时间轴
缓缓
万分之
居所
记起
吵
蓄
手提箱
62
不相@@
堆满
祝愿
卑微
开张
碰触
半月
来个
盆@@
总得
写书
成瘾
书架上
人太多
雷德
奥斯@@
富于
发射器
虫@@
侦查
瓦尔
基因工程
理工学院
骑着
浓厚
灵敏
葛
Gl@@
一切正常
日常用品
况@@
ial
腹
关节炎
磨损
Kevin
抗原
六百万
蚱蜢
丸
堪@@
亿到
器官移植
量产
可食用
马赛
麦凯恩
建筑工人
工头
挽@@
万倍
静静地
相通
直白
世博会
米长
地基
集资
拆解
35000
确凿
相貌
游乐场
额头
电信号
邻
况
造物主
普世
棋@@
后裔
香草
拍拍
逼@@
承
南斯拉夫
纠纷
零碎
构@@
舟
Is@@
自我感觉
出卖
薇
新人
警醒
耶和华
犹@@
祭祀
互利
增添
机动车
交到
语句
花粉@@
情不自禁
甜美
羽
热带地区
感到高兴
泉
汉姆
忠告
do
毁@@
印刷@@
出个
白日梦
万条
光标
又@@
飞去
游牧
无从
玩过
一环
越多
两方
拉登
人口统计
起效
巴尔@@
申@@
使用暴力
Kh@@
焦@@
怜@@
倾诉
代代相传
感染者
我照
浴@@
减退
半透明
嘲弄
希波
朴
借着
现场表演
帐户
推文
三分
说不@@
mon@@
表亲
两份
别墅
首脑
科菲
消毒
童子军
低落
约旦河西岸
上帝保佑
健@@
栽培
李
一无是处
步枪
友情
之鹰
铅@@
涂上
砂
截图
县@@
赠@@
迭代
63
帕拉
格莱@@
层出不穷
伟哥
另一家
饮食@@
填饱
无人@@
任命
视觉艺术
挤满
进军
画展
设计图
飞车
好玩儿
105
1940
不知@@
被叫
自动@@
读物
论断
海滨
处理厂
死胡同
化工厂
二十五
滨海
统计@@
扩@@
绿化
牙膏
违规
极客
珍
产品@@
业界
挪@@
惹麻烦
一碗
法式
纸袋
游艇
有线电视
Gore
ex
卷起
ly
自我实现
排版
快进
ack@@
巴克斯
蕾
侏罗纪
虚幻
复印机
他妈的
这成
偷看
厄
这会儿
之美
否
恭@@
赐予
私下
病态
少数几个
包涵
核废料
洁
操
粉红
盗窃
房门
篮
功用
生物界
基因@@
滑翔
刻苦
发问
主修
上前
朋克
跳入
Kickstarter
数据流
防盗
人问
身影
曲折
杨
拍照片
为难
符合@@
烈@@
区区
巴拉克
专业@@
斋@@
Zero
全心全意
通路
引言
懂@@
国家级
至极
正相反
征
伤亡
防卫
新发明
划算
蛮@@
Tur@@
猿人
头颅
沉淀
肋骨
山洞
通力合作
司@@
毙
涵义
穴
do@@
碳酸钙
粘贴
无机
敏@@
for
者@@
壮丽
上能
一条街
救人
耳闻
大力
救活
腔@@
大有
侵占
纪律
普尔
熔岩
纺织
靴子
恢复性
迪恩
land
勃起
百分之四
天主教徒
栗
高危
预防措施
无奈
利用@@
上花
凤凰
邮局
科罗拉多州
波浪
整条
非官方
橙子
缕
寓意
一次次
厕纸
满意度
施行
一两@@
扇@@
惊
无动于衷
集结
犯罪分子
我生
圣雄甘地
莫过于
听错
鼓棒
寡@@
压裂
百分之三
搅
凡事
俚语
排便
医学杂志
上门
种族主义
妮@@
星期四
第三天
铁丝网
厂房
轴线
公司@@
庭院
挡@@
1964
四年级
投票@@
美是
精良
PA@@
筹集资金
左右@@
券
平均数
十二月
传感
测量@@
花瓣
左眼
固化
总计
几项
不单是
信号灯
灌木丛
开出
放牧
指头
双螺旋
肠子
理工大学
的士
my
尸
光在
而变
培植
海伦
共同利益
抄袭
上个星期
沃尔特
我作
从此以后
亿英镑
越南战争
耀眼
ga@@
塑料制品
费力
驶向
帕斯卡
塌@@
剧情
叮
追问
吵@@
ston
遮挡
阶
逐一
相匹配
盾
适于
发芽
说辞
绿茶
糖分
摇动
火鸡
干草
太空船
热闹
十几年
日夜
药方
¼
频@@
随手
饿@@
第一次世界大战
强烈@@
调配
脱颖而出
反省
无止境
博爱
仁@@
冷酷
诊@@
医疗保障
Rock@@
会得
荧幕
凝胶
分离出来
标明
哄
1929
匆匆
悟
以至
仔细@@
巷
统统
相乘
军团
慰藉
小刀
民权
补给
佬
晃@@
敲响
简明
遍地
新闻记者
严密
流亡
撤@@
做会
金融机构
une
逐年
罗宾斯
多得
乘飞机
部份
通行
牧童
积
集中@@
使者
摧残
缸
劫持
竭
妥
节选
就职
使用@@
1963
炫耀
生锈
Hans
增殖
谜题
录音机
人形
双倍
爱滋
玻利维亚
曾祖父
眩晕
断定
十二年
拉动
牢牢
越深
脑损伤
衬线
Fer@@
民用
偷猎
凉@@
Qu@@
介
肾
过敏
激光@@
拾@@
计算能力
绳@@
Bas@@
bo@@
驾驶者
逼真
显
亲缘
拓@@
不配
默德
覆盖率
肥
翻版
征收
TBP
勒斯
真不知道
措手不及
之名
脑内
1956
Aurora
97%
迷航
艾达
实际@@
16%
填埋场
收益率
比不上
和尚
任期
传出
制表
辨认出
无可
亚历克斯
耸@@
ene
孕@@
挥之不去
呜
呵
亲友
生理@@
中产
说点
Sarah
掩埋
天际
受人
胸针
TEDWomen
耀斑
六到
溅
言辞
埃森哲
一吨
30@@
疗
50000
投诉
yp@@
蕴含着
防线
能行
重大突破
手动
ling
维奇
混沌
趁@@
历史长河
33%
非营利性
不能不
闲逛
我同
歇斯底里
贱
战线
cy
非常适合
性是
污垢
债@@
请原谅
亚马@@
硕大
AIDS
丢人
颈部
铲@@
运动神经
卡通画
秋季
der@@
太子港
Coll@@
一味
戈登
鲍林
第五个
调试
饶
雾气
欧美
称得上
圣杯
137
朱丽叶
拟人化
G20
查德
冥@@
喷水
定格
透视
祸@@
炎症
Joe
裂变
往上爬
新种
ney
时装@@
计时
价@@
保护环境
传统观念
院里
迫切需要
这人
绿巨人
音景
婴
愁
相辅相成
米尔斯
博茨瓦纳
萨满
北朝鲜
恐怖组织
爬墙
刚毛
艺@@
基因学
大夫
获知
抚慰
尼日利亚人
仆人
下列
触犯
驾驶座
剥
侥幸
PCB
当权者
魄
径@@
远大于
商业行为
挽回
wa
格陵兰
晶片
扔出去
蒙大拿
有车
精神科
Koolhaas
捆
猴面包树
BJ
实事
幼仔
延时
钞
录影带
呈@@
扁豆
20000
人文@@
马尼亚
势利
棒棒糖
八年级
接吻
信教
Hillis
瓣体
呻吟
安哥拉
水族箱
奖品
黄蜂
解谜
缺氧
旗子
称道
间歇泉
丶
尔罕
老奶奶
石斑鱼
毕尔巴鄂
万维
腋窝
非兹河
技因
三百@@
贴着
公鸡
第一手
合伙人
嗷
40000
喷涌
上会
成千上百
玩得
创新能力
兴
一般@@
不均
此举
自满
所花
次级
飞入
手术@@
寓言
消费主义
里奥
颂扬
怀抱
很会
奥斯汀
顾虑
条形码
很赞
确切的说
参赛
涂层
创可贴
抽象@@
胆
外衣
一段@@
学前教育
制造@@
加进去
溢出
总收入
人声
乐章
图斯
长生不老
一举一动
一成不变
量身定做
繁复
建于
塔夫
Wat@@
分手
榜
给我发
踩@@
弹出
纪念日
单向
挺不错
po@@
烯
卢卡斯
东边
奉
戚@@
牛群
ett@@
蒸汽机
简约
哪些地方
议案
整体性
规格
第二层
卖出去
一张白纸
请教
儿科医生
迥异
会犯
神经递质
发散
中起
治疗法
治病
西尔
寸@@
必要性
广袤
上限
海洋学
所示
检测器
任何@@
右腿
理所应当
受到感染
深情
装作
千万年
一等
蜜
袖子
往事
看得@@
我进
要死
控制中心
迷住
熏@@
遗弃
纸条
几分
Armstrong
佐证
不明
答@@
反倒
晚年
道别
撤退
高贵
躲开
追捕
ya
1400
27%
份额
耶鲁
瓦克
人写
人比
署名
也@@
加点
搅拌
自带
橱窗
丛@@
定论
亭
工作日
超速
缺乏@@
津@@
大街小巷
奥尔@@
皮特
借助于
稠密
随机@@
潜伏
整座
特地
滩
扩建
4500
上岸
映@@
佳@@
直达
高原
人死
上山
沿路
呕吐
趣味
平日
面对现实
吞没
你试
路由器
西岸
Tata
果汁
胜者
巨
推进器
漂流
录下
Microsoft
Word
鼎@@
太长
顺带
屁@@
插进
学问
100000
Nick
利率
课上
更正
芭比
道义上
全场
汗水
当上
心头
一世
文化遗产
库斯
真真切切
家后
整形
小家庭
置入
拉萨
情人
忠@@
安抚
第一组
庭
一般而言
合一
开动
晴@@
永续
造物
放射@@
某位
1958
身临其境
风速
第一块
积雪
残留
搁
截取
积攒
病得
统计数字
地下水
雌激素
邻座
水桶
梳@@
里长
最前沿
姑@@
第一家
时间跨度
那间
愧疚
二分之一
性格@@
隔间
束@@
旷@@
变更
所著
路克
色调
执行@@
帝
十二@@
劝
革@@
钩子
店员
不如@@
肩并肩
麻省
狮@@
鲑鱼
军用
现代科技
光敏
浸泡
占地
嘲讽
探索者
拒@@
个例
舒适度
出场
外边
个子
踢足球
尝@@
面条
人口总数
粮@@
要少
特别之处
莱斯
格林@@
静音
右派
版权法
小到
特工
皆知
撇开
等价
墙体
箱@@
相聚
茫然
带你去
年少
犬@@
距今
倍感
病痛
咔@@
桌布
中所
指南针
想见
艳@@
改观
罚
幸福快乐
刚出生
均衡
火热
一辈
热气
饭桌
置疑
壮
仇@@
那句
故我在
内衣
二手
上路
归结
iP@@
流水
秋@@
小敏
甚远
建筑工地
长存
覆@@
之王
挖出
自动售货机
超强
电子元件
枪击案
嚷
局长
花儿
卵@@
蜡笔
艺术创作
碰见
钢琴@@
跟不上
高龄
不论@@
伐@@
挪到
下雪
按住
抖动
雅虎
希腊神话
快照
塞罗
中亚
@
这全
奥萨马
雅典
好戏
稻草
攫取
这代人
传单
以求
长袍
幻
症候群
袍
残缺
发生器
荷兰语
克拉底
Sal@@
合理化
无法解释
来来回回
太阳镜
样貌
一万两千
家谱
一百倍
万五千
两万五千
怪诞
生效
一扇门
进进出出
facebook
飞扬
所幸
雕塑家
游览
准备就绪
以防万一
毒瘾
掉头
考古
篝火
侦@@
的的确确
收尾
原件
铸@@
青铜
预订
距@@
顺其自然
规
笔下
短小
忘怀
剖@@
移走
ix
周刊
机关枪
嗡@@
西班牙人
宁可
沿用
诽谤
市政
交通系统
受惠
财力
辜负
胆量
沃尔沃
二十亿
彩色@@
回望
经商
不单单是
凭直觉
人里
为数不多
覆辙
障
泉@@
校车
坦率地
错事
托尔斯泰
负债
每桶
啥@@
65%
一万亿
高价
豪宅
月底
赖@@
小鸡
五感
打响
导航系统
淹死
马歇尔
Jason
虚拟现实
款@@
费解
本事
划出
可想而知
胶原蛋白
迅猛
动量
回忆录
菩萨
岁@@
我开
喝水
菌@@
益生菌
早产儿
绞@@
伸进
渴
晒太阳
体重增加
亿倍
如图所示
恶作剧
可达
西弗吉尼亚州
不锈钢
沦为
服务员
格里@@
挥霍
脸颊
架设
笔直
不休
念书
攻
呼气
洪都拉斯
跃
96%
自始至终
RI@@
恶意软件
绕开
国立
堡垒
两股
坡度
曼哈顿岛
景致
水塘
乍@@
第十@@
好点
美式
纳税
储@@
痰
系列@@
不具
恶毒
盟@@
奠定
以期
一百多年
剩@@
自助餐
鳄
萨斯
倍增
Cam@@
Venter
偷偷地
竹子
巴里
飙升
警戒
edy
武断
卑@@
究
亿万
小而
Je@@
抛物线
与日俱增
ich@@
挣@@
下会
出血
健在
五位
降下来
囊@@
交流@@
隔阂
德鲁
1910
涂料
稀奇古怪
几代人
粥
ish
you
抗病毒
蠢事
每加仑
mo@@
孕期
喂@@
这棵
鼓掌声
围成
相爱
往前走
渐
茜
交通事故
无可救药
罗德岛
睁开眼睛
荒凉
艺人
两千年
归还
派上用场
况且
职务
幌子
日照
汇
页岩
苍@@
丰
协同工作
受益匪浅
私密
工艺品
地段
护栏
电影节
闯入
置身
财政部长
饱和
相对来说
白种人
纽约大学
院@@
胰腺
高尔夫球场
暗示着
刀刃
古人
闪闪发光
42%
筹备
维吉尼亚
贪污腐败
票@@
亿光年
连通
快得多
涌向
刹@@
入侵者
浪漫爱情
兴奋剂
顺畅
冠状动脉
妥当
莫大
高得
检查表
浇水
寄来
电灯泡
ind
ss
ise
明晰
泄@@
数十
买不到
判刑
淋@@
弱势
做做
测谎
除以
Mart@@
换种
1.3
越远
向日葵
水温
管状
布达佩斯
入门
冷水
叼
两部
折射
响亮
画上
感想
报废
技
分子生物学
此基础
抛出
那本
斯托克
杆@@
秘方
德兰
臭氧
肌萎缩
运动神经元
处方药
吹嘘
69
腰部
爱国者
Kelly
证件
举着
日趋
成虫
充分发挥
发电@@
童工
全面@@
Nov@@
遨游
翱翔
互动@@
枝条
谬论
金融市场
ID@@
dia
坠毁
ank@@
汽车行业
法老
口服
保
差异性
压倒性
全民
蜂窝
腰包
生子
职业道德
上爬
如此一来
ach
土耳其人
矿业
受害
既定
锋@@
贮存
太美
地心引力
正像
夫斯基
ob@@
音阶
赛琳
很重
乘法
旋钮
死于
养料
经验教训
西南部
亨特
法制
拼车
公告
处决
j
蜂房
设计@@
串联
大卫王
委婉
水是
慢慢来
设在
纪实
宾夕法尼亚州
姿
9.11
墨
©
艾格尼丝
无条件
认出来
诺伊曼
真空管
车主
通用@@
正想
普通话
收入水平
独特性
乔纳斯
言归正传
筷子
归根到底
千瓦
zz@@
梦寐以求
恩赐
跨度
一半@@
最优
休斯顿
重度
胡椒
锤
霸@@
加进来
1972
头盖骨
偷猎者
高分辨率
医药学
一层层
é
自画像
脸孔
忍耐
定性
筹码
大臣
网络化
一命
嵌@@
ama
驰@@
可编程
强制性
厚重
蚀
昏暗
猎食
月光
致病
菌株
包容性
长尾
比分
仅存
按部就班
复活节
磷@@
水来
渔场
航道
1912
扩充
康德
律@@
象棋
扬声器
翻过
超音速
客机
痴呆
建材
稻@@
软件开发
Pur@@
会计师
Intel
冥思
教派
睡不着
荒芜
早起
讯号
土著人
蚁@@
虽@@
必要条件
驳@@
小丑
Tar@@
宛如
油脂
逝
评审
开外
伊斯坦布尔
那名
满脑子
鹅@@
关注度
统@@
回国
ran
瑞克
开创性
工蚁
莱恩
莫尔
强韧
克鲁
加勒比
布兰@@
事实真相
精
收藏品
核爆炸
嫁@@
拐
域@@
雅克
眼科医生
1971
扇门
怨@@
海军陆战队
美国士兵
小队
乔伊
那家
侄女
第一章
内森
几十个
半个世纪
文斯
比上
副牌
摄相机
会来
1.25
甘愿
twitter
手边
坐标轴
覆
大些
予以
经文
混战
屠@@
之作
原教旨主义
嫌疑人
窜
re
自由民主
9000
令人称奇
墨西哥城
斯蒂芬
衰败
降至
血样
大力@@
脆弱性
狼群
斐济
校区
父辈
堆肥
简单易行
逻辑思维
味觉
Gil@@
恐怖活动
顺应
行政@@
驴
引来
战俘
复仇
信任度
ora
八成
万事@@
Jefferson
先入为主
扶手
舒缓
魔兽
超棒
挥
杀人犯
桩
误用
芭比娃娃
逃过
di
加州理工学院
培养基
卵巢癌
长满
枝@@
缀
Ben
模式识别
艾萨克
Reddit
尼西亚
监护
一段路
战乱
医学@@
Nano
em
Rose
递@@
电动车
生育率
打工
邦德
打结
Khan
呎
Keith
演算法
牛角
ron@@
阶@@
吸血鬼
政府@@
事业@@
伏特加
Los
教过
阿布
曼克夫
剥开
之母
妇@@
殖民主义
疑虑
ko
扭
强迫性
洗脑
南北
摇头
轻蔑
哪条
耍@@
睁开
野化
公
电机
地缘
使命感
笔画
集权
超常
对撞
PT@@
石板
古尔德
剃@@
今年夏天
阿什
HA
优待
咻
打招呼
奥运
聪明才智
身体语言
四到
摘
成正比
夏娃
Bab@@
木薯
联系人
死亡数
坏话
磨难
隐
保护者
抵
轮到
下肢
献身
汉堡包
养老金
班杜拉
条带
劳动@@
提姆
凭空
赋权
热力学
蚜虫
漏油
偏倚
才华横溢
疆界
社会效益
泰特
音乐演奏
购买力
Kismet
疟原虫
美联储
纳吉木丁
蚊
ja
查克
建在
泰晤士
Netflix
蜥蜴
驼峰
引导员
贾巴尔
安息日
性价比
０
罗德尼
燕麦片
BL
粗糙度
退役军人
正反
占地面积
海味
介子
药性
401
酵母菌
防蚊
陌生感
洛法
Uber
vin
轴心
硫磺
海中
停住
而起
小型企业
个人利益
践踏
传染给
守旧
陈规
致使
专为
更会
更久
桃@@
不容
聘用
在职
全方位
首位
两代
学年
公平性
热门话题
优秀@@
分层
材@@
寥@@
遗留
河谷
疼@@
跨越国界
选择权
五十岁
1939
沟通交流
多过
认同感
市面上
犯罪现场
水分子
突
彩画
水在
怕@@
撕掉
二十个
半张
圣经上
外人
营业@@
但用
极强
Gab@@
捏@@
鲍威尔
驱动器
自我介绍
纳什维尔
Or@@
冈
瓦格纳
蓝调
Eth@@
拉丁
Val@@
畔
频谱
田野
一票
轻声
勇敢的人
梦想成真
措
踏
亿颗
ion@@
饮@@
拖网
波及
过滤@@
万公顷
庙宇
脚跟
屠宰
小汽车
之巅
手绘
移动性
变色
蔓延到
中枢神经
启程
修订
权限
曾一度
放过
几千@@
伟@@
跋涉
扶@@
要长
二十多年
尼日
大学校园
求婚
发到
重病
爱着
长岛
上楼
候@@
脚趾头
ford
重温
合力
ary
纳闷
贫困地区
小团体
急于
界@@
容许
确有
太热
现阶段
完备
几岁
人类基因
拖拉机
八倍
The@@
之高
绿色革命
哀悼
递交
一届
趴在
咨询师
登山
ito
文稿
拆掉
看守
抹杀
补救
再下
心意
嫌
那一
慢活
刊@@
年龄层
藤
冰球
讲究
刚果民主共和国
近十年
患病率
逃生
申明
布拉@@
漆@@
报警
撤离
两米
洪@@
指示牌
打中
急迫
鲜艳
包厢
连成
动画片
适中
狐狸
出入
泳@@
吹牛
蛙@@
坚持下去
始@@
维空间
港@@
抽屉
舍弃
正为
过日子
浮出
写些
显眼
而过
浮标
手握
锯
岸上
拳
偶@@
爱是
活人
胡扯
停靠
查查
神经性
技术支持
电话线
ite
工具@@
屏
买个
卸下
Jur@@
Ko@@
课程@@
190
选择@@
叉@@
oom
嫌@@
吐温
餐桌上
来不及
四百万
专业训练
轰动
家长会
分崩离析
仔
沼泽地
贫@@
成倍
留出
窥@@
拖拽
俱@@
谱@@
创举
喙
轻轻地
赤裸
康复中心
合在一起
瘾
对性
所画
溪
滨@@
绝种
关在
切面
负重
鸭@@
四号
直奔
领头人
气罐
坠入
精疲力竭
援救
凿@@
针管
Pen@@
飞速发展
两栖动物
卵巢
一打
严重@@
起着
之事
第六@@
胎盘
一代代
毒气
雷切尔
棕榈油
面包店
绽放
析
亡者
抽水马桶
复
塞满
喧闹
推销员
玛格丽特
举止
提早
酒杯
桅杆
ock
米勒
伙伴关系
Wi@@
而用
房东
必备
飞奔
涅
买下来
共度
双语
柜台
三层
关照
打架
圣路易斯
卡马
耐
猫科动物
受孕
肌肤
转转
愤慨
事实@@
两千五百
人上
晶@@
隐性
半导体
rie
而活
两只手
书评
插曲
哥们
一整
以使
清洁剂
洗掉
有事
底端
佳肴
仙人@@
家畜
巨无霸
第四点
今年年底
农业@@
众议院
高盛
华纳
辛普森
阿联酋
衰
悠@@
定时炸弹
措辞
教程
可回收
盛大
纸筒
第一座
330
展览馆
废品
彰显
破旧
川
平米
多层
彻@@
野猪
智人
小布什
这一@@
无论怎样
尖峰
点上
发出信号
南面
取名为
赋@@
忍
死人
平衡点
争议性
教养
阔@@
苍白
哀@@
Les@@
抒发
少有
Sar@@
国家元首
Mic@@
乡间
野餐
院长
判断力
诺言
改革者
力争
加班
风趣
大方
陈列
希伯来
独裁统治
崇敬
十分@@
隔天
玉米片
群组
简简单单
再谈
听取
微缩
化验
伪装成
大坝
明暗
之神
勤奋
涂成
辱
伎俩
管理系统
赤字
自古以来
点阵
帖
猎户座
妮可
仅限于
阿拉巴马州
达成协议
事时
查出
萨利@@
牵涉
汽油@@
欣喜若狂
降低成本
悦@@
过错
选举权
可耻
最爱
白内障
工业界
结核
焦油
乙
梦魇
观者
上百年
隐身
除此以外
地理杂志
无常
短篇
一个系列
写入
收看
sa
膝@@
畏缩
杜尔迦
肆@@
征服者
ai
ros@@
二三十年
oon
六万
救生@@
涡轮机
诡计
安南
在经济上
千禧
1928
像样
产妇
百分之二十五
宜
充分@@
庆
摸不着头脑
全息
禁不住
猎
彻彻底底
鼓起勇气
黏土
尺子
模版
出炉
很烂
流出
官僚主义
取得联系
资金@@
科学院
取款机
小巷
布什总统
绿色@@
大众@@
异想天开
甜点
不尽相同
戴维
印刷品
迷上
深入人心
头儿
特鲁@@
欣喜
闯进
丘吉尔
没到
烦人
试镜
闪现
拉美
灰烬
服务生
领取
球菌
颇为
悲观主义
贩毒
他花
挣得
物质@@
受此
筹划
公共事业
芙@@
及早
成因
估价
最低点
深思熟虑
名牌
Ru@@
透明性
刺绣
拭目以待
超文本
罕
潘@@
愈演愈烈
消费@@
晦涩
工作效率
策@@
济
十六岁
瑞斯
窥探
愚弄
不赖
柳@@
绘@@
没多久
盘旋
释
用意
ain
母体
剖腹产
会出
数千个
菌种
喂给
大洞
掠@@
蒙特利尔
沿海
3500
境外
保护措施
宣判
两条线
分化成
会因
脑组织
桥@@
Ju@@
UE
尾气
胎@@
英文@@
不懈
吸气
夜店
场馆
当晚
来得及
厂@@
ft
衰@@
微博上
陆续
硬盘
服务提供商
黑客@@
网络服务
哈特
林地
它长
缓@@
蜿蜒
拍到
慌
提防
公务员
长队
高高
小河
贮水池
池子
名誉
名气
坚守
周而复始
坚持不懈
中线
尺@@
新意
霍布斯
中情局
科研人员
成问题
药店
尝尝
面包师
司令
宣传@@
猫@@
椒盐
三四个
电脑系统
群中
风味
哈德森
蒲@@
大大增加
堪萨斯
油田
ria
核电厂
记忆犹新
anis@@
环境污染
僵化
ph@@
哨@@
每一
大伙
蓬松
WI@@
NE@@
衡量标准
天内
八次
一切顺利
千名
吃晚饭
医疗器械
拥@@
空缺
愤恨
殖民者
转入
组合成
清空
开火
合金
面包@@
宅
三十个
办公大楼
屎
菜园
娘@@
撒切尔
投票权
警觉
社区服务
ash@@
带菌者
哺乳
24%
制冷
布莱@@
纱
软盘
四件
音质
喝一杯
那部
ni
九点
不论如何
所读
满满
唉
奈特
蝶
天大
卫生设施
瓦斯
OO@@
Pri@@
擦拭
桶@@
垃圾箱
Cor@@
Her@@
Miller
明尼苏达
收藏家
外墙
Burn@@
焦距
ts
芭蕾舞
火星人
看台
具体情况
Rit@@
旬
堪萨斯州
区别对待
镶@@
黛
写实
卡通人物
相互竞争
忧心忡忡
暗淡
仿
更远
稳定下来
洗礼
雾@@
海星
鳃
安宁
避孕药
厨@@
怎
孕
住户
盘尼西林
科医生
奋@@
不得@@
车身
部手机
编译器
之分
空想
偏执
想不出
议定书
域名
舰
基础@@
既@@
用钱
出国
入住
奠@@
困难重重
液态水
微藻
杂草
柴油
申请专利
第一首
所言
大军
克利
一战
算算
奇点
LI@@
扰动
字面上
Stu@@
萦绕在
铃声
az
Pre@@
嗓音
清澈
Part@@
变得复杂
默里
飞舞
汉字
氏@@
会飞
双关语
投降
颠@@
变种
医护
除外
第四天
即刻
夹克
觉察到
趣事
二次
烤鸡
特殊性
削@@
林业
带头人
恳请
双击
关键性
穷苦
否决
豹@@
之光
个人经历
重大意义
室温
吐丝
保护性
芳@@
溶液
霍夫
增重
告终
两极分化
警钟
独立@@
互相合作
二战时期
质性
ist
标准@@
陶@@
梵@@
中说
回顾历史
脂@@
首字母
出台
竖@@
灾区
膜@@
烘烤
热源
守护
助听器
门廊
忧伤
富国
采摘
钮
呼吸系统
无极
根系
想像成
查兹
林登
后人
内阁
宗教仪式
扼@@
脚踝
谈判桌
事态
弊端
拦@@
可取
１
虑
酷刑
ur
巷@@
经营者
微秒
桥牌
帕金森氏
两百年
诗篇
战舰
惯性
爆炸@@
临终前
猛然
伸出手
一包
惨痛
助人
诺拉
ND@@
唇
论调
椰子
郎
洗衣
理查
Stephen
输送到
可用性
淋浴
水会
异国
开放@@
省略
It
塔斯马尼亚
转圈
塔斯马尼亚岛
惊吓
袋@@
颈@@
基因图谱
性病
肿瘤@@
一通
时而
ut
梦幻
ich
一二
让给
电冰箱
丰富多彩
来龙去脉
出租
每一项
海鲜
享乐
0.5
这来
劳累
振
决
1858
轴@@
邓小平
绿地
上取
每每
磁力
两颗
正确性
幅@@
算得
乖@@
而会
另一@@
通电话
病历
疤痕
CL@@
测算
步态
沙地
踢球
木马
碾@@
美国空军
聚量
搞清
耐药性
三十岁
oop
分子结构
胃育
防护
几近
一闪
领着
出庭
怨
澳大利亚人
革
妇人
橡@@
吸食
情势
出柜
6.@@
金融服务
收起
正确率
外骨骼
杠
Beverly
八万
Red@@
erica
概念化
我查
命中
男士们
翁
阿斯@@
飞利浦
ire
军事力量
好要
82%
格里
普斯
启蒙运动
环境因素
制订
牢骚
晒@@
修整
手术台上
张牌
点数
LOL
CO@@
松弛
妳
之星
怯
罪恶感
紧身
上衣
扫
电视新闻
新闻媒体
揍
闪
七百万
毛细血管
尸检
防御@@
芦@@
毛茸茸
里德
拦截
兜@@
还行
球场上
一下@@
脉动
米切尔
侯赛因
上任
哈萨克斯坦
着手于
领队
篷
理疗
率先
边缘化
怀疑论者
海洋@@
相距
卡什
胸口
弱者
奋力
卫星@@
不见@@
天呀
牙科
一拳
等同
五十个
监护室
学习者
同志
99.@@
性冲动
揭发
man@@
即时通讯
喧嚣
阿拉
滑雪者
边缘系统
坑里
Po@@
刑讯逼供
囚徒
珍爱
钢材
背负
政治权利
新兴国家
失衡
中间@@
本着
冈比亚
筹钱
标牌
赐
钉@@
从业者
哮喘病
三圈
浑浊
硬性
发生@@
借钱
自主性
动作@@
加载
象形文字
一小撮
电话@@
连环
长老
下意识
死亡威胁
abad
ki
肾@@
教课
涌现出
领头
应不应该
1966
病理学家
所及
德米特里
Hel@@
很晚
eda
叛军
样板
封闭式
征程
数亿
苏格兰人
热心
人口普查
伤心@@
难熬
Kiki
身形
卫
哈里斯
欧拉
卢
座头
跳到
出众
低端
构式
for@@
楼里
能源需求
可恶
罚款
谩骂
助长
学员
同源
onn@@
拓宽
余地
何以
基斯
访客
水肺
消防车
ji
地层
丽莎
讲授
利益冲突
所述
五百@@
ck@@
渗入
谱子
性伴侣
眠@@
钚
伪科学
帮帮我
摩擦力
病理学
开拓@@
Dar@@
住院@@
神话故事
网络安全
归咎于
总要
伊莱克斯
见鬼
口头禅
乳汁
腐朽
坚韧
扳机
大略
德修斯
闹剧
550
公民权
僧伽
纳粹@@
存入
米克
才干
芒果
长辈
女高音
华里
茫茫
修好
*
蛞蝓
上色
征税
大头针
一帆风顺
羚
普洛斯
岩层
na
App
Carol
致富
五号
苏萨
诉
港湾
栏杆
Kap@@
达罗
一整@@
柯罗迪
牵扯
健将
行车
哈克
形形色色
制图
分布式
极佳
Prego
Ragu
祝@@
布鲁@@
安然无恙
Nathan
挖出来
不全是
ala
穆尔
Can@@
艾尔
操场
缺水
价位
分母
静默
百忧解
北大西洋
队@@
科尔
远征
惨不忍睹
投下
与时俱进
SARS
学历
庄严
阿门
我过
Alexander
表弟
数是
Agnes
车厢
克鲁@@
食性
电气
面墙
一维
Web@@
文化差异
日裔
欣
巴林
裙带
内什
条河
因陀罗
动乱
麦地那
坐落于
决断
哈姆雷特
汰
硅片
神性
剪纸
App@@
公共安全
阴囊
陨石坑
辛西娅
食材
停工
美国大使馆
自信心
服务器软件
诗词
马赫
布罗德
宽松
玻尔兹曼
字谜
枯@@
霍恩
日托
doo
母猪
灰熊
便利店
翻页
宇玉
乔治敦
赛道
亚伯特
症结
Fide
折痕
丝腺
吉儿
朱丽婭秀
Shirley
姚佳韵
卡克伦
SK
测压
告密者
精神药物
德尼柔
三连音
贝叶斯
Galvao
冰解面
Juliano
中信
储贷
借方
易度
中美洲
点滴
拢
窘境
上读
血淋淋
第三步
老大
受到限制
一贯
休息时间
材
优良
大大降低
办学
在校
可喜
来算
同化
窥
痛感
灼@@
摄制
誉@@
称号
原以为
桌@@
匪
低语
腕@@
想谈
处置
扰
乳
驯鹿
鹿特丹
盛宴
海尔
水性
实验者
不好@@
更多@@
税率
漂
劳动者
总额
教育界
惊醒
伯里
异乎寻常
琴@@
抹@@
自已
你们好
知名度
颂
oun@@
天衣无缝
歌剧院
喊@@
伴奏
跳跳
雀
唐纳
浪漫@@
对立面
诧异
公之于众
蔑视
一触即发
一发
后头
助推
料@@
拖动
统领
威尔士
家禽
乱糟糟
包装@@
矗立
几何图形
今早
自发性
构件
核糖核酸
拧@@
破除
相关者
船舶
维娅
示
浮冰
磷虾
常年
力图
渔船
浩大
亿多
积蓄
卫生条件
藏身
交界处
7.5
饱含
跪
Lo@@
吩咐
振作起来
就是指
有数
拉上
头等
男女平等
帆@@
偷盗
战友
振作
Sher@@
困住
肚@@
不干
Mur@@
敬佩
餐巾纸
乃
我应
赖特
周游
总说
缓和
诗作
六倍
首当其冲
施舍
棉
骤@@
综@@
信息系统
开场白
删@@
兼具
肖恩
IQ
回顾过去
善举
熬夜
挖洞
不高
说明书
前不久
沉溺于
赛跑
晚间
日式
淫
觉察
玫瑰@@
秒@@
斯汀
午餐时间
超负荷
一跳
书时
义词
却会
改革@@
国土面积
药房
所在@@
倍@@
疏散
沿海地区
产地
引人注意
谨记
繁荣@@
旺
签字
楼层
天窗
普遍认为
看不清
临时性
前部
长廊
漠不关心
高过
时间表
一百五十
一派胡言
华氏
告诫
最高峰
水底
在建
流线型
休息室
熟睡
强加于
拉到
跑动
ong
Simon
起家
切掉
那件
完整性
前人
北海
潜到
红光
美国国家航空航天局
真不错
就绪
更酷
用谷歌
咒
戴尔
OS
堪称
吱@@
划线
盛
从头再来
底盘
拖鞋
USB
预热
st
Dun@@
af@@
教育者
双曲
比较复杂
抹掉
膛
它成
西奥多
誉
技术手段
面目
现任
六十年
珍宝
一步@@
何时何地
不尽
犹如
山里
厚厚的
寂
大雨
半部
烧焦
原点
实况
离得
褪色
无一例外
再者
凡是
贞
何去何从
爱护
过大
你会@@
从天而降
濒临绝种
镇定
体性
挣脱
形态@@
几何学
圆柱体
用笔
凑
混合体
盖洛普
PA
巫
存量
不利于
坠
令人费解
Bur@@
收听
太冷
类固醇
Ken
重述
正试
Cha@@
0%
雄性激素
引到
酚
奶瓶
隔膜
哲@@
化学品
时有
联合利华
经销商
街边
缓急
喘息
内核
许多@@
能耐
夺回
静坐
条件反射
无数个
局外人
自由发挥
苹果@@
独身
伍德
祭司
深信不疑
专案
饰品
推动者
消防栓
刊物
光临
搬回
拍卖会
美好@@
不要紧
改了
写作@@
宣誓
本地人
溢@@
首尔
造假
西斯
操纵杆
纽约@@
会动
行使
体液
理学
原位
烈火
病史
并不比
Malcolm
小方块
谋面
纠@@
招牌
有线
颈
第六感
.....
玩转
暗指
腱
搅拌机
ure@@
毛毛虫
番茄
疫
卖得
阿诺德
Bruno
罗纳德
宾夕法尼亚
这两点
险恶
左翼
无望
跷@@
核酸
鼓吹
组分
万辆
等着瞧
棚屋
日本政府
棒球场
珠子
承载@@
少数派
称做
非人类
中介
置身其中
方位
迎刃而解
绝不能
屠宰场
玩玩
进晚餐
桃
善恶
此生
宠@@
脱钩
帝国主义
炸掉
履历
前世
愤
丧@@
她@@
痣
低沉
数学课
排挤
克罗@@
亚人
塞尔@@
Layma
Johnson
女同性恋
onia
强硬
一瞬
抽象概念
崖
奥古斯丁
老家
单亲
玩具@@
如火如荼
口香糖
美好未来
锋
变坏
亵渎
神明
亏@@
子民
两篇
和平共处
楷模
创世纪
而应
亚斯
睹
守护者
业余@@
逮@@
暴涨
飞过去
华盛顿大学
仁
潘多拉
愁@@
掀开
城外
阀门
遍布整个
味儿
蝇
松开
罗兰
不合
毫无用处
米歇尔
乌斯
本上
蹩脚
玛莎
观望
录像带
到手
付诸
发射@@
声望
问责制
晨@@
伊始
八卦
750
抽出来
阳光@@
强悍
不明智
游牧民族
yc@@
Hom@@
萨尔
克拉@@
受审
交涉
事前
获救
秃@@
铲除
共同体
老公
不相干
探望
当真
芝麻街
并不大
啮齿类动物
辞掉
Diana
洞口
海关
图是
说错
宾
篇幅
多维
归属
切身
Eg@@
簿
这则
身亡
风云
句@@
侦探
Tim@@
殿堂
恶性肿瘤
类人猿
始祖
从左到右
脉@@
冰河
跳来跳去
ge@@
匣子
照明@@
躺@@
回响
并试
阿拉伯@@
联合国儿童基金会
销售量
30000
主动@@
随地
所剩无几
波形
第二位
卫星电话
合体
心甘情愿
手工艺
Kn@@
浇筑
遗传性
订制
个体化
為
根部
指导@@
上下文
适应力
June
冲到
再循环
交错
尼克松
β
耸人听闻
傀儡
胃口
误区
挞
添加剂
浩@@
素食者
许多种
背光
皱@@
函
结成
小游戏
魔方
二十四
胡说
现实主义
来造
必将
里卡多
战斗机
阴郁
不合@@
幸免
柴@@
慢跑
市里
遗留下来
波哥大
市内
跑过来
适
两亿
多尔
狱友
色情@@
意在
自力更生
配乐
Warren
辐射@@
和蔼
核对
Ag@@
定下
一堂课
十秒钟
各有
金融业
Young
蓝领
投手
固定@@
校友
lly
下属
Sun@@
鉴
强生
娇@@
耐用
科德
不快
蝎子
图形@@
鹿@@
一目了然
复印
基本概念
Mer@@
欣然接受
太强
皆大欢喜
掘@@
不合逻辑
地使
没完
啊啊啊
不以为然
技术含量
浇
位居
不差
自言自语
小提琴家
痛哭
过早
小肠
传入
日光浴
诱使
无事
为人所知
真诚地
兰利
千万个
启用
肯塔基州
筑起
罪名
杨@@
结婚@@
千亿
制药业
受训
逆
热空气
埃菲尔铁塔
努力实现
Mad@@
孙辈
不及格
翻身
辍学率
期许
转角
傍晚
圆环
好意
歌迷
房屋里
招来
不宜
醉酒
电信公司
间谍
美国公司
奋战
内华达
蓄水池
格拉姆
定居点
毗@@
牵连
看书
展板
百思买
跑来跑去
无政府
棵树
咸@@
断开
河道
小溪
储
回落
波纹
逢
在此之后
班里
式化
丹尼斯
惯常
求知欲
很受
哲学@@
公共利益
小企业
计划局
民族主义
0.5%
主导@@
燕@@
油炸
爷
孰@@
装潢
获奖者
海湾地区
祝你好运
社会心理学家
高速@@
Norman
Con@@
积聚
父母亲
鹅卵石
大树
整夜
找人
藏品
复合材料
理工
待会
媒
胜利者
切入
黄昏
扶
原由
巴拿马
救命
数千名
欠缺
堵墙
时代周刊
星级
销售@@
溜溜球
火爆
洁@@
琳@@
站不住脚
ol
Mark@@
ere
蹲@@
越来越近
真能
一来
生活习惯
2025
表演@@
站台
Hy@@
系统化
约翰内斯堡
母子
一并
存货
废气
下场
禅@@
一夫一@@
饰@@
平衡@@
圣彼得堡
远足
等级制度
yth@@
革命@@
回击
人头
足球队
法文
纪@@
q@@
糟蹋
Herbie
难关
头皮
音乐学院
德堡
卸
木制
岔@@
不肯
旱@@
地球@@
萌生
ppm
自称为
陪@@
宝库
航海@@
学术论文
污染@@
粪
给力
启@@
基座
不着@@
两座
走时
双层
水体
国防部长
五年级
万台
票数
巴拉@@
可变
哈罗德
理论家
成份
只为
身份证
关切
T恤衫
军备
历史进程
电磁波
眼部
单人
鲁莽
闪烁着
葵
蛇@@
枝干
学识
亚历山大图书馆
惋惜
尽早
心流
陶醉
我于
交叉路口
发生率
千美元
漫漫
医疗卫生
仅凭
第二项
令人担忧
Watson
滴水
转录
炸毁
Jonathan
满怀希望
空格
天鹅
眼界
当务之急
非常规
宏@@
听证会
sk@@
匹@@
严寒
临床@@
不断进步
咸水
棱@@
旅行家
海王星
凿
营养物质
象个
12@@
Tr@@
盒@@
刺眼
弯折
压缩成
执着
投在
变慢
再次发生
我越
声带
习得
遗传@@
画中
拨打
醒来时
性侧
毫克
杰米
生前
回想起来
被装
JR
挨@@
没事儿
头头
地问
08
全貌
摄于
纺@@
马铃薯
篷车
中产阶层
曼彻斯特
换掉
十四个
麻
冥王星
易事
氮@@
畅通
保养
莱索托
滴灌
截至
救生
可信赖
倡导者
生而平等
大英百科全书
我点
苯@@
前程
达尔
希利
跪下
晃动
八分
取回
互相联系
行动者
迟钝
不可否认
18%
飞来
党@@
问卷调查
Nor@@
督促
有机@@
保守党
可供
生灵
搭桥
sh
生产方式
碾碎
渣
oto
完全@@
24@@
亚原子
浴
空旷
永无止境
进行@@
腾飞
遥不可及
闻所未闻
问责
年迈
劣势
重金属
骇人听闻
寿@@
澜
破坏力
亚当斯
志向
拿破仑
默默地
智慧型
洞悉
带头
轮流
朗诵
盈@@
期限
营利
合作性
数十个
up
抨击
唯独
不足为奇
地过
期望值
胞@@
第一幅
非传统
这挺
媒@@
蜂后
数到
放个
有空
高点
TaskRabbit
一波
稀薄
RIAA
哼@@
高智商
小把戏
归零
咸
新鲜@@
电阻
不常
传道
善用
诡@@
有生以来
喻@@
虚伪
骗人
阿布@@
想通
脱下
倒钩
不堪@@
一击
筏子
产下
健壮
酒馆
ati
Pin@@
来者
身陷
希尔
坚
那辆车
波段
Cop@@
惊艳
瑞士@@
79
存储@@
AC
her
聊过
加糖
积分
调节器
融洽
注释
组学
镀@@
冷静下来
一切都在
13%
21%
切斯特
茉莉
每场
管治
订定
零零
微量
厄@@
塞斯
鞭策
怡
坏死
谁会想到
商谈
精炼
奥会
不良@@
智能@@
让你能
多一点点
用功
雷曼
翼展
越长
六十@@
胡安
十分复杂
迸发
暮@@
弧线
绒毛
领到
无法形容
摊开
醒醒
说是
获准
Tri@@
两条腿
峭壁
存有
爱沙尼亚
撞车
电站
详@@
安全措施
ane
蓝牙
终结者
缔造
时差
珀
谱系
基因库
运动会
揉@@
识别系统
铃铛
资料库
哈利波
中间人
Min@@
com@@
金融学
着重于
受精卵
打了个
流下
此案
ij@@
不育
仿制
夺取
虚线
名副其实
Ahm@@
家门口
用量
伪@@
喉@@
零分
兄
超能力
ov@@
人机界面
扑克牌
已然
饶@@
嘀咕
太空飞行
200@@
视错觉
铁矿
比拟
矿产
灾@@
Pet@@
钻油
劣@@
草稿
组里
风声
白领
专利申请
全天候
种树
进驻
地块
之谜
汹涌
带去
吨@@
少年犯
狱长
岁时
阿姆斯特朗
嗜@@
恒温箱
取暖
调查结果
几家
怪才
二十多岁
基站
路灯
青年人
学前班
弗罗
入院
纹@@
双关
受限
或用
待发
微调
舒适@@
吓倒
更重
Vermeer
看不出来
床单
野性
译@@
得其@@
发扬
阿拉伯地区
支持率
youtube
限制@@
螺旋@@
痴呆症
消息来源
人口众多
卡卡
一点一滴
万头
逆风
船身
涟漪
脑神经
几百美元
牢记
维克多
解析度
每秒钟
钾
衰减
William
所爱
庭@@
热身
笼罩
伊拉克人
va
面谱
渗透到
陈腐
居住者
体能
掉@@
猜到
圆桌
紧迫感
性骚扰
Tim
我得
繁盛
Roger
世界贸易组织
老手
可否
會
沒
Bono
尊
翻番
贫困人口
奥斯陆
选拔
壮年
在实践中
五百年
施以
现实@@
主教
忠诚度
成败
何用
全班
伐木工
型车
Ta@@
橡皮
新鲜空气
卓有成效
2016
咳
直截了当
轮车
颅
再好不过
衬衣
重复性
姑且
论战
滴滴涕
帕克
多米尼加
阿塞拜疆
咨询@@
痕
商品化
SE
具象
立法@@
多花
节省下来
折扣
闷
消防@@
可说
社会阶层
省油
前辈
Tesla
各样
对峙
人花
出口@@
翅
成千
一亿人
佩拉
忽@@
锦@@
妙@@
不开
影院
催化
印证
日新月异
itha
卢布
TEDGlobal
术后
一动
低碳
专员
君主制
心算
ig
生成器
躯干
并列
土卫二
水道
婚前
阅读障碍
尼加拉瓜
鲁克
林斯
拘禁
来谈
散落
媒体报道
压倒
补品
大忙
手铐
阿特金
脂肪酸
老鹰
ale
die
棱
白鲨
NO@@
陆上
第一段
觉@@
橡皮筋
年青
每家
石灰岩
无菌
创始
拐角
满满的
语言@@
屏@@
Whit@@
平安
外皮
咖啡机
此图
过热
冥河
冬
腓力
之争
害死
大不列颠
大不一样
Wilson
求偶
罗马帝国
2.5%
引申
第二类
来举
购
柜@@
田纳西
1977
Lynn
氨酸
图鲁
心房
体育运动
右倾
首例
调质
多任务处理
Wor@@
不堪设想
萨里
大法官
广为
ela
强权
年轻@@
DA
姆斯
燃起
罗德
后边
大时
向南
打人
住宅区
三名
提供者
自尊心
蜜多
秃鹰
盖亚
空谈
eck
基尔
三只
平地上
布基纳法索
留声机
Nelson
ect@@
Orkut
战时
出生率
伤痕
火山口
长矛
倾
ila
嚓
封电子邮件
第一所
数码@@
IN@@
周长
弱力
非对称
战前
浓烟
老歌
Black@@
截
Ash@@
膝上
示例
肿@@
无所不能
传送@@
牧草
伴@@
赚取
Bern@@
RT@@
弗莱舍
豆子
医用
Duolingo
机器翻译
货币@@
隼
节拍器
Gordon
开幕式
不息
电力公司
UV@@
CAT
棋
翻一番
app@@
啦@@
平淡
木工
点水
创世
表决
避孕
募捐
马拉维
袍子
创业家
大写
坐姿
卷曲
电钻
轻型
盖奇
服务业
白脱
寂寞
咚咚
1959
网络空间
心脏起搏器
光晕
拱
纪
0.2
两手
滔滔不绝
一致同意
高举
漫
柠檬
lan
无赖
一宗
世卫
附
点火
良多
陷入僵局
愤@@
Ho@@
Yeah
警局
umb@@
数不胜数
西方式
住进
输油管道
凝固
铁杉
诈@@
欧几里得
归档
前瞻性
音盲
辣
疗养院
大写字母
价值@@
鱼肝油
刑事@@
暴力犯罪
下一阶段
农庄
通用汽车
宝洁
航拍
条目
生日快乐
打哈欠
崎岖
白细胞
爱丽丝
自驾车
收视率
路西
打嗝
Lam@@
更广
经合组织
TK
姜汁
Boyle
伦道夫
岌岌可危
卡鲁扎
water
假膝
穆提
卡雷贝
口吃
汪郁雯
咸海
体征
道格
防暴
喷剂
薇薇安
仙子
大会堂
Donnell
结肠镜
瑞波
西汀
Litt@@
黑岗
Jeroen
估价师
绦虫
肢端
肥大症
通灵
狂笑
看穿
热泉
硫@@
汇合
冰水
能长
保加利亚人
前脑
越强
换位
灵丹妙药
欢庆
最佳@@
携@@
排名@@
大大提高
测评
贯@@
卢森堡
高效能
去学
多元性
长处
每间
观察员
旗下
科学论文
皇室
区块
梭
一季
公民权利
黑白@@
本周
清白
逃亡
莱尼
十二岁
不爱
业余爱好
唾液
挡风玻璃
十亿分
四散
绞尽脑汁
延续性
悉
我付
撕碎
人作
背诵
三十秒
道德感
减免
搬家
特殊教育
投票者
单靠
Pr@@
平常人
特制
这款
简便
历史悠久
看些
办不到
样机
嘉宾
妙极了
长于
火线
密切@@
ts@@
行为习惯
ga
小调
第三幕
Bak@@
ast
细枝末节
投了
辱@@
迟早
之不@@
完事
不可收拾
傻事
排在
展览@@
罗尼
铭@@
生物降解
熔@@
熔化
西北
环礁
打火机
涡流
吞下
门厅
开垦
碱@@
罗马@@
转头
field
夕@@
乡镇
成片
650
Inter@@
边角
aki
两辆
音器
一格
千篇一律
麻醉师
打瞌睡
儿童医院
钱德勒
接线@@
锤@@
胶质
循环@@
且@@
发条
36%
鳗鱼
半生
这趟
两三天
存于
直接@@
跟踪器
到访
des@@
筑@@
印制
一大笔
马蒂
千张
弱小
啼@@
大哭
裤@@
恐惧感
八度
装到
掉下去
扔下
西瓜
战事
斥@@
Stanley
狭义
手榴弹
会要
诵读
它会@@
干些
打量
闭上眼
项链
忌
松树
照样
较量
堆叠
麦克斯韦
勘@@
生活费
打住
迈入
好斗
谢谢您
座右铭
缆@@
肾癌
诺斯
追求幸福
耕@@
自由化
高产
转手
特大
装运
主因
商品@@
叮@@
狙击手
迎面
哪位
弄乱
周四
冻伤
进发
先给
实验员
新手
自豪感
演播室
铃@@
很久没
迫
越快越好
更棒
言行
柔和
放缓
悍
代名词
新生代
恢复正常
无缘无故
迫@@
度日
按着
例行公事
八百
即将来临
乍得
累计
二月份
害者
分担
堤坝
排水@@
用地
免遭
之计
完好无损
试验性
投钱
贝克
林德伯格
路易斯@@
办公楼
机械设备
想尽办法
合乎@@
百岁
细胞分裂
粒@@
细胞组织
胡说八道
圈里
喷气机
喷气式
榨@@
紧跟
柴火
掺杂
堆里
黑盒子
情景喜剧
妥善
六条
兴盛
悬
推土机
屈服于
布尔@@
打到
呼呼
菱@@
平淡无奇
逛@@
过会
霉
搁置
email
为啥
艾森豪威尔
拆分
页@@
Off@@
受挫
那套
皮克斯
约翰@@
Ry@@
清晰可见
问答
撬@@
点击率
发源地
忍者
培根
英勇
马哈
庄
浇@@
莱昂纳多
扶梯
公爵
真伪
仰慕
合唱
星辰
雅各布
表示感谢
den
Plan@@
Por@@
抚摸
另一类
不堪重负
花太多
临
岗@@
多孔
很广
上一年
相交
2700
结构性
伽马
IC@@
亟需
口水
大本营
铝制
冷风
陡
跌入
全副武装
暴风雪
Hansen
幸@@
24000
变黑
险境
脱离@@
求生
加德@@
环保@@
0.1
受控
BPA
TH
出世
Col@@
orn
3G
洗涤剂
存档
糕点
桑迪
回想到
做菜
非要
捧@@
感觉得到
屈从
宽阔
不同点
阴阳
赖以
统治@@
曲解
二字
它花
矛
上星期
板上
推力
拉力
环境影响
配送
Ric@@
826
念完
有条理
不由@@
拆下来
翻新
降临到
名流
和睦
几百人
绍@@
盗
百货公司
披@@
做作业
昨@@
专业技能
挑选出
动物@@
顺道
阉割
无损
马萨诸塞
原貌
球形
发表@@
资质
更新@@
房间内
yo
割掉
落差
再试一次
韧带
年龄@@
常听到
第二代
所含
染成
氨
玛丽@@
Gi@@
混音
米老鼠
醒悟
栽
左倾
出局
压榨
中意
句话
木质
蓬
漏水
拉姆
哭喊
片面
脑电
邓@@
心得
重任
老妈
比萨
晚安
描绘出来
狱@@
不分@@
人身
省份
捐钱
Bun@@
蒙住
重造
克罗地亚
Ram@@
ita
硫酸
叛逆
hai
下个星期
lor
和谈
决不会
压迫者
作何
土狼
己见
住宿
莱伊
混血
十九岁
求学
选人
烙印
着急
狱
oney
起重机
陶土
烘@@
完结
美术馆
日常@@
祭@@
流放
赐@@
越加
贝尔@@
隆重
一席之地
南端
放走
假发
Joshua
候
享
哟
大堆
漏斗
诉诸
NBC
慷慨@@
电子显微镜
浸入
散发出
朵花
龄
小虫
糊糊
枯萎
盛开
155
莲
滤镜
靶心
区间
防晒霜
何故
回家@@
字里行间
卡夫卡
荒诞
地写
慢动作
名望
偿还
斯洛@@
总督
大有@@
齐全
多有
迷雾
自拔
边远
新墨西哥州
生小孩
蒙特@@
震撼人心
凶猛
相互依存
适者生存
欠下
麦子
份@@
病患者
丹佛
有失
神权
主干道
匿名性
上千人
惨烈
不远处
帕尔@@
管控
法西斯主义
生平
受难
古罗马
人像
光靠
痉挛
六边形
宠物@@
平方米
梵高
热切
人体@@
认真思考
暗藏
少数民族
得花
现场直播
使用权
应运而生
Jennifer
布鲁克
Te@@
编舞
绚@@
至高无上
境遇
无足轻重
Sim@@
our
新几内亚
长臂猿
梭@@
公然
分类@@
远亲
猎手
同名
ogra@@
停放
今夜
觉悟
信中
统一@@
斯坦利
棚子
悟@@
打入
别动
Na@@
以北
薛定谔
会读
我仅
特纳
罢@@
游轮
碰面
四处寻找
一摸
ll
赫胥黎
凝
矢@@
瓣
纺织@@
植入物
遣@@
行为学
再过
皮夹
而定
充
手机用户
繁琐
每样
素食主义者
浩劫
凶
罗列
说客
人造@@
伦斯
吃些
点心
素食
贬值
动向
眉头
辨
动手做
填字游戏
出让
舍尔
上下颠倒
移动@@
加里
uff@@
手来
铠甲
晾衣架
整本
巨轮
翼@@
押@@
朗读
雪茄
没法@@
递送
弟
微微
焕发
在短期内
财务@@
夷为平地
sen
解救
跛@@
Lov@@
que
爱情故事
促销
理发店
光能
Op@@
一户
仪表盘
发亮
所到之处
引起@@
间距
重蹈
躲到
无误
犹他州
数数
开篇
大肆
持枪
葡萄@@
全食
ty
ger
之遥
New@@
rain
涉@@
图片@@
一顿饭
捅
eth@@
畏
拾
咄@@
护理人员
巢@@
天然@@
髓
溶
威斯康辛
怪怪的
上校
二十五年
阿尔弗雷
ese
酒鬼
Kindle
立交桥
略有不同
凳
四百@@
心境
食肉
觉得很有
屁屁
开了个
认真对待
时要
胡乱
反叛
套用
简略
增肥
渔获
海狮
游到
人站
贞@@
皮毛
印第安@@
嘉年华
篡改
出处
照射到
八分钟
膜炎
北面
摄像师
旧式
恨@@
1920
彷佛
倚
童军
Ast@@
小贩
心力
鼓手
问好
东区
路透社
签约
十万美元
识别@@
信号@@
加以@@
详细@@
Amazon
不惜@@
情报@@
只靠
蓄水
贝卡
换乘
敢@@
冲进
亟待解决
电力供应
蒸@@
内尔
储存@@
做礼拜
整件事
平整
渡过
基础科学
股票@@
呆板
承担风险
诺基亚
菜肴
孰
1902
考察@@
除草剂
犁
滚滚
大同小异
有毒气体
沼气
学名
必经之路
树丛
斧头
射中
七百
哪张
非生物
二氧化@@
剪切
披头士
able
杂志社
被绑
人正
茧
依次
轮班
紧缺
内在@@
围起来
姊妹
强制@@
挺酷
御@@
不顾一切
不然的话
冻土
防范
睡醒
新大陆
模块化
ers@@
使用率
市场调研
湖边
缓冲@@
ath
三文@@
诊疗
缓冲
一片@@
非法@@
黄豆
Fe@@
暗杀
妙处
离婚率
生日@@
克劳@@
磁盘
甲板
勿@@
ky
六分钟
卡洛斯
El
相互合作
出手
赏
千千万万
Men@@
伤人
时代@@
to@@
摊子
coo@@
Han@@
受制于
两步
三步
Evelyn
Go
不下
一想
伺@@
实验组
50ppm
沉淀物
市场需求
更贵
赫歇尔
通俗
2600
中叶
可再生
RE@@
宣讲
Walker
AT
好评
合情合理
省去
John@@
通风@@
萨克拉门托
审批
用些
竣工
Fox
ari
ou
收银员
孔雀
手工艺品
一百四十
责任心
国有
权威人士
空无一物
以新
备忘录
中途
责@@
酿造
香气
礁石
发光体
警报器
腐
魂
健忘症
迟早会
理解力
能令
青年@@
寻觅
可比
好使
优先权
阿司匹林
能造
锡
社会底层
复杂程度
自治
电子计算机
eman
Erik
Gat@@
二手@@
ith
Nic@@
偏执狂
印着
雪地
打理
ero@@
销售员
Art
无表情
人员@@
联接
事有
每页
互联网@@
基本原理
话语权
标价
孔子
印章
紧密@@
谎@@
啪
节制
剑@@
社会科学家
第二组
失禁
德拉@@
热恋
row@@
克鲁斯
研究室
试验@@
旧金山湾
雄心
桌前
云霄
茱@@
辅助@@
mat@@
发热
工程设计
原意
口吻
四边形
微分方程
扔下去
单单是
异类
植物园
十五@@
无阻
end@@
暴躁
附件
防火墙
吟@@
苯
有近
篇@@
统计分析
曲调
丝带
起火
解锁
桌面上
安卓
心律
转换器
发生冲突
棚户区
白纸
全速
遍@@
驯养
生物化学
得失
万磅
茎
商业活动
出力
功能@@
森林@@
经理人
Ny@@
无稽之谈
掠过
重力场
河床
载重
地面站
有效@@
运载
零星
尽己
印度政府
黄线
空中@@
卢克
收容
母婴
签下
车内
砖墙
检索
模式化
巨量
腺体
得上
息@@
广泛性
渥太华
个数
七倍
多加
食欲
社会福利
克尔白
讨好
悠闲
未婚
佛教徒
盼
意料@@
舔
慈@@
ef@@
垮掉
化成
越多越好
增加一倍
矿石
钻井
打乱
版块
沉寂
当说
情绪化
奥纳多
所起
Tube
赞助人
良心
岁数
93%
储藏室
les
布伦特
虐囚
骇人
断断续续
高加索
取胜
计分
道奇
刻薄
泄
悼词
幼
贡@@
非国家
重整
兜售
库兹涅
78@@
商业界
两场
活动@@
雷诺
佐料
变暗
大开眼界
技术革新
一死
应邀
草药
先令
way
浇灌
坐牢
养蜂
盖头
钱财
餐盘
防空洞
ennett
型态
掏空
益
猎犬
1932
ench
Barricelli
佼佼者
鼻祖
RCA
1954
运行@@
断电
1952
柜子
基因型
诺依曼
与此相关
圆圆的
畏@@
别致
浸透
恶臭
弹得
校准
问得
we
had
百五十
一百三十
实实
制动
湾@@
共计
½
投放市场
合物
撤出
逐个
car
探求
散文
本真
多层次
赘@@
全套
两用
Max
Serra
策展
不胜枚举
Jon@@
Cameron
发表文章
无形@@
趾
技术创新
计算方法
全自动
送出去
打篮球
胡克
征得
物理现象
左脚
太多@@
羊毛衫
埋怨
巴德
一百五十万
下身
三千五百
搞不懂
交出
花光
理清
马里@@
通行证
定序
两足
辐条
立足@@
打滑
翻越
AS
地有
街景
车牌
无声@@
防护@@
棒@@
活塞
滑落
另一名
开幕
氦气
假人
减压
风洞
玻璃窗
上要
周年纪念
一分@@
盔甲
赖斯
扩展性
语义
契约
啤酒@@
强烈建议
威廉姆斯
一二@@
三四
壶@@
安危
tt
这起
行医
最常
缺席
Ha@@
处死
前身
首批
基础知识
磷脂
一袋
磷肥
大儿子
须@@
国人
波多黎各
中东问题
旅游业
崩@@
三万
地底
亿桶
股份
储量
剪掉
蕾丝
胡须
得克萨斯州
投资@@
宴
摩斯
退步
运输系统
安萨里
卷尺
斯波克
生产量
认知失调
HTTP
摘@@
睡觉时
时时
还击
更坏
菌丝体
细化
全城
空置
三藩市
拼在一起
购置
高档
朝圣
真真正正
水库
rud@@
焦躁
关键作用
克里克
熊猫
导入
use
con@@
腺@@
嘌呤
Cli@@
发源
放电
冲撞
数学计算
两套
能量消耗
早先
太低
二十分钟
葡萄干
口述
微创
讲些
神经纤维
红心
亲生
神经科
跳脱
加固
关头
长轴
碍
万英镑
倒计时
这招
递
温馨
评论员
鲁米
亨@@
pl@@
利己
aug@@
段@@
肽
憎恶
用词
Pat
畅
坏处
肺里
血液循环
生长@@
肩部
鳞@@
切实可行
预防性
信息时代
上学时
砸@@
丰盛
十四
缘由
繁殖@@
缘于
麦哲伦
半英里
低频
缆
绝迹
带尾鸽
莱纳
而今
船舵
舵
控性
te@@
弄断
巨响
肇事者
过失
开心@@
采石场
默罕
让路
盈
值得一提
软性
环视
谈判桌上
核反应
类地行星
钍
琳达
anj@@
斤
敞@@
钻孔
流氓
存储器
重新排列
痒痒
Ka@@
技工
中要
上船
缩影
僧@@
医疗@@
晓@@
出水
只能靠
被盗
茱莉亚
网友
沃土
百科
食肉动物
滑过
避难
券@@
洗牌
摄@@
极快
慎
来点
atur@@
奥德@@
Leg@@
扶贫
爱尔兰人
pa@@
琐事
调制解调器
可有可无
不止一次
特殊@@
两下
世界冠军
烹调
作假
巴马
藤蔓
匹马
弟@@
脏水
rove
一些则
歌名
玉@@
讨人@@
处罚
锑
诗里
践行
持续时间
短期内
平等@@
feld
第二张
下一场
线段
准确性
无缝
源@@
托管
培训中心
那家伙
á
膳食
寿命@@
快餐店
付不起
首府
弹药
希腊@@
朝上
忆
椅@@
试验者
伙儿
解题
一无所获
数十万
衬@@
女神像
MTV
受限于
繁杂
轻视
解救出来
充满@@
拧
星战
小玩意
增量
第九@@
寻思
说得对
哈瓦那
就地取材
他俩
保全
贝利
令人困惑
瑞德
消耗掉
流感疫苗
艾略特
警卫队
拐卖
贩子
ech
医患
出口国
砾
显现出
下决心
布拉格
胡言乱语
丙氨酸
昂
实用性
括@@
数学公式
要强
鞋带
那栋
放疗
head
卑尔根
鸟群
自然通风
抗衡
要不是
相加
打广告
一磅
依托
庇@@
契
版面
克利夫
方格
施肥
戒烟
玛雅人
内部@@
四分
比萨饼
重新分配
皮龟
生死攸关
刻度
单车
室内空气
反面@@
开学
百分之七十五
大堂
喉
问号
HAL
Tel@@
逼近
拘留
妊娠
裁定
布宜诺斯艾利斯
派别
蜂拥
背景@@
行政区
格雷格
闭合
圣坛
想像@@
惠特尼
马赛克
蹼
跳水
生生不息
馆内
双子塔
赫尔@@
多疑
心胸
美极了
各式
造者
上半
SE@@
因纽
数十亿美元
整体@@
住手
递增
吉拉
君王
卡车司机
麦金
犀利
杰里
卡罗尔
可的松
吨级
当量
躲起来
盖格
愈来愈
总署
树皮
se@@
画得
办事员
附肢
启示录
辽阔
这得
意大利语
里尔
所赐
垂
傲
诚信
看下
分泌物
缓
马拉松赛
顽@@
得快
参赛者
民主主义
瓦西里
颠簸
手柄
曲柄
滑轮
三家
黑市
生物课
纤@@
军火
忘不了
Chin@@
贫民
自然光
卫士
虐@@
沫
桡
瑞士人
绊倒
升职
重聚
三组
老生常谈
快克
ul
那群
而入
炫
双人
诺亚
顶障
箔
夹板
捆@@
购物车
有病
择
葡萄牙语
浮游植物
ery
14%
对系统
抢先
安全气囊
量身
弹跳
劲@@
叶片
把握住
乞求
发泄
醉@@
50@@
be@@
Jer@@
老年痴呆
事与愿违
招致
沙堡
菜鸟
Pi@@
民主制
梗
占卜
ush@@
千兆
时性
并肩作战
BMI
称职
异卵
沃尔夫
巴特勒
加拉加斯
艾米丽
运动鞋
印欧语
语言文字
藉此
几十万
这批
高亮
万张
难免
新闻界
发丝
芸@@
掠夺者
好孩子
最佳人选
Williams
各有不同
Cent@@
动态变化
视觉效果
Wh
胞
蓬勃
兰人
一脚
比哈尔邦
小钱
优等生
发送@@
雪球
钓鱼者
碳化物
电影明星
被访者
CSF
维生
这般
iner
高层建筑
验尸
玻璃片
陆军
货运
沙克
环形山
背心
深呼吸
打通
吸纳
济慈
冬眠
功绩
眷顾
听闻
MT@@
秉@@
堆砌
坏掉
我脑
方向感
算了吧
牙线
翻遍
华尔街日报
bie
琴键
观景台
ST
会诊
Angel@@
试剂
ZipCar
遮掩
赫希杭
雕塑园
外交@@
远高于
通感
102
政见
遗嘱
均匀分布
法治
向来
Charlie
惨案
临界点
用电器
1890
want
翻译器
符
分散化
纲领
寄托
86%
专职
烧饭
努
回升
两秒钟
anc@@
路易
Git
Ubuntu
共进午餐
耐药
每组
福利院
Licklider
卷饼
amb@@
两辆车
吸引住
落下来
Natalie
百万英镑
格拉斯哥
芭芭拉
早早
Lang@@
澳@@
Im@@
回荡
分贝
蒙蔽
剪过
新罕布什尔州
根端
公平正义
代步
球手
天资
一任
躺椅
双年展
舞蹈演员
过渡@@
火药
橄榄
洪
残渣
阿德里安
T20
工作坊
芭@@
阁下
浮夸
鲨@@
鯨
涓流
Oli@@
呼吸道
招工
Geoff
华雷斯
Da
自慰
金赛
水槽
贝多
调料
失事
内含
撒丁岛
三維
暴发
Shreddies
伍夫德
马蹄
结了婚
本子
安瑞科
亨廷顿
克罗
戈尔迪
Rita
挪威人
催泪瓦斯
气孔
无味
奇数
犯罪集团
蒿
AAA
坦人
萨曼莎
No@@
嘉吉
卡拉扬
Lagos
基恩
LHC
口感
一党制
Alex@@
Li@@
孩之宝
Jamie
JO
石墙
Bell
雅人
听诊器
数千万
酒神
脑岛
Aveling
压舱物
关键期
食人族
奎因
Row
哈士奇
Fermi
水媒
王五
Nathaniel
施虐
蒂华纳
预产期
字格
DemocracyOS
▪
呐@@
Dre
Urhahn
Hany
LSST
goro
隐私权
法伊
操作台
安理会
泰坦尼克
票房
涨潮
三英里
化学合成
沸水
剧毒
捏造
狗屎
谓
免得
联邦快递
零到
之火
最高层
煽@@
并肩
别国
经济总量
韩
象限
要教
用做
取其@@
公有
孤零零
其所
教学方式
独创性
IPCC
学界
干的事
时间尺度
机舱
大餐
放映@@
执导
维和部队
顾忌
各种类型
奇幻
外祖母
斯塔尔
刺青
贯通
二分法
Gen@@
打消
正中
个人身份
鱼子酱
烦扰
道夫
煤渣
吱
普遍现象
一块钱
百元
自省
召
组人
觉性
按揭
立法者
际
十六
阿波@@
管弦乐队
多半
乐此不疲
音乐创作
读一读
一盏
每根
规避
所愿
西蒙@@
实用价值
首演
混响
摇滚音乐
哥特式
风琴
佳
斯卡
大喊大叫
经验@@
Ross
大调
第八
爵士@@
乔普林
迪斯科
Del@@
gar@@
Jon
发烧
聋
登堡
ough
洋溢
中出
经常出现
风光
耻@@
贴出
密密麻麻
六角
80@@
负面@@
合影
信天翁
误认为
生动物
玛丽亚
人力物力
诸神
迦@@
消费市场
ith@@
帆布@@
牛羊
加水
城邦
维持@@
相互之间
托邦
概念性
想做到
水汽
肥沃
rig@@
拥
悄@@
Wil@@
ional
发展史
山中
全心投入
薄板
灼伤
难以忍受
往复
植根于
百慕大
南太平洋
春季
虎鲸
厄尔
如图
乔恩
艾尔@@
肆意
麻疹
武装冲突
满分
遗落
har
Post@@
Sec@@
za
信箱
杰伊
关上门
搞不清楚
招呼
诊室
一个九岁
两腿
舱门
小腿
重置
武装力量
沉沉
誓言
教父
搓
抹布
一盒
牺牲@@
妒@@
赚大钱
无偿
说好
埋头
您们
分明
初始状态
衷@@
硕
听不@@
任何理由
拒绝@@
些@@
离世
这正
物价
26%
处理@@
薄弱
滞
露头角
ECX
分级
照搬
网吧
推开
几百次
寄宿
他本
丢进
放错
主妇
千方百计
上班@@
争
敷@@
恳求
课外
彪@@
定式
贬@@
运动场
下楼
过夜
凯瑟琳
退去
建得
营救
多产
五六个
阅览室
色彩@@
进制
幢
兴致
剧目
一出
建个
直入
上风
在表面上
情理
增值
投机
基因突变
爹
泳
勺
飞艇
晶
羽@@
惧
改正
旧有
深爱
中写
语言学
没读
四五年
一捆
软管
非常@@
那般
材料科学
常在
连网
沿途
受限制
探索频道
戏弄
第五次
挂钩
朦胧
支持系统
上场
找份
上万
动脑筋
麦当娜
缴纳
地球村
Palm
任务@@
忽悠
锁住
World
押韵
过上
院校
Jose
学分
101
职工
我放
昏
神来
死定了
诚恳
刚过去
侯
妹
荣格
学派
等不及
两句话
流汗
这倒
意指
完美@@
佛罗伦萨
韦
生物工程
格兰德
铁杆
母校
考古学
愈来愈多
奥托
苏斯
肖@@
人物@@
中画
朵
首歌曲
献上
之眼
高声
惠特克
ie@@
合作项目
密闭
威尔@@
飞出
外行星
调查员
谷地
彭@@
继承@@
彼岸
芒@@
晚礼服
掏@@
略带
常会
亢奋
二百@@
囚@@
委员
七次
深藏
哀伤
蓝草
个面
99.9%
曲率
显微
效果图
虚拟空间
两根
一瞥
受约束
ni@@
BM
珍珠港
两国@@
演习
令人高兴
航天局
武
Hall
东南
脊梁
Doug
不得而知
ans
困在
选好
暖和
带状
悼念
追忆
五名
Fis@@
酷似
yr@@
滞@@
杯@@
DDT
喇叭@@
跌落
不难@@
很多@@
分部
负有
楼去
手电筒
爬楼梯
朵@@
肥皂泡
鉴@@
行李箱
零散
缄默
标榜
执迷
旅行@@
高耸
凳子
颚骨
徒手
另个
特别@@
瓦伦西亚
印刷术
荧光灯
眼罩
鱼缸
一连
更是如此
在思想上
某次
出书
磨灭
层高
连锁店
多利
匹
驼
美洲@@
一两次
克隆@@
史努比
普罗
克里斯蒂娜
蹄
规划@@
推车
苏黎世
动态@@
四类
风险@@
马尔科
交融
月经周期
身患
切除术
滚轮
登机
简介
第二部
邀
Hol@@
可要
俯身
Ur@@
冠军赛
将会用
花生@@
肉食
每公斤
格格不入
网上@@
礼拜@@
定为
当回事
You@@
竞选活动
车票
一个零
不动@@
熙@@
撰@@
改掉
精确性
52%
115
亿磅
从无到有
评选
蓬@@
楼顶
胡图族
毛毯
越南人
而建
七万
天前
游乐园
过学
砂岩
口腔
三岁时
反观
搜罗
驱车
这面
准确无误
×
替换成
集合体
拖走
榨取
兴趣@@
幸福生活
逍@@
核子
水泡
旧约
泼
无可避免
anda
手镯
女权运动
Sak@@
女权
笑笑
司空见惯
马其顿
发起@@
术士
天主@@
忧心
Sir@@
释义
普罗@@
旺@@
私人生活
之窗
广播@@
故事会
一贫如洗
负起
之三
受益者
Coach
1941
别克
暴君
一空
开战
显出
代人
卒
大英博物馆
马杜克
遂
Kle@@
互相学习
戴夫
有悖
工薪阶层
受雇
黑暗时代
光泽
钻进去
可见光
主要@@
孩提时代
通宵
养家
消遣
乱画
涵
罚@@
旦
歪@@
醋
长篇
两万@@
日报
摊@@
灰暗
真挚
发送给
伯克
言表
珀@@
北极@@
思潮
棺材
集体行动
责任@@
广播电台
社会制度
畜牧
酬劳
粘合剂
惠普
Sen@@
绘制地图
TEDx@@
契@@
凝视着
霸
反例
甄选
人大
杀伤力
提高效率
压垮
武装@@
女童
整场
暗箱
追查
奴隶制度
豪斯
共同行动
半空
他时
帅@@
书桌上
女病人
柯密特
一整块
得到许可
阴性
无中生有
创作力
童年时期
取决
孩提
太平@@
名符其实
同步@@
侃
长河
莲@@
彷@@
就学
狮
原始人
Ol@@
org@@
纠错
全在
宾语
照镜子
高速路
旧石器时代
科研@@
gen@@
回流
慌@@
歌唱@@
擅@@
诈
巴纳
跨文化
诺贝尔和平奖
寄出
艾哈迈德
民间组织
拉尼
胶卷
触目惊心
过期
植
出击
流行歌曲
单曲
由衷
圣巴巴拉
加利福尼亚大学
不可逾越
航空学
气象站
旁观
重物
踏出
铸成
驾驶@@
17000
骨盆
AP
1700
克里斯蒂
拍出
Gri@@
橱柜
浇铸
焚@@
腹腔
大动脉
保持稳定
心室
阀
反转
过关
职人员
日益增长
电子邮箱
佣金
观性
畜牧业
普锐斯
金鱼
不难想象
米饭
仿效
Fr@@
皱
上头
用乐高
块儿
ink
任天堂
木棍
凄@@
茨@@
杰拉德
汉普顿
正门
Me
议院
收费站
一字@@
恍@@
启动资金
严重威胁
肥胖@@
亲眼看见
the@@
地下@@
工业区
后备箱
迎头赶上
深蓝
斑斓
梅根
抓起
跑车
密苏里州
烹@@
创业精神
举起手来
留言@@
邻居们
太瓦
单单在
孤岛
静谧
尘世
一盏灯
活不下去
各种@@
理睬
说个
那要
结构图
现实情况
排行
初创
萨瑟兰
肘
零花钱
爆米花
榜@@
1919
取向
发掘出
博主
Ray@@
微生物学
政治学
Dean
Howard
旅店
ys
Georg@@
原汁原味
对角线
毫无关系
临死
碑@@
迂回
圆满
哈佛商学院
隐匿
查理@@
电子表格
Bot
急剧下降
陵
斯皮尔伯格
琥珀
密谋
归为
先祖
胡迪
博诺
ady
卡上
诺夫
衍生@@
不管是谁
书架
一个圈
小木屋
味蕾
饥渴
菌落
喜不喜欢
消化道
人以
河豚
往南
招待
辛勤
助者
说得好
婚姻@@
美国中央情报局
弗吉尼亚州
情报局
一时间
花花公子
迟缓
弗里@@
抢劫@@
韦伯
中年人
转瞬即逝
带点
抑制@@
僵@@
帕金森@@
光来
机动性
自由落体
Ge@@
玩个
驼@@
剃
周后
抚育
系鞋带
蒙羞
梭利
时分
造势
募资
发展壮大
row
后门
为所欲为
服务商
ame
就会用
Linked@@
rop@@
不惜
何况
丑恶
无礼
处女@@
园地
wood
黄石公园
美籍
中才
整栋
皇后区
音乐剧
盛装
重燃
坑@@
洼
阿尔巴尼亚
董事
撤掉
一个样
告示
水量
正站
丝绸之路
蓝绿色
实事求是
吉普
主题@@
倒转
高中@@
二次@@
当今社会
主动性
连续@@
不耐烦
问个问题
数学课程
多多
械
利维坦
触摸屏
CIA
老掉牙
冒险@@
之远
名将
市镇
全国上下
几号
延
吉尔伯特
尼罗河
Bor@@
堆积如山
阿萨
夷@@
爱荷华州
温顺
新能源
罢
猿@@
看不清楚
围住
检
特异
xic@@
igg@@
捕到
马匹
引致
折断
碳酸盐
第二段
On@@
Yves
Byr@@
航天@@
Ip@@
通勤
止住
十五个
早有
救护
ited
搏
哈弗
威廉斯
西德
矫@@
主播
必胜
游行示威
我病
电视广告
优惠券
永远都是
影星
服装@@
宅@@
二十五万
创办人
一升
2100
矮人
身体@@
兴建
07
藏有
鼎
uck@@
扫兴
缝纫
停用
税收@@
有家
繁华
致密
赶出去
Steven
接见
填埋
面包皮
种植园
驯化
分不清
滨
民族@@
跟踪调查
圣诞@@
饮酒
肉体上
不提
Helvetica
Dra@@
俄语
时事
不乏
Gr@@
布兰
早点
拉丁@@
崇@@
强弱
半点
槌
节课
音域
良药
木琴
千变万化
完全同意
拍击
木块
共舞
成一团
播放@@
精准度
丧气
舞步
Van
Allen
排入
极易
代理商
一百万美元
人命
卖点
飞向
摇摇欲坠
难于
纪念@@
刀片
老套
坡道
削
Ban@@
东北@@
变数
政治性
脸蛋
足球赛
后现代
窟
两百五十
每一处
较差
能起
£
年满
历史背景
一派
腐败问题
坦然
爱国
残余
甚微
精神状态
乔伊@@
凌乱
特兰
噩@@
会否
五大
表达形式
视频剪辑
软体
烧瓶
虾@@
讲演者
天文数字
值得一提的是
麻醉@@
价值体系
葆
一心@@
损失@@
油门
车速
综合@@
血清
汞
医药行业
酿成
长链
加一点
计数器
再长
修辞
定势
Man@@
接连
海默
在我心中
一餐
维克
正午
我录
珍藏
公墓
wit@@
歇@@
船体
轨@@
炼
U盘
阿帕@@
刺痛
给钱
事事
身分
灯笼
太有
谎话
垂直轴
折服
一去@@
合著
计量@@
用个
弗莱@@
天王星
这道
皇帝
瞧不起
要造
GA
海洋环境
系统对
诗是
开通
桌旁
溜走
炽热
悄悄地
洗碗
搅动
弹道
洞中
引力波
佩奇
PR
使唤
从今@@
铺上
罩@@
绷紧
乎@@
相斥
妙不可言
堆起来
花去
适度
菊@@
妖魔化
代谢率
正确@@
果园
爽@@
凡人
几段
高浓度
系里
控制组
国家卫生研究院
数百万美元
61
Fit@@
今时
拿给
鬼脸
刷子
毒贩
那点
鼓声
非同凡响
池@@
醋@@
一英寸
大块头
甜味
钟情
良方
yf@@
蚯蚓
卤@@
脱贫
BS
侦察
升空
纯属
单是
第一例
这三项
交换@@
小型化
验
安康
盟
卡拉奇
之爱
地要
23%
拉索
虫类
加加林
历险记
浑然@@
社工
重重@@
号称
Mit@@
项@@
勺子
细腻
接收@@
时日
制做
你够
螺丝
标尺
采取任何
圣地
不可逆转
重合
提出@@
须要
奄奄一息
缅因州
作恶
筑巢
扛着
胸怀
数天
阿兹@@
平面@@
溃疡
重新启动
感到痛苦
意外事故
扁平
结束语
行踪
希腊语
愈加
挑出来
get
里亚
酸性
ph
CS@@
明胶
原处
块状
提了
斥
性状
快地
悬而未决
聚集地
协奏曲
默默无闻
人于
参加者
疟@@
部落社会
看不起
佩服
美国式
看个
高品质
人肉
应尽
奥斯威@@
寝@@
留存
情绪@@
伊利诺伊州
往里面
一千次
腓@@
雄心壮志
忏悔
罪过
清教徒
摩登
矿区
Brand
两句
颤
三秒
斜率
讨价还价
ance
天主教堂
笼统
保留@@
那组
故土
不离
现实主义者
核查
交易员
给定
财团
键入
心理疾病
细心
小手
几名
梯
报上
普林斯顿大学
计算机系统
免不了
故去
药用
势不可挡
支撑@@
汽车业
换上
一面@@
杏树
邮寄
最富
格勒
爱慕
Geo@@
权威@@
哥伦比亚@@
Goog@@
人马
南希
掘
橡树
臀
膏
awa
Matt
看一遍
Tipper
闸门
图灵
erd@@
改用
详
off
橙汁
匀称
乒乓@@
弹出来
踱步
皱眉
槛
自由贸易
近似
17%
颌骨
疮@@
病毒传播
卷土重来
图姆
解决不了
订出
末尾
明日
沉闷
操心
身躯
载人
鲁斯
委任
查明
app
本地化
五美元
租车
赔@@
大吉
不齐
天方夜谭
归宿
修道院
对外部
失掉
认知科学
钟形
一一@@
广泛传播
仔@@
自杀@@
动弹
改变@@
Lif@@
MoMA
ius
ind@@
包罗万象
尝到
名列前茅
天翻地覆
主权国家
恢复@@
解剖学家
鸟瞰
滥伐
项圈
偷听
惨淡
锥体
最小化
钟摆
飞逝
干枯
女工
认识一下
Jacqu@@
惠
喝点
模糊不清
轰然
五月@@
专科
好心
内建
图像处理
药效
年长者
全称
动能
太重
机电
战区
操作员
假日
钢笔
All@@
犯罪@@
Clar@@
Net@@
wor@@
西门子
LC
照常
纳特
火器
坚韧不拔
cel@@
诞辰
本次
画里
被关
克兰
隐居
腹侧
演化出
黏稠
始终@@
烧录
iTunes
新版
猫王
道格拉斯
iti
一大步
原样
野狗
看中
生下
没变
事务@@
电池@@
家族史
图文
蓝藻
百倍
犹太教徒
印度@@
平生
悲剧性
链子
大陆@@
秋
光秃秃
石油输出
万桶
一万亿美元
ens
粮
投出
RC
翻看
吓唬
污点
本体
伦敦@@
经济收益
景气
很坏
应答
几千次
哈维
航空线
明尼苏达州
天气@@
预报
触感
道而@@
冗长
油腻
化学性质
油箱
ct@@
uc@@
如此这般
4.5
乳液
能省
掉落
Technologies
ire@@
打头
咒骂
努力做到
爱尔兰共和军
先辈
福特汽车公司
几米
届时
Dawkins
原体
集成电路
改名
越野车
马尔萨斯
得着
十万个
闪光灯
几百万个
手语
一地
母乳
小猩猩
筑
树下
驳
深受@@
穿刺
中空
海绵状
僵尸
相悖
常识性
尽责
赛尔
腕
热线
讶异
然大@@
劈
象牙塔
生物力学
静力
纤维@@
充血
螺旋状
时说
43%
皮肤癌
有助
病发
先谈
狗会
条狗
岳母
几部
神秘@@
摆着
记下来
脸红
表示@@
te
身手
没落
Edw@@
手头上
袖@@
国境
骚动
Green
Christopher
论派
拘捕
流水线
med
人口爆炸
集思广益
奥兹
嘶@@
调谐
拨通
央@@
从何
群集
冰封
Inst@@
匹萨
五月份
写照
逾越
赦
多巴哥
出面
共振
会响
光谱学
泼@@
铂
霉素
氨@@
接电话
刻着
岛国
自然力
块冰
ona
噩耗
狂躁
高高的
平板@@
制片
思维@@
可夫
密集型
不择@@
击倒
一车
调低
算盘
神仙
当权
置身事外
卡通@@
泰米尔@@
萌@@
写文章
魅@@
Pop@@
第一道
一百多
舰队
脱水
唱起
个儿
Seymour
ert
阻
风俗
-&
ier@@
食指
柠檬汁
双相
右臂
Act@@
帕斯卡尔
惶@@
入迷
激
手心
扑克
抓到
高频
红桃
這@@
沉船
坤
这算
皇
儒@@
筋@@
滚石
真真
ings
清扫
降级
哈哈哈
巴拉
波洛克
电磁@@
荒地
霸王龙
一见
科技含量
仁爱之心
亚特
无妨
水瓶
脚上
件物品
同仁
政治犯
程序化
两片
暗室
畅想
互信
硝@@
概念车
商业区
生活空间
家电
奉行
自我调节
光镜
光度
Sinclair
勾
绝对@@
万分之一
石碑
主宰者
核裂变
复杂化
电力@@
款人
捐赠人
开药
Wii
美国黑人
煎@@
7500
顺利进行
罗瑞亚
细分
巴尼
企业@@
Bernoulli
人买
估值
要往
爆炸事件
Grey
腐化
社区活动
继
消费品
啤酒厂
战斗@@
球拍
先试
Kenn@@
控制室
我谈
解放@@
库存
老大哥
蜜莉
不试
淘@@
基础性
远超
关税
找些
企及
随机性
博尔德
卡恩
茅@@
泥巴
眉@@
妈咪
拎
袜
叹
走了
眶
康奈尔大学
顷@@
血汗
不太会
围坐在
下边
禽
突起物
上浮
ali
3200
发狂
Ecosia
低脂
钱来
重犯
救灾
网络结构
前列
创造性地
不尽然
信以为真
罗莎
医学博士
畅游
药物@@
sha
朋友家
大杂烩
外公
NC
高额
十次
伤亡人数
inda
Brown
丙烷
溪@@
没得
他乡
幸运儿
爱河
四处@@
跨出
Kr@@
求助于
联觉
PowerPoint
吉布@@
双面
赌场
黄金分割
数列
旦@@
居于
伊曼纽尔
达芙妮
Talk
波利@@
原动力
发给你
大人物
葛兰丁
训
稍加
字样
组别
PSA
工作狂
组员
座舱
大大减少
从上到下
平行线
rom
信使
把门
梨
听者
黄鳍
TO@@
蜕皮
放生
众神
少得
昼夜
项目@@
老龄
机动@@
right
勘测
萝
甲醛
十五万
哪一天
隐士
法律条文
民间@@
冰雹
淤@@
出版物
巫师
叶绿@@
进化@@
詹@@
糖类
卡尔@@
实体化
拱形
零年
主机
雕刻家
茂
恢复健康
信托
扮
之于
檀香山
泳池
充盈
吃不@@
Mull@@
勋章
提前@@
联合国安理会
卢顿
骨质
颅@@
人见
颗牙
白垩纪
来教
三篇
娜@@
面包车
冶@@
峡湾
海带
博伊@@
割下来
嘴边
加利福
炸死
那比
或非
亿次
持平
插手
戴森
商用
经济繁荣
泰德
神学
耳语
滑坡
恶棍
游猎
核扩散
袭击者
浓缩铀
透光
挚友
地以
惯@@
阅@@
Harry
听信
内贾德
年末
任何时刻
频度
阈值
总指挥
兄弟会
焦虑症
强迫症
win
ound@@
船运
清新
回头@@
睡眠不足
电话会议
智囊团
成群结队
AY
砌
凉快
散开
埃塞克斯
奥拉
周边@@
瓦片
裁剪
ATM
另一台
控告
贷@@
兼有
SC@@
恨不得
Kha@@
人身@@
合伙
格林维尔
华尔兹
小猫咪
富集
镇长
维利
移入
裂痕
克里斯托弗
旧时
账@@
赤裸裸
纳什
感觉器官
情绪反应
剧烈地
级联
狂野
斯卡@@
候鸟
人体实验
黄热病
四时
Apache
Fund
几样
监视器
天文台
吸虫
三千万
od
萃
不放
eck@@
铲
动容
后勤
暴民
emy
炒作
非同@@
货真价实
塞巴斯蒂安
引以为豪
Mak@@
我建
神学家
日日
无几
企@@
家时
传真机
没劲
ment
风景@@
吮吸
烟尘
SD
动漫
稠
Jill
定型
地壳
读数
蛤
分文
陋@@
非正规
清晰度
图谱
拟@@
斯瓦尔
分门别类
牵
我时
厨艺
毗荼
焰
雄狮
莫测
它闻
福特@@
换句话
arrett
沙沙声
变速器
加尔
基准线
符@@
英语单词
学习外语
周内
挠@@
微风
喊叫
无处
亲历
颁奖仪式
收视
平息
雏菊
响应@@
浓郁
掉队
肃@@
左方
扎尔
Kir@@
长跑
碧翠@@
几步
Ford
冰晶
竹制
茁壮成长
椰子树
Ker@@
干掉
汤玛斯
更令
三百五十
外行
DMCA
附生植物
树顶
CBS
纸牌
被触
四十年代
渔
散居
立方米
侵@@
Sou@@
降生
图林
地道
860
海员
谨
导管
木卫二
探测仪
推进@@
deo
用户名
孵@@
示威者
惊慌失措
切入点
半身
置之不理
Kin@@
购买者
嗅@@
里夫
模拟出
小号
uba
阿訇
ROD
木料
牟利
沙眼
难点
总动员
资本@@
习性
密不可分
库里蒂巴
城墙
重伤
景仰
复习
演讲@@
算数
题为
脓@@
存者
讲义
所致
Lot@@
商议
颤动
治疗仪
深部
档案@@
访@@
吸毒者
外显
缸体
橘
世事
Adams
Reb@@
新闻业
正对着
水力发电
核电
石棉
断掉
品牌形象
出版@@
分散@@
ld@@
明媚
打高尔夫
进取
嘲@@
义诊
呼吸机
绝顶聪明
富勒
司法部长
象牙海岸
特立尼达@@
ü
审计
Gene
法宝
zy
ats
多英里
优
苏菲
正方
停机坪
摩诃
罗摩
毗
福地
丑化
血迹
之树
红杉树
懊悔
执拗
0.2%
甚者
罗夫
不出所料
器件
攻击@@
zo@@
音频文件
纽约城
支持性
规划者
联合国教科文组织
伤脑筋
睪
血块
水缸
打破@@
ARES
铉
图森
几内亚
助推器
荧光@@
针尖
LO@@
肚皮
梦里
第二语言
马斯特
示警
幼苗
笛手
球车
JPL
亲眼见到
趋化因子
rick
外部环境
共同完成
JN
蜂拥而至
污辱
梅洛
管线
电子商务
索菲亚
寡妇
格莱布
灭蚊
情报系统
爸妈
检核
噗鲁
互补
虎鲨
凯蒂
蒸发@@
单板
马利
呜噜
ok
条码
乐烧
捕鱼业
鹓
鷉
无色
可变性
斯蒂文森
雨滴
睫毛
邂逅
土层
决策权
第二轮
鹰嘴豆
蓝区
安德烈
跳高
供选择
坏蛋
恋尸癖
巴托克
衣橱
独眼
外来@@
Vas@@
超导
同一性
瓜分
妇女儿童
计划署
辱骂
感慨
丛里
肯尼斯
扭力
专用@@
呼出
Sylvia
装箱
eber
玛姬
借款
理发
未接
拉玛
长吻
扫射
习得@@
制度化
昆士兰州
Altos
赝@@
危险@@
like
第四代
易怒
ˎ
吉祥
丽蓓卡
编码器
米格
拉勒米堡
苏人
纳人
家教
牌照
髖
印刷版
红薯
陨坑
蛭石
Verizon
伊迪
Sue
平权
偏振光
Pleo
罚金
李飞飞
钥
friend
男青年
海达
集中度
汤娅
专用道
唵
堂吉诃德
rr@@
咪
尤塞恩
弓虫
慎独
穆罕
穆德
饵
上上下下
栖
北纬
五英里
消化系统
百事可乐
镭射
高清晰
催
不前
如是
专横
地玩
掰
没意思
欲强
偷偷摸摸
动因
更差
不灵
没门
无可厚非
Sci@@
一大早
睁眼
国与国
挤进
教育经费
大幅@@
深刻印象
始终如一
云集
二烯
回形针
飞行高度
摘要
挥动
地读
应有尽有
立竿见影
不衰
阻挠
悉心
涉猎
分界
姑姑
褶@@
双亲
踪
米尔德
弗兰@@
邻居家
龟@@
水污染
平安@@
彩排
独奏
疏水
弧@@
175
疏
吸附
弄湿
抗菌
烫@@
五金
证券
较弱
摁
中去
脑瘫
鹰@@
荧屏
特别强调
Bre@@
音响系统
ge
CB@@
卡内基音乐厅
一清二楚
塔利
锦上添花
咏叹调
悄悄@@
交响曲
法兰克
舞厅
嘻
音响@@
谣@@
ound
Wh@@
ide
Atten@@
茂盛
评语
下床
一厢情愿
疗伤
非常感激
闲聊
我醒
慕尼黑
小心谨慎
记在心
沸@@
无人居住
沉入
幼鸟
狭@@
地球日
佩德罗
织成
一百万倍
新月@@
路况
发动战争
Bill@@
星期日
超级市场
买回来
闻闻
Amb@@
脱口而出
冬日
安睡
迅猛发展
征集
冲浪者
这太@@
帕罗
述@@
袖
航向
局部@@
先决条件
罗斯海
四季
热带@@
管理制度
钩@@
雄伟
在你看来
公私
火种
六次
炎@@
这比@@
IS
每户
前年
出品
新篇章
声势
邮
附体
年少时
例行
朝下
耽@@
着陆时
按计划
屈辱
审议
军士
低层次
压在
摘录
小店
铺开
不为
申请@@
呗
第七个
喝牛奶
飞离
推算
方程组
收听到
几何@@
若要
临终@@
关系@@
人际@@
反复无常
瞠目结舌
食品安全
丰收
暴跌
运回
收据
2.7
上铺
笨@@
用图表
37%
19%
之苦
呼吸困难
熬
接过
越低
鹤
增高
速度慢
每一刻
好日子
化为@@
小儿子
路亚
不断更新
习惯性
赞歌
到哪去
工时
赶着
大一
快车
战车
操场上
新一轮
金沙萨
客户群
台风
三十万
幸
纳尔
缅@@
表面温度
高楼大厦
泰晤士河
缓冲区
宜@@
理性主义
稍候
没动
受力
樱@@
幕前
新房子
这幢
380
话虽如此
递进
奥布里
永存
您好
每十年
擦肩而过
气馁
激奋
尔巴
1961
址
台面
电热@@
我记
拉巴
记述
事宜
饶恕
真让人
闪着
中仅
十几@@
手握着
设有
传播速度
焊接
科特迪瓦
缆线
探视
焊
盖上
贡献者
致意
度大
指点
为证
两层楼
边走边@@
发微博
把玩
易用
启
只卖
对话@@
顺序排列
Pil@@
插件
enter
阿尔戈
FM
电源插座
宏
not
ust
手可@@
edman
Gh@@
Sco@@
Mitchell
Mill@@
Ak@@
答题
中以
左下方
帖子
标准差
休斯敦
宿醉
弦@@
当众
搭讪
很惨
指指点点
小精灵
非常灵活
煎
尽善尽美
抗焦虑
身衣
艺术史
名画
吉尼斯
天马行空
史学家
臆@@
贤@@
广泛@@
织
Vir@@
oir
Project
185
73
预留
旋风
棘
佩
贴心
出自于
主办
鲁宾
金森
恒河
火源
原始@@
四射
arty
新视角
第三类
传宗接代
欢
有性
全无
润
占有@@
只顾
莫奈
每棵
刑犯
单调乏味
罗比
RM
这不像
面图
切割机
烯@@
苯乙烯
斯科
运载@@
军备竞赛
丈@@
再往
探险队
新西@@
IMAX
平地
良机
栓@@
虚
Tod@@
瘫
思念
连到
那股
横扫
一惊
大个
芳香化
女性化
PJ@@
替代物
蛋壳
先天性
传播者
窃
Sand@@
连系
生育@@
穿孔
品牌@@
遛
下着@@
一个二维
悔恨
优先级
肤
不买
夹杂着
对焦
野营
惬意
印迹
身上下
沃兹
惠@@
电脑公司
拉尔夫
安上
PO
放些
商业价值
尼葛洛庞
OLPC
固
Fi
四日
克里斯@@
勤劳
假腿
日间
实习生
借出
课室
腾出
装点
529
这书
书会
怪事
对外开放
仿照
五金店
升降机
Sharon
辛辛那提
西斯科
劳力
斯马
刺入
舞动
瓦尔迪
完整@@
浸
圈养
Rezero
雄辩
四十岁
片中
放射学
华盛顿邮报
结缔组织
隆隆
核物理学家
内科
突显
摘除
灶
般@@
重审
慢性病
支笔
共通点
投影机
手部
有声
延误
Pranav
哑@@
摇摇
Gloria
徒步旅行
称量
不菲
江
就餐
每人每年
低点
农业用地
van
cel
Dick@@
MD
代表团
切斯
衍@@
值得@@
脑残
大头@@
总统@@
足足有
负有责任
崩盘
入境
对劲
郎@@
大家族
登场
严肃性
稿人
噬菌体
管理机构
闲暇
副总裁
业者
纳塔@@
防火
纸制
买票
用性
神户
刚过
送来
来建
烟消云散
苏门答腊
斯科@@
隔板
川@@
十分高兴
建设@@
分道扬镳
倦怠
专属
荷马
之意
向东
帘
新纪元
翩翩起舞
笃
细细@@
遛狗
午休
两杯
上床睡觉
太短
健身@@
傻傻的
无法回答
仗
滕
假货
捣毁
回教
今生
喃@@
耸耸肩
bor
爱国主义
Leah
炼金@@
写歌
吟
每片
巴尔干半岛
四分五裂
路旁
公诸@@
Eleanor
Roo@@
rin
神情
第一排
往下掉
盲点
发回
我思
ass
头来
无垠
村里人
全额
毫无希望
性虐待
每笔
iphone
产业@@
ods
日以继夜
吕@@
零钱
山寨
不值
大姐
足智多谋
楔@@
1879
俘虏
鲁士
强盛
可真
530
1917
旨意
建国
卫者
柯克
求得
etty
飞走
吃光
百威
变糟
Zappos
能过
独立宣言
互不
缠身
用场
花招
这株
这花
植株
植物学家
腐肉
芋
塞特
挥发性
沾满
变形@@
巴塞尔
墙纸
务实
传奇@@
浦
广告商
度过难关
会后
发行量
A4
斯克
耶维奇
我办
反腐败
耳聋
怀里
柱状图
调皮
仙女座
亮相
潜藏着
脉络
乳齿
税款
新教
揣@@
与其说
观感
不如说
克制
SU@@
illa
科夫
萨德
倒台
安保
摄影记者
洲际
共产主义者
拉达
穆加贝
投票站
安全部
发笑
萨莉
渐变
迷你@@
枕@@
好几种
视觉皮质
编译
认不出来
取材于
妃
励@@
拴@@
雷区
湖区
多只
萨拉姆
要试
不坏
十五岁
脑瘤
笼罩着
别管
桂@@
突发事件
疆@@
阅读器
连系起来
Elliott
米兰达
真实感
薪@@
脏话
述性
Crimer
癌@@
情操
不良反应
恢复力
von
Carlton
一眨眼
这么@@
冰河时期
冰下
堪
降水
一块块
向北
湿润
北极圈
实地考察
塔克
录音室
灯塔
陶器
不一
联合国@@
北约
普什图
滞留
官方语言
足球比赛
卜拉@@
保龄球
喀拉拉邦
劝@@
不争
药剂师
高音
固态
锌
某地
埃德@@
一丁点儿
单枪匹马
伯恩
慎重
回程
比例@@
曳
鼓捣
腿骨
Haw@@
爵
真品
#
塞克斯
库克
蚀@@
缩水
执
分离@@
心肺
pper
知识@@
在精神上
电话亭
分配@@
联系@@
审美观
修理@@
屁
产业化
朱
普林@@
菠菜
微波炉
几百英里
存亡
ubb@@
毛孔
相当@@
大展
益智
已近
循规蹈矩
ions
un
上移
新潮
阿尔茨海默氏症
独
游戏@@
我管
社论
复古
特长
进餐
海明威
好多好多
唧
密西西比@@
时宜
来画
罗森
女主角
纲
东河
废水处理
Point
好久
缴
枪杀
ette
Ni@@
高薪
替代@@
Katrina
第九
居民区
绩
饭后
别误会
小三角
数码科技
口头上
买车
故事书
四百年
冉@@
行话
偷运
偷来
洗衣@@
新技能
Harriet
房主
St
Lou@@
揭秘
错乱
族裔
室@@
Jones
每幅
美国陆军
斯伯格
发号施令
英式
吼叫
有能
滴答@@
堆积@@
借记卡
举些
坞
月初
公平竞争
三思@@
9.@@
人脉
Mid@@
古典主义
蛰
墓穴
阿伯@@
既然如此
拼贴
lin
尤为重要
救济@@
附于
墨守成规
六维
输送@@
退休年龄
干活儿
幼小
吸血
六千五百
尔森
玩弄
惊愕
网络工具
Gaga
两本书
以备
上加
菲兹
莉斯
事发
接住
回肠
无节制
体表
传输@@
芽孢
魁@@
鱼雷
日程@@
卜@@
5500
疗养
鱼鳍
散射
哈马斯
黑熊
主题公园
拍摄@@
牢牢地
处女膜
搜查
盲文
读者@@
肯尼
误判
床垫
棒球队
神经质
持久性
分水岭
万亿个
开去
网络系统
靶细胞
车灯
所在位置
休眠
兆头
蓝灯
周边环境
iger
跳下
黎@@
飞行@@
遮盖
如出一辙
何谓
时光@@
刮胡子
怀中
候选者
校方
刺进
搬出
成功人士
走远
给予帮助
愿不愿意
乞讨
Met@@
Napster
BT
Grand
门票
录音带
头目
截获
加密@@
无懈可击
家居
hoo
一如既往
俗气
yd@@
联合国总部
xon
往昔
09
三段
杜邦
往上走
取水
填入
缪尔
地衣
填充物
哈得逊
倒影
一千两
丰富@@
第一站
落成
浑然天成
独舞
超长
点半
一齐
千多
帘@@
接待@@
贿
国政府
云朵
凸起
一滴水
储水
自治@@
纯正
槽@@
奈
多姿多彩
大众传媒
仰
und
工学院
漠@@
口才
重新学习
遵照
妞
dum
堕胎
创新型
推向市场
硕@@
三至
噗
刺杀
老鼠@@
麦克默
不安分
跑遍
麦乐
彭
科迪
骡子
燃气
储备@@
增产
超群
若干年
kana
牙签
挖掘出
马拉@@
夹杂
悉@@
没过多久
雷斯
一万八千
寿
之长
拆卸
篱
竹
绵@@
筋
小块
块@@
ical
hig@@
穆雷
脚踏车
违
我爱@@
新闻周刊
褶
长途旅行
SO@@
剪下来
硅藻
寒武纪
一时期
PH值
分子@@
五千万
十一
飞回
Win@@
oko
十三
Nancy
究@@
听得
无人问津
47%
除颤
CP@@
Hatzalah
希伯来语
一有
相配
事能
TEDMED
侠
危
亿五千万
工业生产
网格蛋白
出差
抵抗运动
抢占
示威游行
居住区
漠视
数最多
酱@@
要害
相传
竖立
体力劳动
萃取
斯托尔
Mil@@
蔬@@
kie
Frankie
过瘾
第一项
竞相
传染@@
ES
多棒
锐减
三四年
人活
变性人
Eli@@
城市居民
再建
ville
区里
八条
土地@@
ring
rot@@
车窗
2200
PMTCT
预
忌@@
晒干
广度
平缓
我常@@
杀菌
来种
消费量
渣@@
一线希望
圣徒
报仇
绝症
保暖
布洛克
比人
生养
恐怖电影
扬长@@
惑不解
传输数据
浅色
董@@
弥漫着
最弱
一两
艾里克
赎@@
绑匪
甘
时用
Fa@@
强加在
机车
该用
靓丽
管弦乐团
轻柔
议论
带回去
累累
呼吸@@
跃跃欲试
演练
两架
咦
兴高采烈
US@@
美奖
背负着
暂时性
要慢
十米
39@@
本世纪末
常现象
犹豫不决
百分之六
1812
王后
学术@@
alk
穿鞋
安葬
臭味
完全免费
客房
订婚
过些
逻辑性
右上方
Oldenburg
鳞
Chi@@
肚
丸@@
瑞士军刀
dio
Jas@@
废旧
巴塞罗那
尼卡
穿插
货船
Eis@@
朴@@
浮宫
曲面
垂直于
哗
超时
立面
酒店@@
百货
anz@@
警力
碧@@
昧@@
那州
有把握
年数
乡村@@
政策@@
私人化
计划@@
耳熟能详
早些
石斧
醒@@
做工
异域
犯罪行为
修正案
一而再
再而三
脑癌
输赢
尽其所能
拦
伴有
星云
满月
形似
徽标
四维空间
符号化
千克
1955
细看
石英
每处
右眼
气化
布莱克
关灯
霎@@
顺风
尺长
全盘
弄懂
尼古丁
编程@@
凑巧
可及
别想
粉刺
事故@@
明智之举
1915
开刀
配额
捷
法拉利
达拉
达到@@
每所
规章制度
Cra@@
单股
拍成电影
Dougl@@
ree
附上
附在
十七
校正
责骂
出事
礼服
White
ander
博科
Kal@@
卓别林
ug
第一类
更想
从技术上
驱除
更佳
执教
尊崇
队列
马甲
德摩
秤
数百次
前才
踪@@
有多远
祝你们
白大褂
昔日
褒@@
打喷嚏
CERN
颗卫星
科学性
1.4
矮@@
萨根
强盗
远些
农地
样样
再活
健忘
缪@@
住址
圭
钓
易燃
如是说
浪漫主义
抒@@
枪手
繁星
传言
静止不动
难听
Reed
颤音
荫@@
庇
训练场
形象化
两处
千五百
右转
交叉@@
便成
蒙在鼓里
真实@@
张表
确是
躁@@
走下坡路
控诉
淡淡的
避
数学分析
伯顿
芒
弗格森
预言@@
不觉
小黑点
暴徒
很怪
旅行社
架起
贾科梅
pro@@
纤细
公升
水份
氧化
吸水
衣着
除草
自私自利
漂白
生物群
反作用
打开门
蝇@@
减到
十九
光灯
白炽灯
贯彻
再生资源
零售店
七八年
航空航天
此书
一团@@
ung
一万倍
大脑神经
好多@@
现正
一元
力争上游
捉住
我造
立方英尺
Gold@@
房价
回归@@
甲壳虫乐队
火球
巫术
挑起
逃难
丽斯
黯淡
光鲜
指派
奇思妙想
禁闭
未成年人
成年期
蚕@@
刻录
截面
火炉
暴食
三餐
释然
在技术上
割据
采集者
两岸
机油
为时已晚
一两件
非但
合意
容易接受
同时代
不屈不挠
吐出来
光闪闪
鞠躬
扛
母爱
第四步
律性
唯物主义
疗@@
心病
美利坚合众国
根治
出示
这匹马
骑马
临床医学
进修
蒸
加压
菜谱
酿@@
诺贝尔@@
爱德
调用
静静的
眼花缭乱
甩开
赞美诗
弯弯@@
心弦
起跑线
想不通
数百名
行之有效
找来
周期@@
屋檐下
亚地区
任一
爷爷奶奶
中人
毛绒@@
宰杀
退伍
灵顿
祥@@
无踪
斯皮
磨练
危急
发怒
感情@@
不妙
恩斯
侍者
阁@@
赎罪券
沧桑
摇摇@@
鲁瑟
仁兄
乱跑
谐@@
装扮
cho
别去
box
依附
灵活@@
方法论
金融时报
道琼斯
到老
高瞻远瞩
构成威胁
与此相反
hr@@
之以@@
奋起
大大小小
数学方法
如实
倍受
经常性
这出
礼品
重于
付诸实施
提供@@
格曼
开拍
黛@@
地笑
我来举
值得称赞
电气工程
引荐
戴维@@
沦丧
稿子
黄金时代
供暖
聪慧
Rich@@
彻夜@@
出动
大力支持
格兰
静电
11%
电脑软件
Techn@@
oogle
Share
物竞天择
轮奸
自卫
Jac@@
唇膏
惴@@
Moham@@
ska
高深
大千世界
很早以前
焊@@
阴极射线管
一簇
数据处理
风机
氢弹
下象棋
Internet
讣告
达克
这车
唐
sling
毕生精力
go@@
细微差别
布鲁塞尔
伊博语
有袋
个个
端倪
溃@@
子宫@@
短命
几万年
索伦
贻@@
十秒
爱乐乐团
喊出来
马德@@
经济模型
四项
一百二十
正正
由此看来
钱花
之书
放在@@
3600
小王子
剧中
00
流浪者
蕴@@
诱导性
失败率
合成物
氏症
鞋店
Vioxx
耳熟
用车
之少
具体化
满载
你会用
盘算
正题
匿@@
别无他法
恼怒
不留
不难理解
语言表达
永恒不变
昏过去
不折不扣
420
动脉@@
la
防毒面具
Law@@
xe
ger@@
说来话长
berto
正弦@@
夜夜
赶超
接踵而来
还长
染色@@
ifi
1938
艾利克
到头
里加
十六个
唇@@
掺@@
帕金森
斑马
基加利
以人@@
特雷门琴
控制不了
多张
万无一失
眼皮@@
互
卷尾猴
正对
称此
真该
制化
医学中心
药师
救治
大革命
轻巧
足部
调解
钢缆
LE@@
科幻电影
Blo@@
DARwIn
脐@@
矩
杯赛
奖杯
挑战赛
潦@@
书房
机器人学
商业性
地牢
编写@@
Ser@@
ex@@
Buck@@
奔驰
重中之重
用脚
纸箱
绿屏
卡拉@@
整间
节律
广州
帮到
白光
例外情况
每一分
要钱
1926
先要
熟练工人
伊娃
不善
培养@@
游离
成倍增长
uk
Connections
一伙
AMD
出版业
XML
七年级
吧台
满满@@
克里斯蒂安
征途
冻死
腌
小路
潮水
av
背井离乡
脚注
致命性
一年@@
更易
och@@
法律顾问
血脉
砂纸
营养成分
田里
达米亚
渊源
款待
大鱼
杉@@
异形
症@@
地处
白化
航空母舰
换算
股权
叠纪
斯堡
小便
眼皮
第八@@
二等
不证
自明
大局
投资商
睡前
向外看
略过
对齐
应用@@
交互方式
苏格拉底
长线
处事
顽皮
塌
怀揣
决策制定
默契
不在@@
扭动
前当
诱惑@@
洛克希德
锈@@
内嵌
赴@@
痴@@
二年
增加@@
威望
噱头
一九八@@
超链接
虚拟化
pedia
anga
计划书
馈赠
ada
捂住
八种
合剂
籽@@
榜首
圭@@
旺加
曾孙
Shin@@
萌芽
紧急状况
土壤@@
宇宙射线
寒冬
爬坡
教我如何
CR@@
计算机行业
5.5
打听
Surf@@
自动识别
地会
整片
诚挚
心知肚明
霸占
家养
安得森
采集器
犯过
轴突
离子通道
劣质
一窥
牌中
研
自认
没道理
Hend@@
吐出
功能障碍
致死率
经过培训
交通灯
唾@@
依我@@
孔洞
店主
亚美@@
政治立场
霍加
聚居地
英俊
朴素
大衣
领子
ye
扁
扩散@@
环保局
aya
搞怪
风潮
查到
未成年
六十岁
用此
活检
膳
美餐
专业分工
石墨
脑里
射电
带电
砰砰
1914
遮蔽
利奥@@
所剩
费尔@@
爪@@
成全
爱斯基摩
放射性物质
福岛
四米
喋@@
软糖
学步
肖邦
摘掉
限速
闯@@
有何@@
帕特里克
Maddie
富强
派驻
外交部长
极低
一卷
苹果机
多月
loyd
光谱@@
未解
阿尔法
不明@@
亚州
蝶@@
钻机
嗜好
长谈
酒瓶
该病
下船
航程
冰架
时起
凋@@
仙境
指挥棒
布隆
安德
盯@@
上尉
不屈
蠢货
拼错
镜框
一两天
翻了一番
戳@@
占星术
上放上
耿@@
地游
地窖
我游
趁机
突发奇想
喝彩
嘭
教育部门
Log@@
oll
皮埃尔
过活
欧内斯特
梅尔沃德
16000
便携式
一千万年
多家
刹那
足类
Vent@@
信息流
朋@@
之势
渐进式
葫芦
算计
跟得上
选个
後@@
將
點
們
五张
前天
记笔记
令人难忘
棚@@
布景
Henry
经济援助
DI
看管
ign
储物@@
来开
幼蚁
只活
玻璃瓶
漂在
柏林墙
办理
晚点
几下
退回去
巴拉巴
辣椒
离心机
福斯特
操纵者
摆出
奔腾
立体@@
于人
阿喀琉斯
对视
海蒂
惊悚
电化学
蔽@@
莱尔
少数@@
歧义
术@@
深色
修长
逼供
犯了@@
手纸
诚如
简报
量分析
鞋底
路网
保护主义
誓@@
从这一点
Kim
粘液
疾病@@
分析仪
测仪
无名@@
着色
漆黑一片
在所难免
千亿美元
不计@@
无限期
花卉
当新
PT
爬出来
再进一步
纳米管
mo
我长
利益集团
从图
大富翁
袜队
祈@@
张照
航路
Don@@
宣
落叶
每家每户
顿饭
精疲力尽
铁磁
稳健
武器装备
技术员
渐进
半圆
多些
调查者
胖子
Go@@
0.1%
玲珑
救火@@
自然规律
太精彩
弗莱
十分明确
少不了
梯度
优越感
免疫力
税后
min@@
上万个
二极
发光管
补液
常量
加个
亿条
Dav@@
拥有权
下调
无碳
第一款
om
那当
耗油量
选美
游遍
轮船
司令部
见证者
Super@@
its
ect
Stack
Overflow
路可@@
朱蒂
3.8
送货@@
主编
公交车站
下半叶
机身
机尾
消磨
上半身
瞪@@
印第安纳
机智
觉着
之年
给你个
车门
开过
岔
车队
Chev@@
雪佛兰
让开
巴人
心理变态
叔@@
反战
兄妹
中士
风气
训诫
Nex@@
预料之中
五周
蹦出
二百万
归因于
盟国
骷@@
一劫
流行性
H1N1
相形见绌
飞回来
鸡皮疙瘩
诋毁
苦痛
互通
上作
ht@@
PJ
宣战
沉睡
表示歉意
远超过
五六十年代
浏览@@
een
公众形象
Jane
扮演者
真假
真是假
ole
豪
pH
多边形
五百个
深有@@
Bro@@
基底
推入
弹弓
民俗
种姓
此病
第二套
疾
睡梦中
警笛
游刃有余
机枪
抽样
教学方法
惠更斯
联合体
多米
就诊
年华
防盗@@
Bou@@
砖头
拉克
卡斯
万里
纳多
重振
气坏
兑现
节育
法拉
跋@@
参与@@
公投
人人@@
移出
飞进
国库
远胜
修行
尼姑
鱼油
ieg@@
词根
讨论会
不大一样
Ratan
各界
现代科学
Ac@@
Give
mouse
比夫
论辩
磋商
Alan
言外之意
纬
海象
海鸥
埃迪
新开
软件程序
从大
莫斯
天桥
上端
型机
挑战者
Morgan
熔炉
同等@@
嘟@@
第三层
亲密关系
夜班
打卡
柔性
麻醉药
氚
带电粒子
不相上下
敏感话题
青草
受伤害
Des@@
维特
多克
致以
相同之处
最终目标
均@@
妥善@@
串连
塑胶
痴
一枪
ti
Jack@@
稀松
流离
巍@@
手续费
补丁
总体规划
涌来
伯克利分校
糅合
演算
投资银行
Mal@@
Anth@@
Ali
ple
uz@@
外交部
撤
中等教育
实际操作
尖刺
雷克斯
余辉
凯尔
斯巴达
某某
争强好胜
提供援助
亦然
砍倒
尖牙
刺伤
濒死
心无@@
卫生学
声调
声谱
犁@@
动静
无所作为
增速
家庭收入
待命
线下
推选
反对派
撰
预制
揽
作成
胜地
中年男子
梅尔@@
印地@@
教案
图画书
敬仰
工钱
KIPP
那该
毒蛇
格罗@@
淘金
乞丐
预案
活命
记录在案
俄克拉荷马
击溃
全部内容
并立
上报
老头
拒稿
几幅
out
熏
Aut@@
ull
yb@@
堪萨斯城
决策层
五人
放假
跨界
拉宾
自欺欺人
火烈鸟
黑暗面
到家
变热
酒会
可选
危机@@
恰巧是
用心@@
奥林匹克运动会
前十
追踪@@
装入
昼
效忠
偏狭
保守主义
躯
京@@
直角
两头
求爱
玛萨瑞
挣点
花边
转给
Vis@@
教唆
麦金@@
求求
搞懂
拟定
4Shbab
大牌
伯纳德
Emily
人体炸弹
图书@@
那能
路人
盗用
诬@@
爱德华@@
艾琳
上刻
食动物
保丽龙
遗留@@
皮耶罗
斯塔
四大
着头
澎湃
大气@@
Card
灾后
副标题
个人观点
阿桑特
Julius
小兵
扣动
哄@@
大发雷霆
攀
喝醉
麦肯锡
Shar@@
pe
满面
扔给
汉娜
听讲
一家@@
应聘
丽娜
击碎
带个
工夫
取用
廊
陆
樊建川
活跃分子
水坝
粉尘
古印度
迎
Global
凌驾于
恰如其分
观测@@
极权主义
毫不费力
下坡
详述
军阀
小分队
扑灭
电视屏幕
冈@@
强尼
沒有
存留
Kurzweil
奇葩
一丝@@
丈
回音
管理学
驱
顺理成章
忽略不计
电话公司
多才多艺
狮子王
耀着
幕布
心血@@
兄@@
不可救药
区内
第三年
公益@@
栽@@
Okapi
斯瓦希里
民兵
专政
万平方公里
入海
四代
ota
hu@@
ikrma
欢快
出勤率
胡闹
ison
周转
466@@
卫生部
帕蒂
乳头
郁金香
怪圈
有理
卑劣
教职
重播
文字游戏
发人深省
北极点
风和@@
詹森
毕业典礼
离散
琥珀色
价格低廉
微软公司
Beno@@
光片
育出
组织培养
添
方针
糕
小聪明
热切地
Der@@
adema
张望
涉水
嘶
自嘲
五条
Lau@@
兑换
一帧
Java
慢镜头
暗暗
德雷克
起搏器
牵挂
Allan
从桥
米开朗基罗
Fab@@
赫斯
韵
尺高
随风
思科
阻隔
发射台
令人生畏
良久
Jen@@
洋洋
麦克斯
考博林
运费
嵌入式
电解@@
维茨
稀疏
甜度
几千人
粘稠
食品行业
情谊
精神病人
Hotmail
高级官员
不成比例
航站楼
谋取
燥@@
亲眼所见
课时
野人
解散
戴曼君
君@@
尼日尔
近似于
Franc@@
妆
代言人
冰原
雪层
冰柱
跳上
添置
煤气
马累
锋面
黄金@@
平克
举手@@
氏族
杰里米
run@@
公共关系
胜诉
生日蛋糕
租金
成功@@
无穷大
欣@@
圈内
考得
揪@@
300%
马蒂厄
救生员
无花果
唧筒
音色
太空行走
出过
探头
撤销
惊险
不费吹灰之力
小得多
打赢
海特
恕
长毛
射精
肌肉组织
bi@@
小报
Cont@@
打过
抓拍
少之又少
煽动
炉灶
讽
稀
神创论
想不起来
中庭
廉洁
钱会
点着
日用品
腹地
Swaptree
声名狼藉
种植者
尽其@@
看护人
拉客
天上掉
得少
多巴
有所改善
辅@@
水枪
传教
58@@
科学依据
跳板
dit
徒步走
吠
闲话
bs
损@@
横空出世
人气
各就各位
难者
对决
霍普金斯大学
心肌梗@@
嘟嘟
电磁脉冲
委
荒漠
前夕
无线@@
ase
查员
热端
Dum@@
彬@@
第十
chie
臭虫
踩扁
Hard@@
打滚
公民自由
玩火
贫富
我們
Seva
Autodesk
波尔@@
亡@@
通用电气
水泥@@
omi
两条@@
soup
pay
can
斯曼
逐出
史蒂@@
防守
课堂@@
梦游
荒
采水
殊@@
派克
爱意
柯伊伯
一早
科斯
永
氧量
卡利亚
左面
58%
炙热
最烂
睡袋
预科
攻击者
剖析
癖
女医生
久久
陆空
绵
辛劳
奎师
通融
咬牙切齿
纷繁
一千只
三句
雨后春笋
四人
泊车
阿尔托
蛔虫
佩恩
分散式
远东地区
麦田
库尔德
里教
石灰
异见
钽
类植物
向后看
华而不实
刷成
超高
跟进
青蒿素
几年来
对战
迥然不同
撞倒
rez
一听
体验@@
想试
Girl@@
密西@@
观众群
我常想
核辐射
Philip
布朗@@
登记@@
大堡礁
钩针
王国里
出窍
燕
供氧
憋气
我动
elia
生活态度
聚在
扰@@
太后
马路上
韩语
指掌
德曼
歧途
lol
BO
不疑
形容词
套路
新旧
消减
大脑皮质
取缔
Sergey
＋
皮肤科
匹斯堡
硝酸盐
下岗
腋下
投票率
男一女
想像到
衣柜
斟酌
着陆器
太早
牵强
想学
十六年
那夜
替罪羊
迈特
砍滥伐
米特
均衡论
会话
55%
AG
碳汇
受访
听课
TB
刚果河
经营@@
Preity
Zinta
细长
气垫
idge
悦耳
数英里
纵容
创客
初等教育
慌张
91%
战机
小节
布兰登
1903
DSM
装疯
无可否认
社会活动家
百叶窗
张嘴
比做
远古时代
姬@@
载有
松饼
伊斯梅尔
莫比
十位
格里尔
泡泡糖
Zullinger
南卡罗来纳州
电视信号
26@@
星期三
38@@
fission
放糖
基辅
堆芯
瓷@@
价格下降
听话
残肢
Tendai
不足@@
冷链
窑@@
列出来
奴隶主
108
水垢
彷
女强人
poo@@
毁容
付诸于
正巧
放射线
逆时针
几万
二十位
煮食
油滴
无性繁殖
血红蛋白
交接
拷打
牵手
ombe
暴政
办事处
McC@@
丹娜
Rag@@
一档
冲绳
伙@@
拉回来
反其@@
墙中洞
触控板
殷歌丽
部族
癌变
嘘@@
五层
躁狂
乌兹@@
洛伊@@
公开课
耶林克
雷利
广告人
拼字游戏
导盲犬
Yo
napot
萨尔瓦多
葱
积雪草
牧羊
心动@@
口才好
假臂
保鲜
Interval
Research
经验主义
婆罗门
锡克
Kun@@
行当
抗力
存储量
截瘫
国际舞台
sters
Instagram
哈马
蒸蒸日上
解决@@
查理二世
小片
rh@@
技师
250000
情书
克莱因
Moog
调制
脑壳
风化
莱利
蒙大拿州
纸板盒
偶数
社会工作
梁@@
酌情处理
贩毒集团
哥伦比亚省
他成
酒后
专门化
黑寡妇
延展性
gaga
guga
影印
诺姆
哧
咪@@
『
』
凶杀案
玛氏
哈德@@
花哨
嘲鸟
Brunel
叭
玫
都还没
此药
平民@@
胆囊
全球@@
莫名
下回
手感
药汁
贿@@
公狗
isch
Rust@@
Lyn@@
NIN@@
美尔
涂尔干
拴
圣神
IGF
马茨
Popcorn
绕圈
河沿
汽车旅馆
通量
磁片
Whirlwind
Winky
Dink
瞬息万变
佑
Leahy
口足
鞍状物
Dizzy
Quin@@
实验鼠
镭射光
循证
穴居人
宇航@@
乐透彩
hh@@
遮眼
再落
长假
脱脂剂
格林斯潘
分泌@@
Carrillo
Hannah
代用
相变
糖丸
绒布
戈林
ESSEX
苏族
松岭
膝河
ibuprofen
整容
密码子
阿波菲
菲利斯
MAS
汪汪
面筋
Schlaug
Skid
记分@@
橡皮艇
哑剧
专业人才
边境@@
Nyota
Oshea
ImageNet
烤面包片
彼特
执政党
NRK
Frates
亨德尔
布鲁纳
引产
小写字母
impac@@
节操
Slick
ESPN
吉福兹
眼洞
婚恋
斯人
Tamara
盐生
晚接
蒂沃
Y2K
Mobile
普鲁@@
探索之旅
伸张
向右转
阿尔卑@@
杰森
影象
出彩
六七十年代
热浪
真没想到
阿尔卑斯山
钳
冒出
钳子
幸运@@
垫底
经济合作与发展组织
败涂地
凭空@@
红木
死记硬背
螺丝@@
苛
太坏
摆布
社会秩序
总以为
酣@@
淋漓
更优
星星@@
吃个
望而@@
标的
里学
均等
刀切
好书
往右
幼时
照本宣科
条规
雨林中
百条
扫描器
止痛剂
说书人
道德规范
躁动
西卡
彻夜
西德@@
投稿
结交
相继
正道
弱化
凯恩
短视
猜得到
瞥见
岳父
姨@@
锦标赛
渗水
造福@@
粗细
紧抓
老虎@@
拉长
持着
小弊
蒙混
替品
眼见
同侪
冠以
就业@@
阿伯
平均工资
百亿
统称
塑型
合奏
促
吊灯
撩@@
琴弦
别看
预告片
首映
恰是
呜呜
呀@@
原封不动
传声
算不算
In
嚷嚷
序曲
马勒
发扬光大
急促
千百万
痘
懦@@
创口
悔@@
莫及
热诚
和平时期
回收率
死亡@@
施瓦@@
贩
塑料包装
攻打
军事化
发臭
紧要
描绘成
露面
茅屋
逃避@@
乙烯
独立性
新鲜感
小鹿
复制出
卡德
执业
喷火
吃点
紫
脱氧@@
洗碗机
粉饰
摄影家
创设
蔚蓝
风情
管辖@@
近海
参
数百人
安在
疹@@
全然不同
阳
儿歌
步维艰
无处@@
访问量
素不相识
生母
这堆
幸亏
融进
开交
流到
空无一人
回首往事
谢拉
裸
机灵
北卡罗
飞机场
门边
但他却
冲击力
装甲
指挥@@
视频会议
倒置
领导层
新婚
卖东西
mi
霹@@
己有
那可真
昭示
千百万年
冲出
由人
预料@@
躲过
茅斯
喜马拉雅山脉
做买卖
粮食产量
资金不足
毛钱
创新力
催生出
卖家
大兵
扑面而来
吵醒
午睡
小妹妹
无意间
删掉
妹@@
波波
麻风病
收件@@
劳动成果
依此类推
重头
聚餐
难事
无价
密斯
知识经济
高产出
数着
课外@@
联合行动
考试@@
独立思考
开得
料想到
领导@@
跨入
忙忙碌碌
壁球
催促
分秒@@
天际线
吉斯
遇害
拱@@
能效
洼@@
百分之七
良性循环
冷藏@@
停尸@@
热岛
暑
分钱
杜威
无语
就此打住
选址
时代华纳
飞机@@
我加
半段
尽量@@
变高
老年学
老年@@
败仗
基本知识
活多久
先于
逸@@
半分钟
地称
碰过
小老鼠
老年病
学士
进水
扎入
手时
由水
牦牛
最起码
湖底
筋疲力尽
安详
猫腻
汁机
斯塔克
开胃菜
胁迫
能助
来换
计画
茁壮
走向世界
勾起
见过面
里斯本
船边
生而@@
完全彻底
客体
统一性
听器
太漂亮
尔盖
终究会
需要的话
成河
旁听
宕@@
回收@@
awkins
独享
财
iss@@
每回
双曲线
耽搁
词源
ood
随随便便
左上方
马克@@
苟同
arch
前男友
静下来
不入
瓦萨里
门窗
成竹
衍射
拉斐尔
真迹
鉴赏
醍醐灌顶
北加州
帕斯
叩@@
荆@@
生与死
索求
陪伴着
地图@@
Lin@@
近点
水星
薄雾
预测@@
厚实
出游
死不@@
每到
重逢
正经事
刺激@@
崔@@
性趣
母性
花八门
俏皮
情趣
矛盾@@
肩负
睬
私
前戏
困于
持续上升
奥勒
前一@@
无数@@
随意性
管弦@@
层叠
实体@@
无穷尽
帷幕
长足@@
沃克
珠穆朗玛
冰布
突袭
呼吸器
过低
鸦@@
防腐剂
唑
八千万
美国参议院
两栖@@
只得
指挥部
婴孩
救救
却成
空空
卡森
用水量
瓶装水
糕@@
入口处
前因后果
分清
岔路
纱@@
我待
放好
夸大其@@
格兰特
联手
旷野
自立
尔多
摇曳
文主义
天来
不同@@
取个
原创性
调换
灯具
新体验
内而外
不凡
供货@@
而能
每人每天
隔音
里装
桌椅
好多个
直说
这店
披
秉持
纪元
此间
官僚@@
动物体
现代医学
杂交种
出能
保护局
瓜尔
电脑芯片
相连接
展示@@
夸
误诊
硝烟
换代
胶布
欢欣鼓舞
稿件
簇@@
刀子
度空间
登机@@
打印@@
赞助者
要价
杂技
鞭子
镰@@
泊
直射
调大
半月板
整形外科
震器
半乳糖
Gal@@
监督@@
鲜
蟹@@
胭脂红
公吨
生产成本
相媲美
辨认出来
点缀
参会者
杜绝
相互依赖
波诺
年限
恶搞
至今已有
叫绝
阴暗面
宇
营中
工地
源性
供职
德罗
弱智
恼人
直击
墙板
排量
卫生纸
这长
克赖@@
古猿
稀缺@@
古人类
车位
这么一来
癫痫病
右面
橘红色
那个游戏
赖于
去取
缜密
视点
尽兴
立足
很妙
静修
秋千
小山
没带
迪斯@@
平衡性
估
齐聚一堂
痛打
打发
宇宙观
读写能力
风中
斯洛文@@
首饰
颜六色
几百名
忍无可忍
包着
笛@@
僻
村长
兮兮
浮肿
条文
屡见不鲜
赶下台
申诉
莞
做客
无言以对
文不值
手艺
刚满
风靡
lie
萨沙
劫
器皿
达到高潮
娴熟
嘱咐
杰弗@@
慕@@
其上
印有
新生@@
无止尽
渔人
隙
学期@@
法来
放满
泄气
搜救
早于
医学期刊
摘自
但别
跟随者
奖得主
南部非洲
逾@@
百位
早日
烦事
模仿@@
粘到
雄蕊
摘下来
紫外光
太忙
济@@
冲走
巡回@@
地涂
太不@@
坐垫
壑
放逐
自个儿
拔掉
出戏
写得
字迹
李尔王
基尼
新闻自由
概况
米洛舍维奇
西服
索罗斯
商业机构
鲍里斯
筒@@
杯水车薪
公益事业
爱恋
多好
果冻
想干什么
飘浮
辐射状
古城
射入
度角
第一辆
咆哮
奥林匹@@
变幻
原文
不计
权人
宪@@
合资
台式机
简要地
聊起
例举
公共资源
点对点
水晶球
卡扎菲
马德里
深重
投币
坐立不安
揭晓
得救
近在咫尺
洛夫
战败
通通
犹太@@
陡@@
可以信赖
经济体制
病毒@@
西塞罗
不大@@
手帕
浮在
诶
手风琴
车来
特化
行销
某类
灵敏@@
爆炸物
十一岁
时限
精神失常
找遍
溺@@
偶发事件
第一页
漫无目的
可供使用
十点
褪去
颂歌
奖章
心理准备
Jam@@
嗤之以鼻
追根溯源
碰壁
双份
火辣
资历
某一方面
深深@@
先回到
秘书长
阿鲁@@
布隆迪
队里
小儿麻痹
杯水
壤
异同
成批
全靠
车中
紧紧@@
可口可乐公司
降幅
十八个
更多
乏
宏观世界
化学键
自旋
北岸
随波逐流
将会@@
整段
起立
欢呼雀跃
攻陷
椎骨
拍卖行
附有
铸
光面
抛光
射光
蹊跷
塑像
盒里
正常@@
心脏外科
词条
留情
女性朋友
邮政
珉
权威机构
培训@@
这瓶
运输业
摄入量
能见度
禽@@
胡萝卜@@
莉娅
桔子
圣诞礼物
萝卜
土豆@@
燕麦
高脂肪
正义@@
食用@@
奈米
感观
拼图游戏
锻@@
插画
脚踏
膜拜
磕
头等舱
题外话
廉@@
耻
索托
古埃及
神圣不可
辗转
车赛
卷进
埃德加
野草
unt@@
引号
大型@@
日益严重
挣到
早饭
上而下
炭疽
王者
罗萨
做人
管们
求职@@
电扇
作出贡献
银幕
小女儿
焕然一新
悬空
吉桑尼
基本技能
抓住机会
倚@@
测量方法
爱看
徒劳@@
离异
爱达荷州
曲棍球
变少
管理模式
柯林斯
好时光
小绿@@
木棒
正处
汽油价格
负值
慎@@
康奈@@
最低@@
假思索
ML
寡
票价
坊
历来
记事
快餐@@
日食
致盲
取证
abb@@
论不休
相吻合
rew
出格
国税局
赫本
掌上
同期
向量
拾起
瞅
运出
适龄
略有
回巢
斯蒂@@
钻个
立方
柔韧
这离
始祖鸟
感知@@
柯勒律治
第一印象
光阴
黛德丽
礼品店
过火
影射
巴勒斯
广告公司
埋伏
十六世纪
青豆
续
因人而异
娱乐性
罗德里@@
奥兰多
迦
艾莎
迟疑
体格
水坑
ein
克罗恩
粪@@
老派
内分泌@@
喝完
嗑
腰围
尼斯@@
比目鱼
蒙特利
远洋
迭戈
察@@
自助餐厅
再花
居家
鲼
动地
文字@@
黄铜
犯有
盖里
抓捕
千次
对光
百次
巴甫洛夫
而久之
呆滞
蛮力
这新
利用光
低空
特技表演
必定会
口令
脸皮
监
成绩单
般地
守法
西区
晴朗
套房
墨尔本
无线网
门铃
写手
卡巴
翻录
募款
无济于事
地爱上
偶遇
制图@@
莫里
基岩
豆类
南瓜
想作
塞利
土著居民
柳树
充裕
依存
提着
第二届
真心@@
黑衣
踢腿
好几百
偶然间
行动计划
重大@@
拆毁
生意人
风雨
腐败现象
无益
斜
萨科@@
好过
水平面
引水
先人
黑名单
芬芳
米尔@@
汲@@
子弟
展开讨论
高清晰度
显露出来
藐视
盎然
懵@@
公共设施
革新者
公立
特拉@@
醉心于
勇往直前
交道
第一课
发行@@
海军@@
第七@@
桑德斯
意式
餐饮@@
小伙伴
记不住
罗宾逊
口技
计时器
驯服
进口@@
者之间
得克@@
泥沙
霍普金斯
蒸馏
盼望着
湖中
格鲁吉亚
侏儒
浪费资源
昙花一现
公寓楼
满地
经年累月
毫@@
柔
编纂者
抑
大网
猬
这词
活物
去数
藏书
词汇量
在结构上
无毒
排成@@
触须
行装
宣传册
摩天楼
此行
展区
狠
广告行业
光影
亚利桑@@
艾克斯
肯尼迪航天中心
着陆@@
档@@
屑@@
颜
值班
摘下
及时@@
隐形眼镜
验光师
转运
动画师
测试版
灭顶之灾
只字@@
予@@
韦德
阿比
莱昂
防弹@@
婴儿床
指甲油
桶子
写字@@
老人家
瞧@@
会造
种菜
疆
安居
提高@@
开始@@
城乡
合乎
健康长寿
干系
顺手
迹斑斑
前后@@
抓走
免费@@
在线@@
男同性恋
性交易
光点
几层
隐约
光电
公交@@
转站
水渠
私人@@
自卑
携
相去@@
病毒检测
银行帐户
服务体系
讳
食物残渣
供应@@
需求量
没上
蹄@@
北卡罗莱纳州
认真@@
算进去
张网
立志
鄙视
醉醺醺
美貌
婚姻关系
千条
放纵
总体上
法国@@
沙坑
欣然
私刑
堂皇
ó
受灾
追上
西面
说时
打击乐
好于
糟糕透顶
雷声
包袱
具体地说
煞费苦心
合为一体
湿气
纸上谈兵
就别
沉默@@
国家航空航天局
芯
多快
经济损失
气候系统
胡威立
侯@@
戒掉
停泊
大浪
差分
时工
并行@@
里森
憋@@
营养素
炊事
婆家
醉鬼
梅林达
坑式
喷嘴
扯掉
da@@
子里
获得@@
挨
放肆
开窗
佣@@
纳河
受罚
太好
政治学家
新罕布什尔
缅因
预见性
契诃夫
秘@@
译成
普世@@
排骨
画框
风景画
萧@@
匠人
实用@@
延绵
珠宝店
公民@@
梭罗
宪
尽力而为
结合体
计算机病毒
几吨
排满
发着
撞击到
甲壳类
整容手术
抗抑郁剂
遥望
加快@@
大大@@
叹息
多用
长龙
实习@@
验血
维修队
首要任务
双翅
加工@@
粘性
整日
梦想家
对话会
我装
白种
无敌
爱用
杀案
胆小
斯宾@@
莓
逃到
糖衣
干洗店
水果@@
受骗@@
拉远
限量
大肠杆菌
小瓶
肖像画
科伦坡
打垮
沃尔特斯
信任感
时之需
发送信息
盐湖城
改道
离心@@
制药厂
送达
舰@@
见多@@
市场机制
私人关系
何必
反方
酬
钝@@
旁人
含糊不清
洛里
绝无仅有
含糊
秃头
瞳孔
网络时代
洪流
表态
漠然
怪不得
心脏科
多斯
动荡不安
封存
得够
海港
网子
獭
出点
名堂
诗中
渔村
突如其来
心满意足
阿尔伯特
战壕
炮火
普鲁士
坍缩
掉进去
猛烈地
要数
供血
冷却系统
沉醉@@
罗伦
撞毁
蝠
库拉
善终
蛀@@
位点
派发
磐
数亿美元
地理信息
说一说
尽如人意
便秘
柠檬@@
哪些@@
汉伯特
零点
半途
即时@@
里奇
多米尼克
生根
侵权行为
得奖
香榭丽@@
四张
贴满
聚乙烯
摄氏
采收
风干
第一周
匠@@
稻米
精心制作
踏板
咯咯
第五天
帐单
体恤衫
热器
使用寿命
本金
电是
缩放
其余部分
灶@@
转轴
接触@@
孤独症
收发
飞出去
正有
批评者
住房问题
极差
根茎
纺织厂
法尔
暴力@@
慈祥
视同仁
通晓
使出
猛地
起名叫
车是
航运
冗@@
低速
体积小
评为
冗余
飞涨
安第斯山脉
拾荒者
穴@@
勇
桌球
寄养
母乳喂养
起名
抽走
蚀刻
着落
百万种
婴儿期
完美无缺
组织性
极短
时间@@
评测
蚕丝
桑蚕
惊叹不已
制作方法
可降解
酵@@
替@@
屋内
体重@@
南北@@
还债
暗含
碍事
信仰@@
麦加
辛勤工作
大打折扣
潭
公正性
截屏
施密特
比伯
闭关
矮小
当过
用大
流露出
长足
贵得
老去
Ok@@
ano
髋@@
这中
过用
很浓
未知数
矿山
黑烟
泡沫@@
ua
试问
对半@@
苗
烤炉
灶台
火里
袖珍
胶状物
膨@@
胀@@
功能强大
传下来
布赖恩
自学成才
严肃@@
无精打采
击球
舞曲
地理学家
切割@@
娱乐界
无路
头雾水
知情权
符合条件
游牧@@
态势
說
鲜明对比
变差
福尔@@
马林
子集
灾民
若能
爱不@@
英伦
难产
垂死
无完@@
前无古人
计较
被选为
忿@@
巨幅
潘
飘然
大胡子
打个招呼
小胡子
四层
掩护
塑胶@@
来读
秘密@@
移交
广大@@
收敛
相投
博文
９
情报部门
恶梦
会计@@
高越
纵坐标
波斯湾
笼@@
络
电表
汇率
殉@@
卡萨布兰卡
读出来
眨@@
冷落
送货
沙发@@
界人士
复制到
脑筋
右半
开怀大笑
滚开
肃然起敬
感谢@@
灵魂深处
尔巴@@
玛丽莲梦
布劳恩
创建者
有句名言
盼望
大学@@
英语老师
曼语
美式@@
望而却步
油灯
有电
盏灯
采光
零排放
邀请@@
鱼肉
邮政@@
斯多@@
独居
没钱
芳香
花盆
缺乏症
朝天
平复
ies
自我陶醉
登台
关系密切
国情咨文
装得
所见所闻
妮塔
莉亚
送命
离家出走
盖房子
警察@@
女郎
阿尔贝托
歌星
诺贝尔文学奖
巾
钟上
兰登
入场@@
核试验
加法
莱布尼@@
计算机所
电子器件
那群人
输入@@
千赫
机器@@
第一颗
很丑
第三位
钢铁@@
手拿着
喷头
又称
肉食性
身前
借此机会
撕咬
滴血
必然结果
茂密
键@@
清清楚楚
躬
十三个
阿特
怀疑@@
做点事
达沃斯
€
果效
刚果人
细细
彰
暗自
放风筝
劳埃德
视听
多端
超脱
授精
踏步
冻人症
记录仪
肝细胞
大号
世纪@@
究其
踊@@
四十万
作呕
租给
巴斯@@
格森
腻
听来
幸灾乐祸
盖楼
胁@@
即逝
生理反应
形图
高频率
指示器
娘
成像@@
邪教
预警系统
测者
用人
家庭影院
inger
手袋
粗浅
相距甚远
设计界
特立独行
新品
扩音器
法拉@@
玻璃纤维
小菜一碟
大跃进
动听
输给
国家主权
领先@@
崎岖不平
恶果
霸主
第一节
高尔@@
羟色胺
斧@@
湖水
耐受性
操作者
雪人
实践者
先有
多酷
锥
磁悬浮
圆锥
种颜色
徒弟
橡胶@@
表面张力
空位
铅笔画
乞@@
力马扎罗山
陡坡
百万吨
作对
越近
拿个
呜@@
哲
霍利
吸取@@
提款机
市集
完全符合
次贷
诊治
超音波
积水
第二样
威尔斯
势能
前轮
转速
参观者
压缩@@
压扁
蛇形
陀螺仪
笔迹
电脑病毒
数百万个
搜索@@
图像@@
刻不容缓
韦恩
炸飞
钢制
机械工程
气瓶
高时
类产品
航空局
科斯塔
分析方法
美术@@
小指
澡@@
自找
脚踏实地
哑
讲下去
十兆
费氏
显微照片
语汇
每分
寓教于乐
商业用途
访问者
霓虹灯
雕@@
琢
银牌
航船
嗝
阿德莱德
冷冻@@
丑@@
原始森林
宝座
牵引
噎
名下
审
缚
卷轴
第二章
生植物
可去
犯罪活动
床位
磷是
露天@@
菌根
高粱
激昂
地待
伯利恒
爱死
大作
遣送
罗里
鱼线
越长越
水珠
搬离
海鸟
石油输出国组织
方便使用
贯
俄克拉何马州
百分@@
千禧年
四下
详情
搞破坏
托尼@@
雪崩
火山爆发
所持
实话实说
平实
燃
可触
演技
马林@@
眼角
问个
格鲁@@
布兰森
飞地
椭圆
力场
锥形
电火花
半秒
蹈@@
毫升
挥发
胶状
BP
鼓起
暂缓
尽量避免
分神
拟
文件系统
四方
出生@@
组和
ema
升水
沾染
赠与
诸
越会
然无@@
结石
消音
白点
终端用户
分公司
塔伊
孜@@
大潮
辗@@
迁入
土地利用
所住
要建
深沉
教养所
训斥
死海
这番话
残存
纳巴
肋
古细菌
顾名思义
源码
这列
标点
淋巴@@
天然资源
杜松子酒
喝啤酒
冷却@@
十月份
约翰霍普金斯
翻到
无线通讯
数据传输
猎取
头饰
铺路
吸吮
俾格米
贫
希望@@
本岛
波尔布
骨髓移植
唯物@@
碱
倒回去
大钱
方片
时节
高跷
拜拜
真要
警员
剧痛
木条
夕
坚持到底
新近
古生物学
管壁
棉布
心脏@@
密切关系
萎@@
需花
冲刺
半叶
拉斯@@
疣
写日记
癖@@
恰
发自肺腑
苏非派
Joh@@
镇静
铎
bur@@
子儿
直冲
马尔克斯
意识流
叟
分是
另辟蹊径
布雷@@
妙语
无可争议
你生
头去
Kat@@
剪断
我发
定点
立方厘米
癌症病人
这药
肉瘤
抗癌
农贸市场
本植物
浆果
繁荣昌盛
生活水准
矛@@
路易十四
凡尔@@
群里
十万年
开采@@
荒岛
噼啪
脉冲@@
唧@@
里希
损耗
来纳
邱奇
史密森
姓@@
黛安
卡罗
啄木鸟
倾泻
背离
处理过程
先为
喘@@
手杖
毫发@@
伤势
而去
垒球
叶芝
后视镜
光彩
蹒跚
前门
黑白相间
面带@@
理事会
巴尔干地区
战犯
睡个
变压器
戏称
驶入
清洁@@
绕过去
提包
光谱线
颗@@
飞行物
俯冲
小轿车
苟@@
踮@@
观光
百人
斯隆
近况
长篇大论
拄
跳进去
未免太
钻入
瑞特
度计
年轮
科罗拉多
夕阳
伪
天真@@
詹
克鲁尼
辨别@@
拂
按摩@@
竞争性
盥@@
步数
装扮成
尖端科技
战死
盘算着
十字军
泰瑞
训练营
铺天盖地
意会
蕙
孪@@
拼成
拣选
尼赫鲁
沿用至今
税前
歉
无限大
存在@@
越往
比比@@
战警
挟@@
德文
史蒂文
大声@@
突击队
所向披靡
泳衣
第一届
违反@@
成本@@
帅哥
成不了
体贴
这小
刻骨铭心
学学
名利
机会@@
霍夫曼
最广
分半钟
张正义
光学@@
自食@@
忌惮
河马
科研机构
唬人
渡轮
通话时间
高到
量级
胡话
别转
将牌
在手
这牌
喊停
平顺
好哇
阿玛尼
易如反掌
樣
花色
整部
摄影棚
达尼
船头
厮@@
吾
激进主义
憔悴
前路
连接器
铺垫
聚居
雄蚁
颚
八小时
稳重
涂抹
工种
拖网渔船
问候语
黎巴嫩人
阿卜@@
福克@@
直肠
导游
狠@@
白线
斗篷
阿伦
中生@@
合板
领会到
涅@@
超然
神论者
被劫持
始料未及
相互理解
赫克托
泣
圣者
帮上
先验
Tam@@
线型
综上所述
电气@@
大步
开窍
西奈
竖琴
百出
熨斗
辩护律师
缔造者
宣传画
相对而言
清净
英哩
供水
华生
毋@@
摸得着
绊脚石
撞击力
击手
认不出
记不得
薄荷
爱玩
用针
无药
非昔比
数百英里
毙@@
倚赖
较难
知识型
用火
每克
有别于
苍老
监控器
鹊
橘色
雨刷
机组
几瓶
立下
更上一层楼
第一笔
满屋子
保留区
快门
流行@@
重大事件
区域性
间休息
松懈
只带
啄食
医学专家
美国会
武器@@
烟火
开奖
岂@@
加薪
少花
惶恐
而论
躁
少些
当头
我为
十分必要
俏
波函数
高中学生
图解法
流动率
相互信任
穷孩子
皮质@@
迭
钠
耗油
幸免于难
理论化
先想
扩大@@
充电站
精心设计
动力车
可得
许愿
放映机
摄影@@
文化交流
辟
巴斯
那真
借由
住家
Rabb@@
古迹
推进力
矢量
部曲
芭蕾舞团
调音
贸易壁垒
常见病
步子
纯真
虚拟@@
量表
怀俄明州
佐治亚州
负罪感
没准儿
咋
阿德
没门儿
哪一年
绷
正上方
内侧
杀人@@
表兄
冷气
斯文森
只见
冲入
门卫
遵守@@
遇到困难
特蕾莎
查普曼
扇动
巴布
称重
放进来
草草
隆胸
野火
细语
感染性
树突
分派
加紧
粘附
Micha@@
潜得
信息安全
原状
认字
金融界
紧急@@
透视图
未被@@
合二为一
放射治疗
山间
经期
砍伐森林
素描
症结所在
桑德尔
嫁人
管教
科技人员
low
卡米拉
杰弗里
围观
拉姆@@
圣公会
动物学
莫里斯
晶体@@
传闻
我学过
毫无价值
莫夫
数学知识
贷
比用
低年级
路障
十几个
开发人员
微博@@
开放源码
骑单车
小宝宝
站得住脚
你常
博览会
美利@@
胶合板
Pow@@
流纹岩
北卡罗@@
香蕉叶
兰姆
从头@@
第六个
飞人
英吉利海峡
射器
市值
纷繁复杂
爆炸声
鲜亮
建筑学家
正错误
经得起
推敲
几千米
土卫@@
神往
缴税
外籍
俄勒冈
自知
淡出
痛不@@
埃尔维斯
罗密欧
百分之九十八
提斯
黑社会
半空中
十面体
十二面
体是
萨卡
塞拉
倍数
周旋
晃来晃去
铐
伊博@@
窟窿
第二名
那面
合群
到此结束
损毁
每一秒
格格
内政@@
病情@@
兄弟@@
本职工作
阳痿
血流量
斯博士
活跃@@
心脏病学
普罗米修斯
髂骨
骨膜
预先@@
吉祥@@
极尽
超低
凸透镜
法兰西
别扭
刽子手
鲭
路线图
AA
全过程
棒球帽
稻田
小字
难度很大
半功倍
轻量
请别
生活品质
消极情绪
积极主动
加装
热水@@
石油资源
热烈@@
标有
大叔
哈桑
滑梯
不胜@@
这双@@
筛查
规范@@
健谈
颈动脉
便携@@
宽慰
我算
玄机
拉拢
构型
放眼@@
相当可观
科克
无云
祥
过如此
养狗
切身@@
就可以看
韦尔
生物武器
一氧化@@
拱顶
贝特森
量体
赋
莱西
太像
托盘
示牌
黑色@@
足有
衣架
潜水@@
爬升
深邃
鹦嘴
虾子
恢复原状
商榷
沃尔
半身@@
埃拉
然有序
维克@@
生死存亡
绝境
较之
口口@@
幼年时期
鸭嘴龙
洛基
电路@@
崩坏
都市生活
博士论文
螫
羊皮纸
惠及
顶替
叛国罪
无罪释放
待见
友邻
鼎盛@@
沉降
却没能
积压
庸
所罗@@
勉
游来游去
谢尔曼
鱼翅
动画人物
空运
愧
暇
清点
蟾蜍
几百米
私语
美洲豹
倒水
清廉
Wik@@
惨败
转悠
发现者
二世
引以为傲
特许@@
甘蓝
度假@@
先别
人力@@
研究会
守夜
体谅
昧
保障@@
多重性
仲@@
葡萄球菌
啮齿@@
植物学
哨
焚毁
建有
相符合
裂变物质
偷取
详细信息
莱曼
开往
民事
起司
坐轮椅
琼@@
伴着
向性
漏出
过海
罗拉
逃向
踩油门
硫酸盐
对冲
悠悠
怎么弄
由下而上
帛
奖牌
炉子
同伙
菌剂
盟军
菠@@
因特尔
通心@@
名列
名目
归入
脑死亡
自愿@@
心肌@@
四面体
斯通
电动机
吃水果
精彩@@
复用
密布
蝗虫
再三
简易房
毡
小商店
就职典礼
想当
美国联邦调查局
整件
卖方
出价
绰@@
远不如
受到@@
女侠
门户
更衣室
奇迹般地
落在
第四章
追杀
女性主义
正当@@
神学院
新任
迁走
马尾辫
生存条件
讯科技
非盈利性
海德
拉拉队
识破
高官
劳斯
帕米拉
欲绝
全天
致癌物质
吝啬
气象局
疏通
出些
辩证
钟表
远走@@
碰巧是
弄个
甄别
做足
新郎
熠@@
贩卖@@
美国电影@@
成人@@
营运
深入@@
辛苦工作
好时机
转去
握紧
抓紧
取下
这枚
明智地
自律
犯法
深爱着
过多地
抚@@
终日
马金
伤兵
内化
忘我
阿沙宁卡
勋爵
萨姆
竟是
黄石
填写表格
阳伞
妓
连通性
喜乐
曰
克鲁格
泰诺
自成@@
直言不讳
监护人
杰尔
纵使
行善
神是
机械系统
仆
四面@@
八方
圆球
留学
淋
手摇
招人
kins
血肉@@
海默症
衍生物
色情电影
手续
震颤
撕毁
权贵
黏在
相差@@
用事
财经
月薪
飞黄腾达
相看
纤毛
腕表
单簧管
淘气
重人格
细线
安东尼奥
呼啸
非主流
镍
狓
时侯
忆@@
法医
安第斯山
赫尔
妓院
短浅
请举
萌
躲猫猫
社会工作者
哈迪
骑过
摸摸
但会
焉
半里
想用
高能量
八维
小些
茴香
围攻
集中化
未经@@
远非
马克思@@
教学大纲
政治信仰
游泳@@
半辈子
爬进
深潜
芽@@
水边
俾@@
得太多
我弹
学士学位
遍布全国
再试
杂乱无章
查斯丁
旱
美国佬
雕塑品
言行@@
平均收入
表示同意
透气
照应
FO@@
老话
多种语言
英文单词
浸没
临界@@
狒狒
新来
硼烷
大手笔
全宇宙
哪一条
无际
长远@@
斜角
还清
太阳神
解说员
爱兰
按压
Lar@@
了个
身长
眼睑
田径
校队
弓箭手
自若
发育阶段
斑纹
声学家
开合
培乐多
无言
最高值
黑色素
斯山
守规矩
尚待
艾美
时尚杂志
稚嫩
抚
张口
骄傲@@
手机短信
只羊
几组
音素
预览
熄火
熔盐
碟@@
百事@@
酱菜
座谈会
醇@@
姜@@
劳斯莱斯
大厨
费钱
收支
泰格
负载
指代
经济社会
未有
摩尔多瓦
很痛
应征者
囊性
纤维化
费时
相左
汉尼@@
百万只
跟我来
客户服务
惹恼
林肯@@
重道远
八月份
卵产
几公里
南飞
退却
安全网
预付费
四亿
边沁
重重的
调查@@
没戏
果树
演唱@@
理想@@
歉意
编辑@@
读着
焦急
火光
小儿科
多想
布伦
水平线
卫生系统
整顿
克林@@
法默
善事
千分之
卫生部门
用不上
快速增长
小写
勒夫
阴险
模拟系统
鸟瞰图
咖啡店
白鲸
马士基
糟@@
工资@@
插管
意味@@
十个月
已满
Christ@@
开花@@
呈次
楚
隶@@
伤者
关键步骤
小白鼠
小结
来访
配得
盲目@@
波顿
空格键
快捷键
哔@@
电信业
观经济
富翁
叶派
吱吱
坦白讲
波拉
坐标系
作乐
街坊@@
占上风
留意到
易物
后花园
清醒过来
拉贾@@
晶状体
盐分
灌溉系统
农户
报到
驯@@
四页
基建
荡漾
撞坏
征询
品德
到些
钟声
果松
树龄
叶树
Bon@@
兹曼
高涨
点球
就医
轰
核事故
威严
致辞
说不出
即使如此
受阻
控件
深化
勾搭
刺激器
医疗事故
翻译员
容貌
排放物
路段
lli@@
点名
全书
马尔切
蛤蜊
画到
豁然开朗
辙
绵延
就此而言
能克服
探戈
谊舞
伺服
ott
舞台剧
工具包
计算出来
投票表决
孟德尔
勒令
高高@@
黑文
沉静
药量
沦@@
力不从心
公共事务
据点
违法@@
牢狱之灾
动器
坐进
立陶宛
选修
甜椒
隔热材料
捣鼓
请勿
柏油
持久@@
网罗
完成学业
艾米@@
阿尔曼
特劳特
欲动
尖尖
溺死
哨兵
俘@@
单程
风吹
沙石
十万分之一
奥尔森
阿姆
多事
淋浴器
电力系统
大霉
胞胎
贫困@@
约鲁@@
图利
自创
同辈
报以
放射科
vet@@
巡天
扇形
马里兰大学
铜矿
绝缘体
绝缘@@
恶意代码
思想者
花言巧语
前哨
竿
核泄漏
姨妈
占有率
廉
稻谷
航机
客运
提凯亚
毫不相干
克里特岛
近人情
高架@@
定位@@
诚
托瓦茲
俄罗斯@@
输油管
及格
真话
寄居
联通
就此结束
簇
须鲸
讨@@
撤消
门店
巴西政府
伯勒
绸@@
NG@@
生命科学
斯帕@@
这同
坐上
加到
慧眼
姥@@
拉着
河口
麋鹿
斯河
灵气
地下道
驶来
莫登
针织
智库
巴米扬
大佛
佛像
今天@@
复健
持续@@
纯氧
海盗号
婆罗洲
阿依达
坚定不移
欧洲核子研究中心
长此以往
出差错
师资
车流
扎伊尔
闷热
子公司
致电
环上
振兴
贴图
坏名声
发挥@@
嘀嗒
Sl@@
需用
听不清
聪@@
黄疸
巴基
够快
投保
冷酷无情
弗雷
度数
更何况
放屁
璨
骤停
鄂@@
卡斯特罗
意为
工程部
管好
看守所
探员
堆成堆
卡姆
刑事诉讼
方便面
复数
只会用
催泪弹
时下
著述
值得尊重
步车
娱@@
手们
热点@@
木桩
动身
星尘
缩略语
表哥
魏@@
传下去
广受
埃斯特
奥斯维辛
用非
游弋
汪@@
观音
谜底
阿基里
拨号音
帮手
内耳
原木
多维度
沙文主义
背盖区
依恋
确然
切感
厂家
城镇@@
平分
矫形
退税
几十
大宝
法王
卡玛
波西
大熊
最脏
应用软件
引导性
伯斯特
画室
传播@@
打小@@
菇
马培德
拔出
变强
飞镖
训@@
坦帕
逃命
灯火通明
朝鲜人
同年
约瑟
十三岁
老照片
第一篇
故事@@
弹出式
军医
怪癖
聊一聊
保镖
天壤之别
加利
刀叉
抽水
收缩@@
雾剂
多尔蒂
颁奖
汇成
图西
问下
相册
贮@@
美关系
喽
螺
柯蒂斯
超弦
威慑
整修
学术会议
健康人
求知
女主播
劳森
募
弗雷德里克
自命不凡
长途跋涉
发消息
赫比
精力充沛
半圈
四维
俺
供应者
最多能
沸
濒@@
轴承
咸菜
有云
西北@@
这封
药水
画质
克罗斯
裁缝
斯沃
犯罪学
耐克鞋
容积
行之
讲者
微管
硅质
铭
四面
千瓦时
立方@@
甘蔗
功利
注册@@
恕道
戴面纱
路牙
匈牙利人
３
暗处
麦利肯
贝格
获选
电子白板
提取物
好不容易
车手
皮娅
今年@@
干尽
高帝
詹妮弗
召回
胸肌
市场推广
观测台
电子扫描
逃税
闭路
基金组织
菜花
电水壶
塔斯卡
军营
备战
詹宁
北约组织
有多强
妙绝伦
熬@@
蛋白组学
差事
斧子
抽离
真空@@
酸钾
淫@@
断路器
跨部门
波器
伽伐@@
苏珊娜
小室
天佑
粘结
哈密瓜
掌果
亚特@@
Char@@
姐夫
加加
佛热
杜伊
发货
走私者
缉@@
分子式
内奥米
核桃
女老师
克斯坦
安眠药
腺丝
圆网
花皮
英属
卢帕尔
帕特尔
阑@@
勒曼
贝辛
康纳@@
做爱时
奥索
疫区
特拉
依泰塔
面包屑
烛光
雅普
绿化带
劳伦
右图
河川
局级
村@@
希思罗
错误信息
彭博
胸罩
包装盒
多条
昌
巴尔河
非洲之角
母狗
受虐
照作
坐等
嗓@@
酱油
旁白
爹@@
塞萨尔
猴仔
贫苦
夏菲
祭奠
稳定@@
网关
鲸船
利用网络
大崩盘
重性
抵抗@@
水蒸气
莫甘娜
收支平衡
尿道
鞍形
空袭
脑区
唱词
模特儿
娃人
庄重
噪@@
碎玻璃
干冰
果不其然
电路系统
密码@@
敞开大门
内蕴
菌性
英格尔
穿墙
金砖
赝品
十号
维护和平
分行
杏仁核
锡纳罗亚
右方
轮候
西扎
天秤座
金器
逊河
婚后
的歌
劳拉
柯南
道尔
窖
松露
球具
拉姆斯
麦秆
李四
伯斯
粪池
粪堆
甘蔗渣
马恩岛
镊子
雷克岛
老先生
扛起
由少
冰桶
维塔
安德罗
伽林
淋巴管
脑脊液
高收入者
皮凯迪
时薪
钻子
翠绿色
启航
遗靴
布伦丹
鲍比
歌带
蚕蛾
艾兰得
卤虫
国安局
性器
龙洞
示非
运算法
猛犸象
真名
波角
郑重其事
候机室
涛
腮
孽
不可及
戊@@
可见@@
195@@
德勒
芙
瓢@@
鲟@@
觑
inc@@
朋
赠
大吃@@
交响@@
磅@@
屈
嘤
猩@@
里安
役
涤
碗@@
蒸汽@@
Kur@@
岭
谈判@@
优越@@
妈@@
雳
量子@@
摧
嘱
学生@@
毕
恃@@
匆@@
灸
甸@@
加尔@@
马州
渠
恪@@
懊@@
多种@@
融
寺
อ
佯@@
edia
电源@@
切需要
Jenn@@
品店
糗
凌
波士@@
CI@@
刁@@
天文@@
渝
腻@@
在一起
亲密@@
秘
apt@@
杞@@
嬉@@
严
小提琴@@
人意
数以@@
瑟夫
瞭@@
疤
啊@@
麝@@
omen
生意@@
婆@@
节约@@
瑙@@
宾夕法@@
尼亚大学
舵@@
邀@@
佷
咖@@
呛
谭@@
昆
无缺
离子@@
脂肪@@
窍@@
块头
斩@@
fri@@
一无@@
彼得@@
傅
佃@@
自足
谍@@
谨@@
奎
镐
以继@@
毅@@
凡响
巧是
颖
缴@@
斯拉
当代@@
捍@@
洽@@
衔@@
天上@@
禀
弗朗@@
宵@@
郁
卡罗@@
古典@@
old@@
扳@@
菊
鹫
悯@@
伦理@@
贩@@
琐@@
瞬
而不@@
声器
庄@@
文学@@
誓
人情
嗜
各个@@
地面@@
裘@@
召@@
健康@@
顺利@@
僻@@
业家
滑雪@@
密特
膏@@
普顿
前所未@@
颜@@
癫@@
贸@@
呵@@
嘻@@
相同@@
勃勃
特雷@@
焦虑@@
玷@@
柚@@
泊@@
捡@@
俳@@
结肠@@
鲾
昵
蔗@@
嫌疑@@
拂@@
抑@@
相间
耶稣@@
噪
oria
泱@@
灌木@@
塘
涎
刃
辉@@
岗
芝麻@@
筛@@
浃@@
刨
欢喜
特斯
镀
蔫
随身@@
地铁@@
ten@@
萨克
hone
定居@@
以色@@
日本@@
心于
层建筑
干道
郊
服务提供@@
舒
鼾@@
精确@@
独裁@@
Power@@
fi@@
土耳其@@
媚@@
聋@@
痕@@
天晚上
重来
赘
爱荷@@
气候@@
苍
赃@@
学率
雕塑@@
hn
erson
裙@@
会堂
撇@@
无论@@
募@@
出走
种族@@
统
拙@@
亿分
凤@@
焰@@
领悟@@
尖端@@
陵@@
墓
辜@@
于众
舟@@
惠特@@
忠
攥
兔@@
渺
裳
斯达@@
归结@@
平行@@
植入@@
郁症
資@@
惟@@
恐
晨
咱
肥皂@@
靛@@
容性
睦@@
亩
啄
七八@@
节省@@
气象@@
赴
谕
乏@@
毅
高级@@
婶@@
婶
加利福@@
大学洛杉矶分校
纶
evin
贫富@@
面而来
炬
鞠@@
瑜@@
珈
授
阿姆@@
螈
不久@@
略性
Will@@
歹
拈@@
马尔@@
缤@@
纷
发明@@
幂@@
番@@
姐
共产@@
窄@@
近在@@
囤@@
寄生@@
株@@
米亚
架上
幂
枷@@
佣
逻辑@@
汽车公司
总体@@
格尼@@
长途@@
婊@@
闸
期内
赔
ool@@
觉得@@
连锁@@
加拉@@
肯塔@@
蘑@@
菇@@
框框
民收入
视觉@@
扫描@@
Jeff@@
厘@@
上下@@
蹴@@
崖@@
ARS
铰@@
可行@@
十六@@
渡
啸@@
定做
佐
愧@@
流动@@
衬
婿
最终@@
rac@@
滋
源源@@
不绝
崽
马士@@
达州
鲈@@
蕨@@
偶然@@
摈@@
颁@@
满怀@@
殃
撷@@
HT@@
玲
冲浪@@
跨国@@
克雷@@
南极@@
续@@
罗斯@@
毛毛@@
嘧@@
啶
GG@@
CC
加斯
橙
表盘
康复@@
亟@@
酰@@
給
无家可@@
闷@@
馮
西方@@
茧@@
一谈
布里
啡@@
导者
现场@@
肤@@
骨髓@@
大肠@@
FOX@@
卡多
发育@@
复制@@
能性
翩
筐
拄@@
洗手@@
咋@@
性化
而至
厨
标志@@
希里
弊@@
分之二
则@@
邪
渠@@
糊口
﻿
宠
西班牙@@
蜇
急救@@
蜇@@
成绩@@
ams
NR@@
映
逻@@
將@@
個
從
動@@
乾@@
鄙
利尔
咎
蛹
淹
得起
吉尔@@
闸@@
臃@@
BM@@
愉@@
言以@@
缭@@
挫
搡
震撼@@
Juli@@
参赛@@
头等@@
虱
苏里@@
貌
Fo@@
哽@@
引以为@@
í
Du@@
学龄@@
朝鲜@@
脆@@
逞
恐惧@@
谬@@
稻
销员
帕尔
奇想
言自@@
震荡
薯
唤
纤
绣
hm@@
锒@@
铛@@
述者
噬@@
Pran@@
胰@@
俭
平线
芥@@
萤@@
慑
脚趾@@
骚
烷
搁@@
寺@@
滕@@
仑
庞
Sw@@
皈@@
扈
里人
下坡路
取材
竭@@
导性
快递
呦
俄
鲱@@
越来越@@
奴@@
耘
惊叹@@
氘
追求@@
协力
惜
颊
珊瑚@@
沛@@
授@@
兰岛
黏
瞬@@
苗@@
蹭
擅
一阵@@
暧@@
为一体
跛
蟒
蔽
占星@@
杠@@
不顾@@
瞒@@
掷@@
驹
淙@@
淙
豌@@
冤@@
砌@@
边形
履@@
纫@@
怂@@
恿
维护@@
裡@@
嘟
激进@@
询
竞争@@
库里
为所@@
绽
敞
Air@@
崩
眺@@
滩@@
镖
演化@@
仙
塑
獠@@
Shir@@
不容易
髅
所获
捶@@
诲
饲@@
wat@@
烛@@
远远@@
弗雷@@
闪闪
World@@
君主@@
殖民@@
保守@@
酸盐
主持@@
46@@
献
梢
鄙@@
脊@@
岬
吋
荼@@
对着
嚎@@
驰
操纵@@
呯
砧
舞蹈@@
愿者
毫
与此@@
率地
苷@@
骂@@
火山@@
大西@@
藓@@
代代
甥@@
良
粕
眩
克林
婉@@
枕
豁@@
钵
嚣
膺
撮@@
兑
龈
啃
消化@@
话故事
苜@@
疽@@
从头到@@
谓@@
以为@@
梗@@
ES@@
堵@@
遗
病率
娓@@
精力@@
茄
汁@@
躯@@
合作@@
峡@@
崇
ram
不复@@
Sev@@
次世界大战
讯@@
跻@@
晦
耆@@
碌@@
恼@@
锣@@
分布@@
帝国@@
遏
钶
钽@@
雨量
悔
只手
更有@@
普遍@@
蛋白@@
循
鲍
螯@@
碉@@
翘@@
轩@@
Fran@@
氟@@
呢@@
体化
宇@@
瞒
不敢@@
灌
泌@@
脚踏@@
偏振@@
此时@@
百科@@
为时@@
换器
袒
遣
睁@@
﹕
斤@@
佝@@
偻@@
格纳
笺
打击@@
·
娱
崭@@
奖者
养院
利亚人
最多@@
悦
大纲
驴@@
噶@@
挟
比克
而上
行道
饥
窑
肘@@
秆
噗@@
解剖@@
苇
ip
暑@@
珍珠@@
锆
哩@@
勘
注目
钳@@
电动@@
裡
媾
韵@@
咒@@
蘸
瓷
希德
碑
迸@@
聿@@
８
兰克
声名@@
殷@@
pac@@
奏曲
葆@@
巴尔
藻@@
椎
蕾@@
之为
rill@@
iki
罂@@
槟@@
炊@@
遵
萝@@
Donn@@
嗪
醚
搪@@
橙@@
嘲
鸫
ö
失业@@
咽@@
科罗拉多@@
务人员
成倍@@
桔@@
侠@@
笋
捱@@
眉
黯@@
知名@@
睁开@@
肛@@
总值
斯丁
ao
行动@@
cymat@@
一切@@
伊尔
葡萄牙@@
鞘
越南@@
萨尼
〜
祭
域性
根州
昔@@
姬
臀@@
翳
卡西@@
避孕@@
扒
魅
竿@@
落于
扁@@
总的@@
幼儿@@
PH@@
瞄@@
羁
弘@@
共通@@
莎白
诫
遵@@
溢
籁
擒@@
唤@@
为数@@
言之
吼@@
Spe@@
Boy@@
迹@@
沓
储藏@@
浮游@@
茫
马斯
奥多
灼
彻底@@
加拉
涕
闯
馅
聊天@@
突击@@
Ten@@
Hill@@
恒
辽@@
宇宙@@
长生不@@
快速@@
密歇@@
注意@@
登山@@
岸@@
俄克拉@@
恼
收藏@@
洛杉矶@@
再生@@
哈利@@
及利亚
窪@@
晾
谬
点击@@
Wind@@
孩
iel
反复@@
回顾@@
不出@@
拷@@
顿大学
懈@@
马萨@@
合唱@@
嘎
嘣
依赖@@
亘
孩@@
溺
先入@@
止痛@@
跄
厥
蚊@@
PC@@
袭@@
罄
绢
血病
伯克@@
等生
菲特
会议@@
卡雷@@
砰@@
Conn@@
刃@@
迟@@
深刻@@
ube
摩天@@
攘
多少@@
纬@@
对称@@
羡
恤
大不@@
遥
原则@@
瘀@@
奧@@
伶@@
足球@@
产生@@
坚持@@
不用@@
形文字
殿@@
伊朗@@
曜@@
独角@@
囧
所料
人类@@
加勒@@
欺骗@@
反对@@
胜利@@
格兰@@
咎@@
赤
恤衫
How@@
狮子@@
冰河@@
崎
非洲@@
埃塞俄@@
菲利@@
凛@@
孟@@
蚤@@
拍卖@@
不在
全部@@
量标准
`
宰
俑@@
bile
嗡
诞@@
跤
pha
米拉
绮@@
寓@@
幸福@@
俨@@
膀
棍@@
血红@@
钙@@
聘@@
炒@@
牧羊@@
爱国@@
刍
褐@@
锚
淆@@
爱达@@
淀
锥@@
瘾@@
诱@@
境@@
羞耻@@
镳
突破@@
获取@@
牟@@
腊@@
新兴@@
馏@@
负责@@
一对@@
在所@@
何地
酥@@
诺斯@@
吻@@
laug
骸
蚕
枫@@
某种@@
纳米@@
些年来
秃
好了
掐@@
清晰@@
零售@@
墓@@
琅@@
埃德
倡@@
滓
沃斯
喇嘛
爱情@@
颧@@
复合@@
雀跃
分之三
绎@@
鲤@@
浊
化妆@@
sha@@
喧@@
_
侮@@
阿肯@@
Sur@@
斋
国会@@
若干@@
冀
蕊
陨@@
剔@@
显示@@
他命
编译@@
摒@@
芝@@
森堡
湮@@
埃尔
称奇
蛎
动画@@
燥
谣
加利@@
狐
莱姆
剽@@
触控@@
烙@@
聚集@@
垣
恳
缕@@
啃@@
孚
限性
并非@@
人猿
庸@@
厉
毂
狐@@
骄@@
狩@@
猎者
党制
有色@@
濒临@@
令人生@@
蛆@@
禅
揭
Phot@@
傅@@
扩
理解@@
霾
孝@@
化剂
殡@@
褪@@
胚@@
丽丝
锐
iT@@
笃@@
翰
器时代
锄@@
辖@@
波斯@@
炉@@
枉@@
徜@@
徉
届@@
刚果@@
歼@@
辰
筋疲力@@
惧@@
而外
哎@@
记录@@
奇思@@
unes
哺
殊
咏
釉
造物@@
沉迷@@
阔
纾@@
襟
奥运@@
感到@@
Dem@@
发言@@
沼
何时@@
颐
水晶@@
孟加拉@@
搏@@
bal
睹@@
褥@@
蜈@@
蚣
绷@@
洛普
牛仔@@
稔
匈牙利@@
蔡
拮@@
萨斯@@
GP@@
瘪
蜷@@
一夫@@
昆士@@
篡@@
仇
识一下
窘@@
垄@@
烷@@
逢@@
丧
酌
精心@@
由此@@
阿尔茨@@
chang@@
倦
允
峦
鳝
虹
放大@@
侮
瘀
熄
创作@@
玻@@
昰
ㄧ
¶
伫@@
决策@@
所为
痤@@
捉摸
僧
缎
藜@@
蒜
玉
魟
咕@@
翩@@
鹬
奕
法兰@@
海湾@@
特立尼@@
敦@@
锇
辑
柬
瘸@@
砾@@
合成@@
盹@@
貘
诣
为人@@
眯@@
涕@@
驭@@
ava
障碍@@
虱@@
国情@@
加勒比@@
溯
开怀@@
热病
妇女@@
鲷
藩@@
堑
搂
盼@@
瞥
這
嗎
來@@
對@@
並
春
拒
仅此@@
奥古@@
∙
芭蕾@@
祷@@
柬埔@@
寨@@
炊
鳗
砜
觊@@
觎
锦
臣@@
服于
更斯
反应@@
霉@@
攒@@
嘉
最小@@
拣
复杂@@
主人@@
Whi@@
Rabbit
出人@@
泯@@
常见@@
怜
负着
昔
俯
飛@@
堤@@
炖
啷
闺@@
雪佛@@
意大利@@
杂着
讥@@
膊
狡@@
col@@
体力@@
美联@@
利他@@
恣@@
分辨@@
靶
屎@@
撇子
弧
特蕾@@
方向@@
睛
不经@@
华州
未知@@
一条@@
鸿@@
劈@@
整形@@
斐@@
掖
湍@@
利性
完好@@
疥@@
凹
鹦@@
鹉@@
ht
鳄@@
谙
憾
俄亥@@
Lay@@
硒
团结@@
缉
中东@@
重负
伊利诺伊@@
聚变
睾@@
都市@@
巴拿@@
斡@@
桁@@
交互@@
黎加
世贸@@
戈斯
澳大@@
瞻
谅@@
俭@@
孀
函@@
边缘@@
举例@@
君
泻@@
坝
苔@@
看不@@
蝴@@
窜@@
安第@@
豚
朱利@@
膀@@
Kell@@
摩托@@
祟
愉
手无@@
涤@@
椋@@
塞恩
哺乳@@
妄
啜@@
继续@@
焚
tel
坟
霍普@@
朱丽@@
庙
承担@@
壬
靡
颤@@
木屋
搔@@
录音@@
嫩@@
Phil@@
匿
这样@@
痍
辐@@
蔼@@
惩
丫@@
揪
鸠
真人@@
铱
庵
托克
囚
别无@@
消极@@
不自@@
得通
威斯康@@
作曲@@
晾@@
轧@@
凸
感受@@
檀香@@
伏特@@
消
开幕@@
苛@@
忒
魯@@
琪
导体
柑@@
椒@@
暂
啕@@
博茨@@
瘘@@
吾@@
翘
卫队
疹
约组织
在案
不下去
锏
妖@@
世界贸易@@
枣@@
貝@@
納@@
督@@
咧@@
脊椎@@
爵@@
ab
−
装成
劾
娜塔@@
合众国
方方@@
帐@@
夭
透顶
为一
郭@@
卧
蓿
如此@@
宋@@
诘@@
纺
妮弗
外部@@
讼@@
晋@@
捎
檐
坷
內@@
苟
鼹@@
呕@@
轻重
lair
寮
Bever@@
鞍
熨@@
格拉斯
唯
踉@@
龙头
全力@@
現
拓
恶意@@
oft
翁@@
了吧
小型@@
神像
销商
单在
培
亥
薇@@
括
趋
酣
取得@@
生学
缪
越好
oug@@
裕
脾
趾@@
疱@@
匙
独行
贺@@
憋
测器
喃
日益@@
破坏@@
千千万@@
里程@@
话说
尼日@@
几内@@
缩略@@
择@@
年时期
荚
決@@
慈
惆@@
怅
Kath@@
预防@@
祂
別
默默@@
字母@@
簿@@
缮
疫@@
骛
熨
椰子@@
粟
杖
嗖
圃
泵@@
根本@@
橡皮@@
榭
mail
用户@@
秸@@
封闭@@
茵
脐
控器
畜@@
踹
艾利斯
引人@@
ero
滥调
他州
垫@@
裨@@
貌@@
剂@@
湛@@
當@@
奢@@
翠
恕@@
酋@@
zal@@
时针
地马拉
ouse
廷@@
栅
ows
跪@@
灵长@@
餐时间
尉
end
７
氪
羔
曝@@
良性@@
怦@@
全国@@
豚@@
训练@@
颖@@
栈
皮纸
公会
致命@@
飚
^
眸
源地
喹
{
钾@@
脯
合法@@
履
琐
诌@@
珊
鳟
陈
官方@@
克伦
幻灯@@
蜘@@
徐@@
徐
隽@@
来来@@
君子
夏威@@
Aur@@
樟@@
绊
郁@@
汀@@
媚
木舟
教士
文森
了当
一小@@
Kick@@
太子@@
惺@@
惺
休息@@
慵@@
腼@@
腆
说家
蝮@@
扮成
驯
制片@@
言不@@
喀
°
gel@@
oup
踝@@
掏
aul
百分之七@@
遮
cym@@
效果@@
苷
国防@@
沉积@@
Stev@@
芳香@@
絮@@
喵
艾哈迈@@
帕金@@
酵
冗
狰@@
狞
CN@@
襟@@
肋@@
琉
茫@@
創@@
枘
AID@@
伯克利@@
蜥
star@@
胼@@
胝
垒@@
帕特@@
麸@@
﹣
è
塚
断力
維
舔@@
罗宾@@
唁
穹@@
窿
冰洋
untu
抡
钞@@
斯山脉
墨守@@
泯
寥
巡
帚
扒@@
不费@@
酪
撕
象征@@
公事
优惠@@
明尼@@
奥利@@
榻
里士@@
之谈
长的
渺@@
泰晤士@@
哥大
鹱
满足@@
马蒂@@
意志@@
啼
歼
信任@@
有利@@
障@@
中年@@
妳@@
地面积
拨号@@
等级@@
关联@@
衍
肾上@@
湄@@
一层楼
兀
难性
螅
呛@@
谦@@
影带
瓮
珠宝@@
知之@@
海绵@@
噻
红色@@
ร
่
ย
宕
基准@@
瑕
碧
棕
瑞典@@
瞌睡
不尽@@
洲@@
蛊@@
跄@@
疽
杉树
崽@@
年累月
氟
小白@@
佩斯
ject
弥
搓@@
绅
翰@@
蛭
娄
卓
跃进
立大学
站不@@
遛@@
鞭
抖@@
挝
版权@@
攘@@
实地@@
无关@@
巅
核子@@
俐
冈州
吴@@
阅读@@
衔
售货机
峨
稽@@
舞台@@
暧
牒
最大@@
峻
篱@@
衫@@
栗@@
评论@@
诙@@
谐
徨
休止
蔻
朽
徳
比亚@@
社区@@
地方@@
说过
凛
制度@@
购买@@
络@@
否@@
册@@
恸@@
癫
吧@@
新星
指甲@@
动症
鸵@@
犹
透明@@
始至终
集者
变得@@
蛰@@
爱丁@@
的人
有点@@
视网@@
匕@@
无时@@
ever@@
辫@@
上所述
冕
生机@@
京
酥
有成效
蒸气
厘
核糖@@
陀罗
ham@@
都会
Sus@@
钝
一致@@
而然
百货@@
权者
贺
肓
冕@@
踌@@
躇@@
涝
孢@@
osh@@
檐@@
茵@@
锌@@
选举@@
蔑
僚
莊
联合@@
钴
榴@@
颏
伤亡@@
砷
处方@@
突发@@
透了
ask@@
Carl@@
Barric@@
赦@@
妨
ype
曹
孱@@
水处理
蚌@@
脾@@
不起来
鳟@@
很久@@
寂@@
绪
歪
诵
治疗@@
厩
乐公司
耐克@@
屡
十八@@
禾@@
螨@@
雏
岚
多米@@
维修@@
戚
珊@@
DI@@
一律
蟒@@
椭@@
虹@@
桂
理发@@
允@@
掀
榉
羁@@
腭@@
经过@@
一些@@
有可@@
昌@@
邮报
躬@@
apm@@
泡泡@@
遐@@
地心@@
赡@@
自相@@
蜚@@
壮志
威士@@
麓
Agn@@
棘@@
烊
食物@@
段话
东地区
是谁
渗
iva
养蜂@@
杏@@
魚
就职@@
输出@@
璜
诺德
相比@@
嗷@@
终极@@
給@@
庶
皿
实践@@
喜剧@@
ps
人机@@
不成@@
犀
姻
吉尼亚
奥兰@@
愣@@
愣
艾利@@
辄
速度@@
锂@@
阿特@@
栅@@
昼@@
动不动
许可@@
胚
荒者
狸
希伯@@
舷
俊
鳀
鳖
喷嚏
鹊@@
长久@@
雷克@@
货机
坐标@@
蜃@@
绕着
二零@@
抓住@@
状图
敖@@
苏门答@@
霓@@
澈
怡@@
谙@@
嗦
勉@@
励
術
睫@@
而言之
其然
Over@@
绒@@
惫@@
寇@@
肺腑
盈利性
憎
侃@@
煌@@
所欲
痂
因于
番茄@@
淡无@@
燧@@
雏@@
猩
表面@@
掣
奕@@
挫@@
噩
所思
接踵@@
放射性@@
锝
鳐
开朗
禧
厅@@
吭
為@@
的松
支持@@
规模@@
赃
再次@@
HI@@
厮
搂@@
愛@@
試
業
張
幹
請
現@@
難
話
辦
還@@
過
隨
覺
资料@@
爷@@
完成@@
蹿@@
健
阿玛@@
斯里兰@@
巴布@@
肃
殖@@
挪威@@
册子
构
瑟琳
受性
嘞
史瓦@@
畸@@
Hat@@
烃
塑性
楠
沥@@
藉
說@@
圆柱@@
狼藉
射到
因果@@
工艺@@
婴@@
TP
蜂拥@@
憧@@
憬@@
分裂@@
撇
叨
切尔
音波
靶@@
豢@@
信用@@
暸@@
久性
电信@@
悍@@
事外
出乎@@
坟@@
权国家
条形@@
Kurzwe@@
戮
弑@@
纵
篓
掂
颁
髅@@
傢@@
俩@@
作出@@
Hen@@
绯@@
无限@@
鹤@@
血液@@
妠
熟能@@
旷
痼@@
少时
傲@@
朔@@
居住@@
眺
辈子
忖
斯拉夫
拗@@
拉克@@
尼克斯
高峰@@
镫
哞
条理
基质
皮肤@@
渐进@@
ache
谊@@
条件@@
恒温@@
摩擦@@
鲑
ission
大哥
咔
行李@@
手拿@@
腺癌
莱昂@@
Cri@@
麻风@@
爱滋@@
柚
酩@@
酊@@
奥林匹克@@
升降@@
斯大@@
铣@@
代表@@
垛
巍
下而上
掘出
过难关
班加@@
誊@@
事者
贾德
霄@@
葱@@
坝@@
恸
漠
ail
坚定@@
蹭@@
新罕@@
簧管
说明@@
斯瓦@@
分裂症
西斯@@
繁
Nan@@
毯@@
羧@@
助于
消息@@
概
博士@@
蚌
辍
鸡尾@@
釜@@
鲎
車
熔
钓鱼@@
涡
咀
从那@@
曼彻@@
罹@@
谅
暄
询@@
叙
耸肩
尔夫
甲壳@@
毡@@
掀@@
种人
笔钱
浆@@
概念@@
昭@@
克力
韧@@
郊@@
猞@@
猁
棵@@
匍@@
匐
毛细@@
勃
定会
汹@@
汹
子孙@@
Alt@@
坛@@
无一@@
甫
穹
腓
吉普@@
聘
镍@@
ille
集体@@
昴
橱
在其中
昭著
认知@@
角度@@
戎
信片
磋
媒体@@
臻
敏感@@
髻
一大@@
伟
发出@@
麟@@
镂@@
蹈
方程@@
群人
淹@@
以致@@
窦@@
澈@@
HA@@
估@@
｀
刨@@
萎
蔷@@
辉
斯加
蜷
间歇@@
物力
宝贝@@
＠
受益@@
姨
嫖@@
启蒙@@
绣@@
丙
辈@@
鹃
纭
鼾
斯托@@
靠性
Tech@@
瓦伦@@
无花@@
嫩
燎@@
卯@@
恻@@
屹@@
之宝
乌拉@@
化物
幺
荐@@
不以为@@
桑尼
身于
成百@@
自主@@
周围@@
啧@@
奋
通话@@
访问@@
ese@@
企
缇
鸠@@
罪恶@@
飙
利益@@
地质@@
蜥@@
今已有
智慧@@
婴儿@@
代之
紊
问题@@
桉@@
摧@@
脓
诟@@
滤
筏
起手来
会有
铍
托尔@@
q
绝伦
倔@@
镖@@
安乐@@
铬
olog@@
胰岛@@
淌
葺
私有@@
至终
么@@
康涅狄@@
编码@@
轮机
磐@@
澜@@
izon
庙@@
勇敢@@
分队
煞@@
朔
威斯@@
岑
蕃@@
ê
萍@@
滔@@
滔
桠
拉勒@@
铒
秦@@
主宰@@
惘
197@@
刹
热衷@@
说得@@
馋
淼
住房@@
都是
嚯
来得@@
數@@
則@@
氓@@
华盛顿@@
內
千上@@
僚@@
马其@@
宋
修斯
馔
Kis@@
ino
厕
諾
陀
斑斑
亥@@
棕@@
蹶@@
憾@@
斯巴@@
袒@@
终端@@
加油@@
Glo@@
收银@@
悖@@
帽@@
诱
漉@@
漉
镉
镶
攸关
禄@@
拙
含着
尔蒙
种植@@
維@@
多彩
涡@@
栉
琵@@
琶@@
场主
忐@@
流层
訊
习惯@@
诀
之举
航空航天局
纰@@
缎@@
箍
昇
均衡@@
歧@@
挐
貴
夠
正性
湎
奇怪@@
收入者
书人
宛@@
偕@@
濡@@
盾@@
睛@@
罕@@
玄
准备@@
燃料@@
淀@@
问津
厉@@
侨@@
颞@@
梧
踞
遏@@
eB@@
多米尼@@
个世纪
沧@@
帷@@
幄
知情@@
欺
恭
枯
柏林@@
追根@@
蛾@@
难民@@
荟@@
lau@@
旮@@
垢
览@@
苇@@
基金@@
定位系统
好了@@
巴西@@
趴@@
舀
颠
rl@@
觉得很@@
蜘蛛@@
戛@@
沐
臼
椰@@
枣
甭@@
纲@@
沦
踱@@
相对@@
氙@@
汽
犒@@
亞@@
幾@@
鐡
札@@
一点@@
跨越@@
淨
採@@
庸置疑
饵@@
漱@@
骶
以待
牲@@
描
臣
惑@@
祛@@
土机
酶@@
芹
荷兰@@
狙@@
烙
RI
俘
殴
胺@@
托瓦@@
缇@@
农业部
周知
卜
承包@@
方便@@
迅@@
撂
Sud@@
Jos@@
潺@@
罔@@
口处
阿桑@@
议者
协
腋
勿
自来@@
蔚@@
猥@@
夷
Stan@@
祗
飕
流浪@@
氰@@
６
看守@@
涣@@
绉@@
沓@@
α
θ
噜
门子
颂@@
货店
移植@@
嗖@@
所未@@
鲷@@
飞速@@
洛克@@
向市场
赈@@
塞拉@@
兑@@
敦
ER@@
珞@@
喱
察觉@@
无章
嫉@@
Arm@@
玫@@
猖@@
粟@@
burg
遨@@
青春@@
脖@@
毛里@@
小小@@
咧
哝
砥@@
犄@@
身受
沈
细微@@
经上
嚼@@
虔@@
自于
西里
邸
悠
忽略@@
锈
刻起
Technolog@@
养家@@
擂
揽@@
生生
梦想@@
唉@@
茜@@
辍@@
襁@@
秽
隐形@@
雷霆
認@@
一聊
eph
术师
与其@@
魯
狈@@
楂
垩
析@@
焙
ves
莴@@
十七@@
鳕
淘
玻利@@
忱@@
提琴
犀@@
腌@@
咱@@
瑙
稼@@
埃克@@
钥@@
达尔@@
呱@@
兴奋@@
糖尿@@
猫猫
锆@@
住宅@@
楣
楦
绍
佐治@@
Gill@@
娃@@
赝
辖
肖
肌肉@@
蚤
铂@@
紀
陨
闩
鞍@@
抛物@@
辊
炙@@
OL@@
乱语
双子@@
示录
博弈@@
嶙@@
峋
曹@@
羹
形象@@
科特@@
密集@@
颞
冤
四分@@
喇
ä
秩@@
磕@@
實@@
機
類
盏
見
Ardu@@
酸钙
闳
蛊
吗@@
啡
Wolf@@
阁
吆@@
黾
稚@@
耙
冲击@@
皂
匾
唛
坡@@
调节@@
侵
糠
蕉
cos@@
德伯格
僵
潭@@
柳
卻
碍@@
需求@@
阿根@@
渗透@@
魏
特勒
偎
噙
爱尔兰@@
揉
慕
艄
Panbanis@@
缰@@
瘫@@
璀@@
勤工作
出发@@
℃
西雅@@
ø
Frat@@
尼奥
撼@@
沁
蹂@@
躏
黎
阐@@
飙@@
胱@@
咯@@
觅
盔
祸首
吽
ipper
臭氧@@
澳
掠夺@@
投入@@
憩
鬃
厢@@
两极@@
瘠
鲈
｡
慑@@
斯德@@
淋浴@@
冰激@@
中海
氫
к
а
л
保加利@@
希伯来@@
貉
俄州
轻轻@@
礴
苯二@@
公之@@
裆
初始@@
囿
囗
礙
亚历山大@@
瞄
富尔
琦
愄
摰
辑@@
敎
斯蒂芬@@
妖
洽
未决
颓
褐
唏
籁@@
tube
榴
晖
腥
爱时
岐
玖
瑰
诅@@
枫
锢
腈
惑
渉
阉@@
镌@@
妆@@
衷
雷特
xx
罗迪
娄@@
亚历@@
蛹@@
解法
毽@@
哪去
极其@@
开胃@@
麒@@
麟
锹
诧
擞
羅@@
动者
临到
鹃@@
臊
掳
币@@
蔓@@
狭
摇滚@@
宙@@
亏
沟通@@
通过@@
˙
恃
之别
骇
褴@@
褛
擎@@
淳@@
侗@@
互联@@
失措
雍@@
傍@@
代相传
羯@@
凳@@
孑@@
裘
从左@@
rong
蔡@@
椰菜
纳吉@@
擎
眯
指示@@
绿化@@
活率
ì
✔
可不@@
铆@@
信不疑
马耳@@
其事
anny
小伙@@
塚@@
诠@@
嗬
凱@@
ld
瘤@@
魨
银河@@
制性
柿@@
滑翔@@
rist@@
聒@@
佑@@
瞻@@
Ⅱ
永远@@
伙伴@@
革新@@
布斯
龚
剔
格鲁吉@@
馬
纂@@
膳@@
能量@@
归根@@
警报@@
捜
Tes@@
PI@@
Willi@@
花园@@
羹@@
威廉@@
动荡@@
贼@@
衾
馥
殇
姻@@
了婚
打字@@
旨
黎巴嫩@@
启动@@
晷
趟@@
厕@@
大英@@
苦心
elli
龄化
缀@@
赭@@
党人
洛特
喈
茎@@
女座
道义@@
百思@@
小提@@
盎@@
克逊
徳@@
毁灭@@
更生
炬@@
静止@@
躶
姿@@
增长@@
碌
披头@@
接受@@
剁@@
枭
拢@@
时尚@@
羔@@
蔫@@
卡斯特@@
漕
濒
鹞
顺序@@
浣@@
姐@@
val
啐
崴
内加尔
阿德@@
能及
學@@
旭@@
涂地
侬
外看
進@@
鳌@@
泰迪@@
研讨@@
淇
揩@@
钸
影响@@
镣
倌
旖@@
旎
冪@@
¾
万象
艾格尼@@
除此@@
Morg@@
壘
类推
碘
茂@@
梆
恳@@
涵@@
牵涉@@
霜@@
瞬即逝
马戏@@
衡
esk
笙@@
除草@@
安瑞@@
椎@@
迢@@
迢
可供@@
悸
如生
翌@@
讶@@
保龄@@
腐败@@
国务@@
貂
长篇@@
牍
必需@@
圍
鲦
需要@@
着眼@@
龌@@
龊
碛
阱
γ
钒
每刻
荞@@
和平奖
尼诺
涛@@
骋@@
PL
捋
莺@@
錫@@
耐烦
啰@@
別@@
纨@@
绔@@
匀
臌@@
箸
徤
圜
靡@@
酬@@
柬@@
奚@@
姆士
BA
坳
甾@@
戟@@
塔斯马@@
尼亚州
咕
鸽@@
杓
简单@@
踝
肇@@
千瓦@@
耦@@
胡同
菲勒
缔@@
氯
呤
大发@@
茲
餘@@
朋友@@
揣
剖
罔
现出
经济合作@@
克牌
呱
戲@@
碼
戰
摟
試@@
轉
樣@@
盡
計
連
帶@@
優@@
實
強
還
貼
須
兒
檢@@
愛
應
應@@
該
撫
篓@@
嘿@@
尼罗@@
咨@@
坯
賈@@
壞
伊丽@@
光师
槃
诧@@
敞开@@
皙
ē
些时候
辟蹊径
楞
丝雀
铋
醣
胭@@
數
萬@@
优先@@
沈@@
强加@@
申
制作@@
解释@@
引力@@
好胜
钨
访者
蹦
鞣@@
压器
菡
安然无@@
Car
bnb
摺@@
鸩@@
蘭@@
蓋
饕
踱
級
類@@
落体
嗳
涎@@
楞@@
茬
孩儿
撅
娇
眶@@
创办@@
外光
特式
嬴
俬
戎@@
堂课
感应@@
兮
人节
讷
糜@@
爛@@
氣
妲
珐
紧迫@@
鸦
特里@@
垢@@
亢
加拿@@
家可@@
茛
布隆@@
陲
拭@@
鹜
千禧@@
糙@@
而异
鋶
贪
人学
搡@@
掩
逮
枪鱼
驶
掇
萨尔@@
癮
爸@@
钼
oshop
幽
廓
圣地@@
竞
矩@@
此机会
娥@@
成群结@@
基里@@
远瞩
司令@@
蟎
椴@@
匱@@
顏@@
专门@@
枚举
日俱@@
哉@@
哉
栋@@
嘈@@
茏
濶
唰
求知@@
沉溺@@
聪明@@
蕨
敷
原虫
萨马
钦
噘@@
薛@@
军刀
谏
着瞧
蹼@@
峻@@
蜀@@
黍
隘
NA
媳@@
从这@@
簧@@
噎@@
触摸@@
孟
ï
力所@@
迂@@
谕@@
絡
眇
福利@@
♡
耸
博林
ω
葛洛@@
惶
普林
远古@@
姚
熠
和华
咂
监视@@
不自禁
犷
从上@@
啤
癢
剀
椽@@
匪浅
龛
麋
癣
诘
蓭
Women
媳
玑
髋
剌
罄@@
秽@@
戶
密密@@
从来@@
榕@@
皎@@
粱@@
而降
董
教科文组织
修正@@
尼西@@
澄@@
oro
瓢
zwe@@
Net
徽
孺
开普@@
妊@@
娠@@
喑
不管@@
Thom@@
央
剑桥@@
番话
哥尔@@
蛤@@
洗涤@@
卤
导航@@
佘@@
嘀@@
嘀
硌
忽
亭@@
瘪@@
甸
檀
硼
蒜@@
薄薄@@
扳
钮@@
戏剧@@
骤
鲜明@@
喳@@
喳
臻@@
甫@@
博物@@
至关@@
葩
杰特
谲@@
搔
觜
亚历山@@
多瓦
贮
拌
矜@@
戴曼@@
灌溉@@
羟
赀
贱@@
亿万@@
沐@@
瘴@@
捱
丽特
还价
删
膛@@
娆
谭
腊
居室
撵
嚎
鞠
渥@@
理工@@
楕
玺
碘@@
祝你@@
宵
匮@@
梨@@
菲律@@
睿@@
维艰
矶
渊
硫化@@
細@@
榆@@
朽@@
鸥
思议
門
尘器
越多@@
鉄
宙
霞
噱
元前
砒@@
姆雷特
芯@@
擒
谤
葛瑞@@
寐
们儿
慧@@
瓦纳
璧@@
終@@
毀
呆子
淤
泾@@
渭@@
鳗@@
浚
桩@@
一举@@
髓@@
趴
荑
钨@@
à
所闻
俏@@
帖@@
出一辙
绩@@
靓
靓@@
竽@@
痫
海地区
榭@@
搦
喏
厦
拘
对外@@
夭@@
缄@@
过面
咫尺
肽@@
娣
客户@@
艮
淌@@
oug
汝
缧
冶
人化
何从
堡@@
雹@@
辄@@
杵
蓿@@
離@@
開
吸血@@
后备@@
埂
芝
疱
蓉
缨@@
峡
驮
骡@@
俱来
age@@
菲尔铁塔
阎@@
别无他@@
桓
做点@@
人道@@
杭@@
郑@@
门托
怀俄@@
沼泽@@
勋
乍
_@@
见惯
那样@@
监护@@
畜
袁@@
浩
堕@@
ā
視@@
場
紅@@
勢
炼出
代理@@
防毒@@
豺@@
发动@@
請@@
ked@@
腱@@
鞘@@
涯@@
趸@@
鲯
鳅
宰@@
尼加拉@@
瀑
珂
逐
š
釋@@
師
統
碾
填充@@
很难@@
佯
訴
欸
幫@@
況
巴勒斯坦@@
汝@@
鼯@@
蚜
过身
装水
施加@@
甚少
孚@@
藝@@
術@@
館
馅@@
妥@@
協
身而出
鐘
蛟@@
哈得@@
科生
电筒
畦
痿
轾
国家卫生@@
铊
克尔@@
闽@@
易行
瞟
胳@@
录像@@
闰@@
恢@@
一线@@
蹿
游去
薮
忑@@
愫
骚@@
幡
驗
廖@@
巴基@@
马来@@
而为
猝@@
不及@@
暇@@
思考@@
俐@@
雷克
託
个月
巴格@@
十九@@
逞@@
﹔
拣@@
Serg@@
ardo
沮
导员
离家@@
救护@@
oog@@
剁
联邦@@
飞利@@
腋@@
铤@@
薛
林中
尹
胍
癌症@@
邗@@
悯
暗示@@
邱@@
马扎@@
超级@@
自利
葬@@
炽@@
邓
斐逊
有者
鹅肝
渍@@
鲶@@
绻
Ub@@
采取@@
汶
汶@@
无一人
媞
怵@@
目惊心
秩
雅各@@
耀@@
鳏@@
利昂
向世界
深思@@
文件@@
拉拉@@
加尔各@@
有钱@@
住脚
Zin@@
坯@@
摹
臼@@
卡因
绺
斯拉@@
威特
羌@@
膦
服务器@@
基督@@
佰
嚏
呕
刋
謝@@
謝
姊@@
姊
哗@@
￼
爱尔@@
Sinc@@
泮
硝
性地
杳@@
猾@@
远地区
Corps
诞
稹
簟
璞@@
一夜@@
鰺
貂@@
煦
趔@@
趄
猕@@
焉@@
会者
聖@@
镁@@
闭上@@
阴
恬@@
炖@@
阈
窍
谑
PN
叽@@
叽
DAR@@
合理@@
侩
子手
厢
阙@@
匝
性激素
via
亞
俢
萨斯州
蹚
枢@@
候机@@
尔逊
无意@@
Hot@@
线图
模式@@
瓮@@
咳@@
瘟@@
分法
撸
釉@@
屯@@
纣@@
傢
竺@@
燧
隧@@
隻
牆
淨@@
觸@@
裝@@
動
颓@@
伊斯兰@@
前瞻@@
艳
根于
咄
皓@@
蹉@@
跎@@
伽罗@@
米开朗@@
琪@@
俊@@
胧
贡
阀@@
甥
苏黎@@
霖
洛伊
基酸
印机
Pan@@
舅
惕@@
明翰
聪
巿
诵@@
祷
泻
滿
慰@@
兜
EC@@
湛
残疾@@
茅
比利@@
克里斯托@@
萨拉@@
王国@@
彦@@
主义@@
蝉
缦
Fur@@
ux
林克
西娅
楔
讼
轧
盤
詈@@
丫
尽所能
亵
舆@@
根深@@
柢@@
汩@@
汩
舛
匈
病院
捉到
特兹@@
过头来
臭名@@
贤
糙
绉
意识@@
寢
阿尔巴@@
马斯@@
颐@@
焕@@
麦肯@@
協@@
組@@
織
尽力@@
腮@@
￥
伶
无上
肱
玆
在生活@@
通行@@
大开@@
殒@@
鱼业
诽@@
谤@@
跷
釆
淸
刘
啮@@
铁塔
徵@@
通货@@
吹灰之力
缅
蹬@@
生死@@
特技@@
权主义
贸
入点
忑
祟@@
渎@@
极端@@
椰
辫
侍
縮@@
側@@
1
巴尔的@@
莺
讹@@
杜拉
裕@@
唏@@
仆@@
龄@@
壕@@
rina
仑@@
登革@@
虫剂
员会
奥地@@
舱@@
诨@@
久之
長
椽
坼
冽
撬
陋
ory@@
辘@@
辘
担
蘸@@
多德
郞
易斯
烛
试看
卵石
稣
性恋
坂@@
ñ
琥@@
色子
冠军@@
袂
耨
措@@
撞机
¥
苞@@
锭
岀
黃@@
泊尔
熄@@
寝
aga
oog
雯@@
焕
茄@@
愚
寰@@
fen
飕@@
攫@@
枢
废弃@@
不拔
弛@@
疸@@
毛骨@@
褓
嗔@@
诿
靖@@
眩@@
emat@@
饲
却步
喬@@
凖
勞@@
孛
倆@@
団
埙
晰
讃
萡
协同@@
谄@@
Lag@@
嬗@@
藜
艮@@
烘
蛛@@
札
棺
區
万计
Hann@@
鹳
甲状@@
怠
有余
荔@@
埋场
苔
科幻@@
分解@@
迪瓦
喱@@
苪
茉@@
壹
百万计
苣
＝
elyn
褓@@
奴隶@@
仲
仕@@
汱
蓬勃@@
亲身@@
生不@@
多伦@@
可图
不算@@
外科@@
妨@@
花花@@
文艺@@
综
正比
传递@@
卦@@
疙瘩
堰@@
舀@@
缛@@
〔
〕
搅拌@@
芹@@
獒
俚
懵
撂@@
izzy
匙@@
饕@@
餮
簧
画书
鸭嘴@@
闪闪@@
懈
海盗@@
米德
饼@@
隙@@
殃@@
Edu@@
挹@@
梦中
恫@@
腑
撵@@
彬
逝@@
TEDM@@
喇@@
百慕@@
苑
陕@@
盹
让你@@
ratch
怠@@
忱
凝聚@@
花板
啰
捅@@
憨@@
掬
才华@@
腥@@
谦
corn
骋
微子
杂乱@@
少年@@
Σ
羟@@
Ｃ
其妙
電@@
洗店
祕
骸@@
睿
Whirlw@@
随便@@
露出来
好者
雳@@
掸
鹬@@
鸵
鼩
方法@@
娴@@
遢
螟
华德
Ele@@
堊@@
紀@@
間
銥
層
氩@@
atan
犊
Avel@@
地亚
之急
伊斯@@
柩
维加斯
晋
蝾@@
摄
悼@@
随时@@
匾@@
颁奖@@
旧金山@@
慧
特森
約
粽
rown
yl@@
irl@@
蒂斯
检察@@
萸
溯源
玛斯
斧
香蕉@@
木卫@@
樊@@
舷@@
锰
蜻@@
蜓@@
汐@@
脆弱@@
铀@@
wart
ryn
当地@@
elson
牙买@@
絮
俱
Zapp@@
拚
储蓄@@
黔@@
娥
拽@@
筛
撮
袄
榔
ム
alie
身份@@
停止@@
近似@@
创新@@
約@@
Galv@@
囫@@
囵
坨
歉@@
死率
各行@@
arre@@
然如此
或少
庚@@
發@@
葉@@
傳@@
署@@
衡@@
哈根
颌
遠
视着
创业@@
疵
哌
姚@@
桤
桦@@
拯@@
代谢@@
同道@@
OE@@
楚楚
曦
皮尔@@
骁@@
慈悲@@
应征@@
无故
编纂@@
鸸@@
鹋
盏@@
停车@@
慨@@
一而@@
咖
菅@@
巴塞罗@@
DD@@
吭@@
met
遴@@
娼
髖@@
滴滴@@
仅如此
窦
陪审@@
整容@@
蜕@@
赊@@
激励@@
IG@@
φ
艾森@@
戾
愕
窘
伦比
嗐
旯
耙@@
yd
七八糟
孤独@@
靛
线管
连音
航天中心
牧
垦
茬@@
讨论@@
叨@@
热材料
嫂
遽
殁
褪
沛
汲
田纳@@
葵@@
糠@@
坩@@
埚
制药@@
同一@@
湍
集合@@
无穷@@
槐@@
惰@@
罅@@
泗@@
暮
檀@@
溃
麻痹症
論
埸
无能@@
铇
羸@@
戕@@
嚣@@
夙@@
大相@@
迳@@
吖@@
啶@@
跺
Flick@@
墩@@
瘘
挲
隳
鹈@@
鹕
自命@@
遊
砧@@
時
驚@@
剛@@
問
寇
當
開@@
唆
唆@@
黃
東@@
观主义
肯尼@@
讽@@
万变
舜
有线@@
乎寻常
荨@@
垮@@
蜣@@
溥
冏
５
感觉@@
冰淇@@
酿
泞
釐
窒@@
郡@@
首要@@
仕
地那
馈@@
GM
勺@@
泣@@
Ｕ
姜
浬
栖息@@
性别@@
艄@@
蠼
螋
Panb@@
头人
恶性@@
铱@@
捂@@
÷
地车
难为@@
抽水@@
櫃@@
伊拉克@@
激动@@
衝@@
衝
解面
排放@@
窸
窣
尼古@@
批判@@
手做
霍夫@@
蚜@@
考古@@
铐@@
ě
前例
Kind@@
时刻@@
龅@@
芝加哥@@
拋@@
月经@@
淑@@
箩@@
弈
屌
納
蝉@@
ã
橇@@
豔
结舌
梳
儘
樑
棺@@
伊斯坦@@
示威@@
挚@@
懑
曼纽尔
坊@@
金斯@@
从何@@
噬
芙妮
贬
Eri@@
终点@@
馨
雁
吉奥
惦@@
捎@@
橫@@
鮮
莽@@
踵
膈
Christop@@
Ye@@
在实践@@
诃
阮
剿@@
azon
节性
唑@@
晤
决定@@
bn@@
住民
藏着
啄@@
濑@@
漓@@
推特@@
糅
慷@@
1
委内瑞@@
冯@@
不负@@
魄@@
拋
水力@@
胁
昭
妩@@
所措
护者
萍
｛
｝
裱
通力@@
或缺
非兹@@
垄
践
囿@@
纳税@@
宮@@
頸
务员
邝
欧几@@
瘋@@
眷
玎@@
玲@@
噁
成员@@
置之不@@
巴马州
伙人
民区
镣@@
並@@
獲
報@@
诏
吝@@
莅@@
暨
不忍@@
琉@@
璃
科伦@@
唷
适应@@
耀
绮
辛普@@
篆@@
洛蒙
芫@@
荽
嚅
寓教@@
锲@@
參
與
迄
灿@@
灿
要条件
疚
云散
溅@@
蹬
鯊
Lick@@
汰@@
BI
帑
憩@@
麦迪@@
而易见
翡@@
家族@@
钣
颠覆@@
运营@@
布宜@@
防火@@
更衣@@
锃@@
鹏
郝@@
发扬@@
鼬@@
辕@@
探索@@
学时
躹
粹
擘@@
溯@@
而下
舆
尙
廊@@
眈@@
眈
悚@@
壕
钡
跤@@
产期
见性
囹@@
圄
诀@@
ç
稽
無
蕈
箔@@
適@@
兒@@
關
興@@
奮
畅销@@
氏度
压倒@@
..@@
特错
墩
兹堡
垣@@
哈萨@@
楚@@
Ushahi@@
KIP@@
鬣@@
跟踪@@
走私@@
幌
面体
²
布伦@@
上角
开着@@
庐
she@@
璐@@
丝网
自尊@@
詺
極@@
運@@
汪
烽@@
市政@@
疚@@
砝@@
诌
慰
