<s>
<e>
<unk>
수
이
나는
우리는
있다.
한
것을
우리가
것이다.
있는
내가
할
이것은
다른
그
더
그들은
이런
모든
매우
많은
것은
그리고
하는
그래서
의
한다.
,
하고
그러나
그것은
가장
에
때
어떤
어떻게
우리
그는
바로
만약
우리의
은
모두
이렇게
있다
있습니다.
당신이
것이
에서
과
이다.
도
사람들이
을
당신은
두
내
"@@
했다.
나의
볼
그들이
같은
위해
대해
이미
왜냐하면
하지만
있다는
해야
가지고
지금
대한
때문이다.
너는
또
없다.
있을
것이다
그들의
동안
하지
이것이
큰
좋은
될
가지
정말
일을
중
하기
는
으로
때문에
때,
새로운
몇
사람들은
가
사실
그것을
아주
작은
입니다.
알고
아니라
것
다시
그의
네가
생각한다.
로
와
있다고
하면
하여
당신의
전
된
함께
자신의
.
예를
사람이
이러한
왜
없는
나에게
를
라고
그녀는
번째
적이
잘
제가
하게
데
수도
한다
좀
단지
이다
해
이제
그가
문제를
중요한
대@@
나
들은
더욱
후에
일이
다
통해
일
안
일부
년
기@@
있기
전에
합니다.
세
인
수@@
세계
너무
하고,
:
말했다.
것이라고
아니다.
만
나를
관한
가@@
처럼
여전히
않을
게
이라고
이@@
첫
-
고@@
'@@
지@@
무엇을
감사합니다.
사@@
그것이
보다
지
비@@
기
전@@
어느
본
사람을
얼마나
저는
자@@
있는지
개의
아직
우리에게
들을
실제로
동시에
명의
부@@
아마도
있어요.
에는
항상
있고,
일은
다음
심지어
일@@
현재
들이
시@@
것입니다.
완전히
이나
보고
않는다.
성@@
하나의
있도록
그렇게
물론
반드시
라는
제
되었다.
한다고
해@@
있었다.
같다.
온
마치
영향을
거의
확실히
많이
그러므로
된다.
서로
이라는
줄
고
주@@
했다
인@@
있고
오늘
고,
적인
말할
이야기를
도@@
소@@
한다는
그들을
보@@
따라
정@@
하다.
원@@
약
-@@
리@@
되는
사람은
되어
후
다.
있습니까?
뿐만
할수
아@@
나@@
방법을
무슨
걸
이상
모@@
계속
번
에게
하여금
장@@
또한
상@@
해서
않는
시작했다.
있는데,
미국
신@@
1@@
않은
그녀의
너의
유@@
여러
구@@
난
되고
2@@
또는
어@@
않다.
(@@
싶은
마@@
않았다.
화@@
있다.@@
문제가
이게
문제는
기를
있어
정보를
하@@
싶다.
이는
3@@
결국
돈을
그것들은
조@@
여기서
서@@
그런
우리를
있어서
네
미@@
알게
그들에게
알
즉
다@@
.@@
스@@
자신을
"
동@@
만들
말을
및
것과
않고
지난
가서
오@@
특히
무@@
대부분의
어
되지
로@@
적으로
하나
중@@
사람들의
시간을
선@@
반@@
먼저
사람들을
얻을
사람들에게
세@@
것처럼
공@@
세계에서
당시
들면
그럼
안에
재@@
명이
)
좋아,
있다면,
진정으로
보면
4@@
전혀
하나는
5@@
자가
사람의
자
그때
자신이
이건
없다
매일
과학
있지만,
생각을
들@@
들어
경@@
분@@
필요가
거@@
결코
하려고
연@@
때문이다
그렇다면
하며
방식으로
것이다.@@
내@@
그녀가
실@@
나도
말하는
앞으로
물@@
이다.@@
제@@
건
없이
아니면
한@@
살
하거나
누가
그것들을
있다면
하는지
그들
그게
의해
기술을
이기
파@@
우@@
적
적@@
찾을
있으며,
불@@
것에
했습니다.
광@@
그@@
뿐이다.
전체
저@@
바@@
까지
말@@
여기
만드는
여기에
방금
줄곧
사용할
날
연구@@
이고
에도
끊임없이
성
나와
그것의
데이터를
다.@@
없다는
거예요.
아름다운
약간의
스
시간이
치@@
아무도
분명히
교@@
명@@
비록
보는
한다.@@
간단한
사는
사용@@
양@@
가능한
위에
하도록
노@@
한다면,
여@@
있지만
차@@
피@@
위한
개@@
열@@
높은
위@@
다고
곧
점점
의@@
세계의
그를
중의
이것을
초@@
강@@
마지막
생각하는
거나
10@@
합니까?
만@@
사진을
사회
는지
라@@
산@@
감@@
시작@@
스스로
것도
거야
서
거대한
있게
관심을
지만
만든
도대체
직접
안@@
말한
입@@
진정한
세계를
심@@
자,
변@@
하다
당신들은
다는
점을
각
6@@
천@@
이것들은
나쁜
있기를
생각할
마찬가지로
가진
발견했다.
드@@
8@@
7@@
일에
성을
모두가
때문에,
에서는
타@@
발@@
단@@
외@@
갈
들어,
음@@
배@@
면
이를
훨씬
했을
없을
20@@
후@@
싶지
쉽게
야
방@@
예@@
좋아하는
시간
일종의
진@@
살@@
아는
가득
너에게
체@@
가는
기본적으로
주
있어요
저희가
바꿀
물을
당@@
속에서
포@@
생각해
였다.
집에
수천
자는
들의
거야.
학@@
하는데
남@@
한다면
오늘날
너희들에게
카@@
매@@
말하고
사용하는
에서,
비교적
레@@
방법은
있는데
적어도
사람에게
없다고
요@@
속의
개
시스템을
되면
갑자기
점은
계@@
것으로
빨리
두@@
책을
사이의
관@@
질@@
이전에
든
유일한
지는
곳에서
되었다
생각@@
식@@
방식을
있으며
용@@
경제
없기
문@@
비슷한
필요한
통@@
만이
어려운
복잡한
종@@
9@@
너도
는데
리
부터
방법이
코@@
문제에
했기
위대한
토@@
적이고
컴퓨터
네,
하기를
자를
복@@
주는
변화를
각종
호@@
대략
약@@
S@@
이유는
재미있는
B@@
차를
사회@@
드
것들을
보통
연구
"라고
우리도
했다.@@
보았다.
매년
기타
습니다.
인류의
손을
에서도
밖에
상황을
정도
당신들이
국@@
?
차
기가
처음
생@@
들
사실,
너희들은
지금까지
생물@@
달@@
독@@
는데,
것이라는
상당히
백@@
속@@
있어야
지금은
수가
가능성이
청@@
가질
점@@
발전@@
보세요.
M@@
와서
알아야
버@@
면@@
그에게
당신을
물건을
아이가
사람과
세상을
없었다.
인지
너희들이
크게
같아요.
생명을
자의
후,
간@@
아이를
표@@
아이들이
바란다.
당신에게
이며,
그렇지
실험을
과정을
아무것도
느낄
성이
기로
아니라,
왔다.
결정@@
받을
이야기@@
생각하지
이해할
말하자면,
병@@
능력을
이고,
지만,
--@@
것보다
인간의
벌@@
이에요.
살고
세계에
필요로
회@@
인해
P@@
했어요.
악@@
영원히
수를
신경@@
할지
금@@
로서
우린
R@@
때문입니다.
때때로
근데
크@@
등
지를
곳에
이야
달
없@@
G@@
대량의
기회를
누군가가
지금,
수는
설계@@
연구를
!
있습니다
T@@
긴
받은
집@@
암@@
먹@@
발견할
무엇이
기에
선택@@
그림을
과@@
죠
그곳에서
원하는
되@@
약간
결과를
깊이
트@@
사실상
아니다
시킬
들에게
손@@
관계를
D@@
자주
믿는다.
깊은
주었다.
생각했다.
판@@
했다는
상상할
최근
했고,
군@@
이와
다."
일련의
절@@
목@@
대
때마다
야@@
거기에
것이다."
보호@@
발견@@
난@@
직@@
되기
총@@
좋아@@
도움을
사람들과
15@@
했다고
박@@
루@@
교육
이었다.
막@@
같이
원래
나로
사용하여
지,
어요.
앉아
창조@@
힘을
에너지를
너를
L@@
이에
에너지
본@@
때까지
하지만,
소리를
e
충분히
질
도움이
만들어
있어.
아니@@
일단
오,
했@@
길을
기술
영@@
사람@@
니@@
안다.
아마
의료
기는
사이에
"나는
일이다.
증@@
처음으로
길@@
추@@
라
돌@@
없습니다.
그런데
거
하는데,
생각한다
다양한
도록
생산@@
생각합니다.
달러를
트
발생한
효과가
K@@
알@@
생활을
식
프로젝트를
이번
아무런
문제@@
실제
화
모른다.
어디에
H@@
아프리카
알다시피,
해요.
준
100@@
팔@@
찾는
하기로
인이
풍@@
어린
필요하다.
학교에
사
해도
베@@
입니다.@@
이것도
적이다.
해결할
장
잡@@
진짜
말은,
밀@@
10년
차이가
더@@
못했다.
이어서
200@@
자기
물이
."
들과
좋아한다.
뇌@@
속에
줄@@
출@@
놀라운
과정에서
기술이
북@@
나중에
진
리는
TED
대부분
세계@@
관련이
주요
점이
담@@
애@@
e@@
행동을
에@@
항@@
종류의
생활
장을
12@@
그녀를
일찍이
아이들은
받고
충분한
이야기할
편@@
이용하여
믿을
날@@
들어@@
하려면
!@@
하다고
만들고
뇌
다면
E@@
못@@
임@@
어,
없고
싶습니다.
형@@
자와
된다
쓸
우리와
걸@@
생각이
발생@@
않으면
역@@
마지막으로
A@@
사람
기억@@
능력이
?@@
작@@
해요
s@@
연결@@
있으면
주고
각@@
C@@
들고
전,
얻은
채@@
일반적으로
아이@@
던
상상해
법@@
자연@@
젊은
에서의
앞에
다면,
음식을
시
받지
시작할
많다.
상황이
했는데,
빠르게
도시
않아
어요
집을
따라서
스의
으면
결과는
이야.
메@@
했어요
받았다.
투@@
며
의미한다.
가치가
아니라는
기술은
인도
요
지도
가난한
때@@
과학@@
인의
i@@
했는지
인을
특별한
한다."
생각하기
스가
인터넷
유전자
없어
행@@
격@@
죽@@
해결@@
디@@
않기
명
했던
사랑@@
그는"@@
인류
데이터
전통적인
물
당연히
커@@
지역
부른다.
그래,
관련된
역할을
형
례를
하며,
사가
관리@@
넘는
않는다
기회가
있을까?
여러분이
쓴
결@@
하나@@
됩니다.
수백
이로
접@@
미친
쓰@@
취@@
참여@@
않@@
생물
온@@
해.
같다
그건
성공@@
뇌의
스는
데리고
없고,
지에
에만
극@@
사를
모두에게
장의
t@@
눈을
있지
대의
평균
려
쓰는
받는
혹은
증가@@
우선
30@@
상의
흥미로운
색@@
시도@@
간의
제공@@
건@@
아
주의@@
은@@
년의
반
만들었다.
근@@
국가
종종
우주
대를
그것들이
m@@
일하는
다섯
교육@@
건설@@
목표를
는"@@
함@@
오래된
동물@@
운@@
찾고
태@@
그곳에
진행@@
중요하다.
전화를
이해@@
발명@@
F@@
성은
찍은
게@@
경제@@
하였다.
도를
50@@
중에
려고
리의
리가
공간을
탄@@
미국의
지구
것@@
게임을
등@@
자들이
깨달았다.
그냥
조금
스를
질문을
디지털
보지
기술@@
말했다."@@
변화가
도와
사실은
이름을
이지만
인류가
생명의
가져다
관심이
해야만
권@@
곳@@
키@@
조직@@
제품을
따르면
들도
않습니다.
상황에서
적은
새@@
강연을
교육을
시대에
존재@@
억
정확한
a@@
인도@@
성과
생활@@
시키는
경험을
도,
야.
허@@
er@@
없다.@@
자들은
치료@@
영화를
급@@
J@@
놀라게
막
어렵다.
었다.
어.
정치@@
찾아@@
프@@
마다
맞@@
보자.
미래에
종이
생각하고
때로는
창@@
당신
함을
드는
배울
여러분은
력을
순@@
심각한
최고의
설명@@
현재의
환@@
하겠습니다.
구조를
여기에는
자동차
주로
없어요.
침@@
이야기하고
문을
졌다.
우리로
데@@
하다.@@
말이
치는
시작했다
개인
자신에게
정부가
법을
이야기는
말은
변화@@
실험@@
선을
워@@
놀@@
다음은
간
미래를
할@@
이든
l@@
여자@@
못한
미래의
환경
했고
망@@
이거
그녀에게
도시@@
옆에
단어를
계획@@
오래
티@@
범@@
무엇인지
기본적인
했는데
자원을
육@@
1년
있습니다.@@
점차
남자@@
계획을
는@@
하러
a
결정했다.
되였다.
기록@@
습니까?
자리에
하다는
집
잘못된
갈@@
않는다는
g@@
앞@@
위의
미국에서
수밖에
원
일부는
복잡@@
비행@@
컴퓨터를
25@@
현대
k@@
감을
뒤에
2년
하려는
사람들@@
유명한
N@@
곳을
으로서
책@@
몸을
방법으로
느낌을
정보
선
강력한
개를
말해서,
지식을
오랫동안
특@@
그렇지?
있다."
얼마
진화@@
눈@@
손에
류@@
삼@@
...
"을
잠@@
품@@
않았@@
관련
인한
번@@
다르다.
갔다.
철@@
부동한
즉,
화된
오히려
시간@@
장이
나온
뭘
다음과
현@@
합니다.@@
때문이다.@@
흥미를
잠시
가져@@
전환@@
통제@@
배운
봅시다.
보기
지역의
너
이해하는
볼@@
[@@
부를
같@@
히
못
이곳의
연구에
모델을
년이
자세히
공유@@
믿@@
왕@@
터@@
이후
지도@@
정보@@
먼
가까운
...@@
n@@
있@@
지가
기의
어쩔
행동@@
보여줄
앉아서
결정을
미치는
말하지
배
사회의
음악을
18@@
직면한
만한
아니,
것이고,
별로
농@@
o@@
보이지
당신들의
연구하는
돼요.
만에
도울
대로
로부터
황@@
귀@@
언제
관계가
분
신기한
골@@
패@@
시스템이
기도
세상에
b@@
번째는
낼
뇌는
예술@@
녹색
처음에
네@@
y@@
정도로
그래서,
은"@@
집에서
새
파괴@@
종의
이상한
좋@@
첫째,
들었다.
구조@@
력@@
당
부분을
생명이
않다는
성에
관점을
용
울@@
것이기
여기에서
환경을
기후
보이는
유지@@
폐@@
힘@@
아,
관찰@@
입니다
곡@@
않았다
아이들을
요.
p@@
계산@@
듣고
도시의
서서
답을
전의
약을
상을
곳으로
어야
승@@
멀리
린
상상@@
세포를
1
원이
in@@
나라의
니
(박수)
축@@
것들은
기와
필요
다.나는
핵@@
너@@
처리@@
평@@
환경에서
이유가
히@@
생각은
이며
20년
부르는
매번
하면서
시켰다.
예요
계신
예술
르@@
17@@
중에서
올
"이
디자인
화를
c@@
처해
구성@@
성장@@
물었다.
en@@
사진
되었고,
회사가
인간@@
명을
조
보내@@
최초의
회사를
성과를
11@@
한번
자신@@
영국
투자@@
회사의
환경에
r@@
원하지
좋지
학생들이
인터넷에
수백만
화학@@
뇌가
다."@@
크
하루
리를
방에
형성@@
사진은
돼
어를
누@@
짧은
상
40@@
사이@@
지고
폭@@
력이
이기도
되었을
빛을
이동@@
년@@
보여
있는지,
초기
산
건강
잘@@
여기는
들,
이걸
죽은
강한
서는
말한다.
높@@
부족@@
습@@
들여
원을
의"@@
인과
와@@
안전@@
여
기,
우선,
로,
봐
녹@@
참@@
정부는
인데,
단
뒤@@
초
못할
효과를
백만
시작했을
페@@
현지
이에요
마음을
영화
기술의
16@@
합@@
인,
소
나는"@@
사실@@
14@@
아이들에게
W@@
가정@@
이름은
보기에
봐,
지역에서
기능을
리에
O@@
면서
작품을
전시@@
완성@@
이때
비해
배우@@
때부터
건축@@
가고
하나를
뛰어@@
운동을
or@@
보인다.
멋진
량@@
돈이
위에서
타고
사의
방법@@
그들도
프로그램을
레이@@
앞에서
an@@
알아@@
했지만
그들과
공공
풀@@
왔@@
발표@@
여성
그것들의
함으로써
표현@@
방식은
그와
대형
알려줄
사진@@
여성@@
가야
일어나고
생존@@
시키고
마
걸음
인은
방식@@
미국@@
싶@@
인정@@
언어를
려@@
인들은
설@@
도구를
응,
19@@
상호
이야기가
너희들
국가@@
빠른
완벽한
y
나서
작업@@
싶을
이상@@
우주@@
하는가?
것이며,
업@@
"의
친@@
개가
면,
에서@@
199@@
나라@@
글로벌
노력@@
실현@@
생각한다.@@
밤
그림@@
여러분과
자유@@
운전@@
하는것이다.
처@@
굉장히
하는@@
사고@@
존재하는
둘째,
3년
분석@@
책임@@
u@@
그날
부분은
설명할
읽@@
위험을
활동을
자로
보고,
우리@@
가치를
모르는
인데
향해
균@@
생명@@
봉@@
다음에
받@@
"이라고
le@@
찾아
d@@
시작한
제공할
학교에서
대표@@
발전
점에
협@@
위험@@
인간
느꼈다.
가지게
준비@@
이자
많@@
정신@@
비가
역사상
발견한
개발@@
습니다.@@
소비@@
향@@
돌아@@
내에
정치
w@@
석@@
좋아하지
논@@
보여준다.
상황은
그다지
정부
선택할
음,
맥@@
스와
별@@
뇌를
포함@@
자에게
권을
일,
전자
상업@@
렸다.
달려
즉시
이것에
연결되어
마침내
선이
세포@@
해,
화학
해결하는
날아@@
0
의미@@
도는
찾@@
의미를
기만
러
싸@@
이해하기
혈@@
!"
말하고자
부분@@
이다."
퍼@@
갔@@
세계가
보게
이가
스,
화가
소를
나라에서
들에
송@@
러@@
있습니까?@@
썼다.
기본
아프리카의
그럼,
지구의
머리를
면에서
열심히
넣@@
의미가
론@@
전체를
여러분에게
인류@@
넘@@
분야에서
곳이
트가
무리의
트를
염@@
흥분@@
월@@
문제
의료@@
않다
시스템은
발전을
말하면
집중@@
수학
데이터가
I@@
일반적인
치료를
스에
당신들에게
되었@@
?"
아닌
어디에서
여성이
있었@@
것들이
지의
그것에
지원@@
운
길
척@@
그러면
다:
반응을
흔히
합니다
리,
과거에
올해
진실한
절대
웹
아래에
물에
환자의
친구가
뿐이다
린@@
협력@@
마지막으로,
시간에
여기@@
h@@
t
삶의
감염@@
조금도
민@@
도의
훈련@@
아니라고
는지,
으며
다,
도시를
일의
아이는
릴
의사@@
가능@@
참가@@
장에
결합@@
만큼
사용하지
되었습니다.
억@@
음악@@
혼@@
회복@@
판매@@
체가
외에
하는지,
글을
수의
날,
공급@@
결혼@@
년에
방향으로
아닙니다.
었다
서비스를
어렸을
테@@
대가
대학
주의
치
표시@@
5년
찬
13@@
마침
아버지는
요,
우주의
의사가
에이즈
피트
겠@@
빌@@
기계@@
않도록
제공하는
필@@
된다는
체
믿지
신호를
안에서
사회적
막을
결과가
쓰고
묘사@@
넌
내려@@
장은
중국
빈@@
60@@
198@@
개방@@
일반
]
보여주@@
좋다.
문제의
문화
이지만,
on@@
증명@@
져
사람들
대답@@
운동@@
입니까?
재미@@
반대@@
측정@@
제를
수학@@
반응@@
말했듯이,
드의
결과
당신들
암
발생할
자에
인구
맡@@
개선@@
안의
떨어진
컴퓨터가
2
소리@@
정확하게
모양의
혁신@@
유럽
답@@
말해야
속
이전의
누구나
지지
"를
명은
지지@@
무엇입니까?
해서는
몸에
했지만,
력
사실을
으로부터
개념을
요.@@
있다:
국제
라.
죠?
입고
노래를
느끼게
정의@@
없지만,
영화@@
이곳에
과정은
듯이
제작@@
늘
써서
등을
사랑하는
에서만
중국@@
지역에
합니까?@@
말하@@
사람,
이어
트의
먹는
주지
연주@@
경험@@
민주@@
먹을
지속@@
었@@
소리가
트는
현상을
왼쪽
굴@@
지?
되었다.@@
인터넷에서
놓@@
찍@@
매
싶어요.
이곳은
정
바꾸는
꿈을
이익을
실험실에서
책
학
최@@
예는
시스템
발견했다
아이의
시켜
드를
중대한
es@@
물건@@
아니다.@@
문
어서
대체@@
효과적인
열
무서운
조직을
실패@@
197@@
브@@
조각@@
동물을
국가의
하라고
있습니까?"
3분의
원의
하나가
때의
일어나는
였@@
중요@@
주의를
드가
포함한
전기
전자@@
피할
없다."
위치를
알았다.
'라고
계속@@
느끼는
내용을
시를
언@@
각도에서
사회에
사업을
학교
많지
1000@@
관을
'을
공공@@
방면의
융합@@
지역@@
부
높다.
도착@@
봐라,
따라@@
가지@@
서,
힘이
수집@@
잔@@
오는
수술을
동물의
마지막에
후의
층
질을
부르@@
제기@@
거리@@
탈@@
역사를
필요합니다.
퇴@@
시대의
여섯
바꾸@@
성의
성,
반대로
실
촬영@@
검@@
는'@@
다가
도와@@
모두들
있었다
작년에
이상의
좋아요.
존재하지
필요@@
보여주고
읽을
해석@@
재료를
발을
환경@@
최근에
환자가
되어야
제조@@
시작했습니다.
상황에
모습을
그걸
널리
습니다
차가
사용하고
글@@
위로
지도를
슬@@
노동@@
이지
병을
낮은
원은
방송@@
당신과
지로
완전한
체는
이,
알았@@
다"고
간주@@
도가
들어갈
보았을
이"@@
독특한
응용@@
착@@
알지
프로젝트는
ar@@
데려@@
변화는
여행@@
그곳의
추진@@
제한@@
국의
책임을
모르지만,
언급@@
달러의
에게서
앉@@
생태@@
데이터는
들어가
일찍
하든
시스템에
혼자
정상적인
테스트를
수있는
일어날
떠@@
주세요.
류
관점에서
그곳에는
소가
시장
찾아야
생각하@@
500@@
체를
이해하지
이것
어요.@@
짓@@
오랜
도전@@
뇌에
선택을
자체가
벽@@
너와
압@@
올@@
완@@
년을
가가
응@@
림@@
학생@@
세계적인
보고@@
방
사람들,
거예요
요구@@
의심할
태양@@
않아요.
것이@@
연구하고
연구는
뉴욕
기초@@
개인@@
갈수록
인들이
쿠@@
으@@
방향을
가지를
다-@@
작동@@
잘못@@
토론@@
부의
것인가?
숙@@
계
간단히
때는
전파@@
처음부터
운이
전화@@
비디오
체의
목표는
천천히
이야기하는
탐색@@
전형적인
주위의
다리를
중요하다고
속도를
게임@@
이미지를
불구하고
된다고
즐거움을
아이디어를
그림은
면을
물은
행위를
낮@@
아프리카@@
표를
보낼
뒤
나무
아직도
유전자를
비
수십
가,
받았@@
유일하게
뜻@@
인생에서
세포
집으로
갖게
요?
여성의
끝@@
으로,
것은,
공유하고
정확@@
at@@
도시에
성공적으로
없어.
액@@
적응@@
없다면
시스템의
차이를
있다는것을
치료
it@@
삶을
디자인@@
거라고
얼굴을
최종적으로
정보가
생명
들면,
충@@
점
싶다
훌륭한
먹고
보러
라이@@
을까?
파란색
여자가
나은
비교@@
통제할
거리를
스타@@
특별히
머리
립@@
el@@
만족@@
통과@@
희망@@
방문@@
평생
마일
속도로
향상@@
관계@@
됐@@
일할
음을
말했다
환자@@
과의
말했@@
일도
원자@@
네트워크를
음악
익@@
소개@@
천
실험
다음으로
감정을
가족@@
o
들이다.
지와
파
질병을
올라@@
싶어@@
돌아갈
선은
인쇄@@
위를
도에
결과@@
기계
락@@
말
옷을
대학의
특정한
일어나지
세포가
운영@@
얻는
틀림없이
300@@
이야,
력과
같지
나라가
세계는
된@@
정부@@
문제이다.
친구
저장@@
마리의
치가
기계를
둘
v@@
신경
생각하게
설립@@
격려@@
구할
예측할
정치적
록@@
않다고
정부의
사업@@
의식@@
지.
있다@@
이것@@
뿐,
한지
방식이
시스템@@
학교를
인구의
창조할
보았다
당신@@
상황@@
가져야
만들었@@
순간@@
머릿속에
as@@
친구@@
어도
f@@
하고있다.
오른쪽
알다시피
나오는
국제@@
졌@@
가능성을
볼수
있던
건강@@
해결
마리가
기부@@
원인은
방면에서
효@@
이유@@
공격@@
어머니@@
경쟁@@
된다.@@
뿐@@
대화를
메시지를
유전@@
요?@@
배치@@
다만
부분이
자들을
다--@@
판
핵심
고용@@
써야
수업을
학생들은
하였다
했어
80@@
시험@@
아프리카에서
최선을
자이다.
시장@@
술@@
무선
그렇@@
사물을
가를
인터넷을
놓고
봐.
일하고
모를
솔직히
을@@
영국@@
언급한
렸@@
감소@@
싶다면,
보여주는
때가
않지만,
et@@
즈@@
미
지구를
나타날
"에
알려@@
층@@
검사@@
이용@@
권
는다.
는가?
도덕적
사회에서
안정@@
걱정@@
병이
은'@@
특정
전기@@
진다.
일자리를
일치@@
리고
er
붙@@
다들
'이라는
크리스
확대@@
바랍니다.
죽을
정상@@
라,
생활에
풍부한
행동
시켜야
야,
그럴
눈에
일어났는지
그리@@
'
칠
모르겠다.
하면,
머@@
어는
병에
저도
텔레비전
얘기@@
예가
네트워크
동영상을
V@@
24@@
시각@@
력의
해에
배우고
래@@
배로
려면
자연
이렇다.
세상에서
나누@@
도시에서
터
보면,
있니?
비즈니스
긍정적인
개인의
든,
교류@@
의미
전달@@
인공
작용@@
일어난
동작을
믿는
찾았다.
로봇
내는
란@@
검은
판을
인도의
교수@@
이의
처럼,
예요.
경제적
문화를
왜냐하면,
틀@@
치를
전체가
아니에요.
게임
만들기
너희
만들@@
al@@
"라는
비를
편집@@
조직
석유
해양
~@@
로봇을
들었@@
없어@@
아침
지구상의
력은
되었다는
,"@@
그들은"@@
란
밤에
중국의
"우리는
수술@@
"이라는
특수한
빛이
붉은
물건이
않는@@
기다리고
규칙을
배워야
답은
동의@@
분야의
어가
간단@@
10억
리와
어린이
투표@@
그중
어디로
욕@@
받아
5
4년
문화@@
손으로
수용@@
생성@@
없어요
좌@@
지에서
자금을
경우
아래@@
위험한
보이@@
물어볼
도로
다.우리는
만들어@@
대에
강연@@
아무
데이터@@
사이에서
탄소
조직이
되었는데,
노래@@
낡은
겨우
오늘날의
하더라도
구축@@
저
공을
가져올
3
이라면
살아@@
며칠
거래@@
음식@@
스에서
제거@@
정을
같습니다.
일정한
랑
적이며
동안,
얻었다.
컴퓨터@@
찾기
다;@@
아이에게
쥐@@
시키@@
생활의
400@@
번의
고통을
대학에서
세의
ha@@
푸@@
빙@@
폭발@@
기때문이다.
실현할
확장@@
꽃@@
도구@@
환자를
생각해@@
잠수@@
떨어져
(웃음)
권리를
여러분,
활동@@
평가@@
조종@@
줄일
해지고
하기에
공연@@
팀@@
고려@@
'라는
아니야.
로는
,@@
빠@@
몸@@
감옥에
도달할
봐@@
못하는
잡고
살펴@@
과는
사회가
많아요.
미국에
달라고
미디어
시작해야
헤@@
플라스틱
잃@@
몰고
만들어야
과정@@
바라@@
차지@@
제일
소의
묘@@
구매@@
봤@@
시장에
끼@@
배웠@@
주변
이해하고
적이지
났@@
가면
파는
처음에는
은,
작업
타임@@
만화@@
위
분리@@
1인당
에게는
업무
늘@@
았다.
견해를
진실@@
없었@@
생산
사회를
언어@@
1만
년,
받아야
학자@@
감당할
자.
상승@@
처한
보았@@
하나이다.
로봇이
관
았다
학교@@
보시다시피
견@@
신
인구가
대학에
장기적인
각지의
여긴
끌@@
벽에
나,
랑@@
한데
중요하지
시간의
건강한
일들을
벨@@
i
경찰@@
빈
아래
돌아가서
인류는
일과
준비가
나라를
모습@@
유기@@
자극@@
배를
휴@@
임무를
반복@@
칼@@
걸어@@
50년
괴@@
지기
나라에
목소리를
아버지가
무시@@
카메라를
배가
배출@@
있는가?
공개@@
조를
회사
회사는
하고@@
만난
아니에요
모형을
50%
여자
사람들로
려는
력에
재생@@
스트@@
아래의
곳이다.
불가사의한
을지도
리지
마음대로
진보@@
예측@@
일들이
각지에서
갔을
이란
보호
었고,
않았기
사에
회사@@
존
게다가
세기
때문@@
괜찮@@
방안을
있거나
극히
의존@@
기관@@
한테
범죄@@
치고
공부@@
보급@@
준다.
인생의
급
"는
공기
않았다는
개변@@
적합한
하기만
전문가@@
않고,
워
분류@@
산업@@
령@@
년부터
다행히도
넓은
카드를
마약
아래로
부분의
건축
앤더슨:
수요를
물질@@
못하고
지나@@
테스트@@
크다.
달러
is@@
전문@@
칠@@
여러분께
주에
본다면,
해질
의식을
표현할
그린
사람이다.
사람도
나무를
그러@@
해가
조사@@
차에
있었는데,
같아.
사용해야
현실
뉴@@
꿈@@
s
프로젝트@@
흑@@
'이라고
의사는
비용을
드에
과학자들은
부정적인
방을
보여@@
족@@
il@@
몰라
았@@
X@@
동물
자라고
고무@@
식물@@
구
살펴보자.
거쳐
아야
196@@
프로젝트가
~
발생하는
하는지에
리에서
겁니다
하는가
될@@
지역을
프
개인적인
전쟁
먹이를
80%
숨을
훈련을
뭐가
암을
소는
영감을
넣을
근거하여
않게
행복@@
일어났@@
가에
였다
자료를
링@@
경향이
간단하다.
유지할
세상의
소리는
홍@@
이야기의
가입@@
초래할
없지만
었다.@@
돕는
남자가
추측@@
남은
그나저나
사망@@
번역@@
세계적으로
엄청난
국이
에,
기울@@
물의
비행기를
아니지만,
분의
산을
해를
시켰@@
구체적인
on
지속
맛@@
같다.@@
이식@@
입을
라면
질문에
알기
나무@@
저희
상업
영웅@@
졌다
자기@@
상대@@
결론을
돼.
생
ri@@
책은
철학@@
시도하고
하는것은
때.
장치를
출판@@
적이라고
하늘을
화하는
못한다.
눈이
심장@@
저를
팀은
오늘의
시에
그에
20%
선생님이
곳은
감독@@
세상이
겪은
센@@
시는
돌려@@
가의
실제로는
전에,
되었다고
자유롭게
생각해야
90%
기억한다.
쌍@@
통계@@
량
련@@
물,
이곳에서
순간
썼@@
'를
주었다
춤을
모양을
시각
들려@@
모두는
사용
오염@@
배의
쉬운
일부@@
시킨다.
설치@@
편지를
후에,
내고
의학@@
있는@@
노력하고
되는데
요소를
평범한
쉬@@
오
다.이
소리
유행@@
상태를
불행히도
뒷@@
체에
흔@@
질이
과학기술@@
준비를
었을
유명@@
am@@
마리를
집이
낙@@
변하지
력,
분이
팀이
활@@
자유를
해결해야
같다는
모델@@
설비를
실을
5000@@
책상
지금@@
도달@@
적,
소리로
아무리
순간에
르
소모@@
낸
이거나
운동
프로젝트의
배웠다.
사용한다.
Y@@
이었@@
광고@@
낯선
이들
시간은
로의
바이러스를
울
회의@@
스캔@@
3D
이야기
마음속에
숨@@
가족
개발
돈@@
넘어@@
놓을
장으로
생겼@@
전쟁@@
아침에
의심@@
완성할
어머니가
만들었습니다.
균형을
네.
창의@@
남아
학습
진지하게
말해@@
초래@@
기대@@
량을
설계
인에게
들었을
고통@@
번,
근본적으로
:@@
전을
사랑을
기묘한
에너지가
단계에
문제들을
는다
희@@
얻@@
같다고
포함되어
없게
똑똑히
색
어머니는
문자
순간을
'의
방에서
70@@
시기에
무언가를
꼭
물었다."@@
한다@@
멈추고
량의
정신을
상태@@
태어난
마라.
생각해요.
선택이
컴퓨터에
달러@@
구를
창조하는
약속@@
학습@@
선에
원에
선생님@@
사,
30년
DNA
우리는"@@
쉽지
바와
추가
건강을
언어
z@@
불리는
물건은
상에
얻기
원한다.
멕시코@@
굳게
은하@@
2000@@
붕괴@@
소에
기술에
아래에서
점이다.
보도@@
프로젝트에
경험이
넣고
끝날
돌아가@@
의미에서
치료하는
존재한다.
대화@@
페이지를
잘못
걸렸@@
아프리카에
조합@@
밖에서
꺼@@
것이다."@@
눈
이르기까지
따@@
공정@@
5%
먼@@
도덕@@
돼@@
바꾸고
복제@@
예로
일들은
느낌@@
한후
소프트웨어를
감동@@
분명@@
왔을
물리@@
절대적으로
가르쳐
상호작용@@
영어
설계한
사건을
정보는
탐험@@
일어났다.
목표@@
기회@@
국
내에서
다르@@
정신
팔을
질문@@
사실이
실천@@
되었기
이면
나눌
보여준
시작했다.@@
4
당한
빛@@
자연의
했습니까?
신기@@
똑똑한
0@@
벤@@
관건은
건물을
지하@@
금을
있겠@@
번식@@
발사@@
웃@@
깊@@
벽을
배우는
드리겠습니다.
투입@@
수만
소식은
분자를
했으며
체와
이론@@
자아@@
장애@@
느껴@@
살아있는
똑똑@@
됐어요.
던@@
단계는
음식
큰@@
해라.
인구@@
거슬러
예술을
고개를
ra@@
ol@@
지구상에서
맹@@
생활이
했어.
기쁘게
학생들에게
상대적으로
지불@@
세가
않습니까?
하였는데
검색@@
죠.
사람들도
달러가
관점은
이전
과정에
어.@@
존재를
보자
그들@@
어디서
멸종@@
팀을
위기에
과정이
않지만
신호@@
움직일
얼굴
기업@@
리아@@
번째@@
회의
프로@@
신뢰@@
않는다고
가지가
겪@@
세상은
론
하는지를
익숙@@
점에서
시작했@@
캘리포니아
순환@@
단어@@
설계를
권의
함과
관이
목적을
1%
긴@@
물어@@
타
자라는
시의
찰@@
얻었@@
믿기
밖으로
과학을
우수한
뛰어난
생산할
었습니다.
패턴을
최종
나머지
하나로
드러@@
하나,
몸
일으킬
뉴욕@@
리로
뭐@@
가치@@
습니까?@@
유사@@
불과하다.
강요@@
잠재력을
스로
종을
간다.
"오,
효과적으로
렌@@
했다."@@
멋@@
뜻을
없으면
시장을
일부가
거짓말을
전쟁을
보냈@@
희망을
회사에
되여
호
충돌@@
서가
지구@@
나타났다.
체로
싶다면
10만
온라인
가상
폴@@
증명할
특징을
걷@@
하나도
불을
장,
가르치는
효율@@
지속적으로
현실@@
그래도
몰@@
작품@@
거리는
방식이다.
왔다
성장
이유를
해졌다.
연구할
보일
넓@@
동물이
사무@@
교통
그것으로
맨
그거
아이들의
도전을
독립@@
살짜리
듣@@
조작@@
떠나
달려@@
스러운
도시는
추구@@
변화에
ic@@
구조가
1억
과학자@@
어두운
물과
목적은
웠@@
들로
종교@@
화,
기술,
기에서
왜냐면
공간@@
덮@@
뭔가를
연구에서
초대@@
건물@@
같아요
대다수
화는
현대@@
상이
렸다
언제든지
거리에서
은행@@
쓰지
기계가
서방
속도가
됐다.
않는다면,
몰랐@@
저의
곡을
이것들을
간단하게
약이
오직
의학
접촉@@
안전한
DNA를
식을
알겠@@
증을
공유할
기술과
가"@@
위치에
즐겁게
모래@@
사용한
발
관리
취약@@
있어,
감사@@
소식@@
사고
위협@@
사상@@
깨닫게
출발@@
가로@@
않는다.@@
숫자를
에너지@@
다!
나라
성공을
전문
나타난
새로
돌아가
길이
추적@@
ch@@
강
말에
과거의
해방@@
유리@@
도망@@
마비@@
있었다.@@
번째로
성공할
나지
합니까?"
검사를
자신도
기능@@
부족한
연설@@
ot@@
변했다.
us@@
클@@
단계@@
분야에
크고
;@@
각양각색의
물질을
처리하는
중인
너희들의
트,
것입니까?
그도
하려
깨@@
re@@
슈@@
여러분
지금도
대기@@
실험은
행동은
인도에서
그곳은
관련@@
설령
뭔지
배양@@
형을
사건@@
우주에서
법칙을
기억할
희망한다.
화할
달라@@
행성의
제대로
기존의
있는가
행동에
실행@@
저항@@
10
보여드릴게요.
누구@@
90@@
고정@@
엘@@
소와
공업@@
개념@@
작년
금
그래@@
암에
신이
보았는데,
심장
드와
엄마@@
고.
모르@@
어의
부가
분자
U@@
딸@@
있었던
적이@@
했습니다.@@
세계로
적게
대학@@
계획이
미국은
으며,
미래
받아들일
거주@@
물로
였어요.
이름@@
캐@@
낭비@@
도시가
규@@
묻@@
ur@@
대중의
걸린
싶었다.
건강에
징@@
조사를
세대의
미터
것,
쳐@@
혼합@@
진단@@
중국은
지나지
저희는
꾸@@
량이
달성@@
집단@@
기술로
친구와
그랬@@
기초
협력하여
끊@@
시작하여
어쨌든
내의
느꼈@@
소,
물러@@
앓고
3000@@
서를
안에는
주입@@
장에서
회의를
건물
죄@@
다양@@
기구를
나요?
3차원
합성@@
2%
의사
초점을
포함하여
비롯@@
통합@@
무대에
걸릴
오르@@
떠날
상처를
그것
위치@@
음식이
연락@@
수술
직면@@
하고자
요."
상태에
구현@@
가지는
단어가
어요?
밝@@
몸의
그림이
샘플을
관찰할
현상@@
겠습니다.
운영
전염@@
선수@@
성장을
라도
자로서
운동의
체험@@
기꺼이
지휘@@
개의치
m
공간이
좋을
말했다.@@
분해@@
잃게
분노@@
피해@@
우주를
이유
고려해야
아버지@@
둘러싸고
심을
대규모
그림
씨@@
뜻밖에도
되고,
머리가
미국이
지금의
인에
나이가
작품은
요?"
못했다
이라면,
내릴
10%
사용하기
제품@@
블@@
살이
그러나,
되기를
섬@@
닫@@
행위@@
쳤다.
이용할
벌
되었는지
걸을
인터넷@@
교환@@
오픈
유용한
적용@@
중독@@
슨
트에
칸@@
사건이
질문은
이론을
대부분은
몰랐다.
발휘@@
낙관@@
때문이라고
효과@@
느낌은
때문이
갖는
말아야
시작했고,
써@@
원,
창작@@
건의@@
d
예상@@
드,
금융@@
작고
이른바
권리가
책이
투명@@
실제@@
이름이
대,
총
공간에
빌
중앙@@
홀@@
보존@@
수에
통제하는
카
생활은
플@@
전통@@
부는
술을
본질적으로
자신과
광범위한
연습@@
고대
조절@@
사라@@
중심@@
소녀@@
력으로
만을
일곱
숙녀
않았다.@@
녀@@
니까
일어나@@
못하게
계의
책의
이유이다.
찾아서
사이트를
수정@@
석유@@
백
접근@@
속으로
매주
자동으로
벗어날
지이다.
근거@@
니?
바꾸어
경로를
21@@
평화@@
상관@@
들처럼
일어날지
생활에서
율@@
하였@@
낳@@
소식을
어제
불과@@
잠을
여지가
여자를
미래@@
관은
컴퓨터는
냉@@
규칙@@
금융
최악의
세포의
자동차를
전부
친구를
이어@@
공포@@
량은
주었@@
생각해요
재밌는
현장에
믿는다
정확히
끝난
도입@@
아닐
미칠
참여할
설
한다:
않아도
말이다.
있었고,
이야기했다.
확인@@
름@@
시간과
아의
"당신은
늙@@
서비스
정도의
상은
소프트웨어
소유@@
구성
수와
혼란@@
올려@@
바다를
찾았@@
혁신을
산업
최고@@
말씀드리고
직업@@
뉴스
가치
현재,
두고
분을
부유@@
전체의
증
방법이다.
기이다.
대중@@
심각@@
존@@
세부
졌어요.
형의
이론이
있을까요?
바이러스@@
바이러스가
엄마가
지?@@
우주가
원래의
모여
그러니까
진짜@@
시가
흥@@
여기가
15년
뒤집@@
구하는
추가@@
폭력
교통@@
시작하는
적을
일본@@
집행@@
뇌에서
기능이
명에
맨@@
여겨@@
영향@@
이사@@
모델은
로봇@@
예술가@@
주셔서
그때는
같았다.
에게도
여행을
쌓@@
리기
실에서
좋겠어요.
져서
자원@@
즐거운
말고
받았다
친
경
차이는
다를
존재할
단계에서
하
회전@@
을"@@
져야
양성@@
시대@@
후에야
부유한
슨@@
에너지는
신의
구의
맞아,
그렇습니다.
탐구@@
심이
일로
보내는
률을
6
싶어
음악이
환자에게
적으로,
거리가
정부를
"만약
가족을
위해서@@
병
긴장@@
사회는
가끔
객@@
구성되어
"가
전진@@
않다.@@
아름답고
회
습니까?"
지구에
되거나
돌려
다음@@
가속@@
차는
었기
기관을
함에
확@@
심리@@
원에서
있기때문이다.
부합@@
사람들이다.
로를
몇몇
20세기
때도
에서"@@
케이@@
멀@@
영상을
길에
있어@@
땅에
종
대응@@
활용@@
인식@@
북극@@
웨이@@
TED@@
소년@@
아랍@@
자도
지표@@
체에서
도에서
류의
잊지
결국,
아서
피부@@
알려준다.
화의
국은
나타나는
모
하루@@
힐
얼@@
여러분의
릴@@
보도록
될수
업을
사진이
an
un@@
질병@@
싫어@@
법
운송@@
수입@@
물질이
약물을
위해서는
함이
가난@@
입은
대는
냈@@
수요@@
갔는데,
인터넷이
미국과
바이@@
스토@@
움직이는
마리@@
단일
목적@@
감이
설정@@
조정@@
관에
읽고
정부에
다"@@
좋게
않는다면
현지의
시켰다
방의
ou@@
감정@@
해.@@
존재한다는
os@@
처리할
년까지
일깨워
열정을
해졌@@
예이다.
린다.
하루에
세계와
작업을
나라는
도착했을
연장@@
사와
형식@@
갑@@
타이@@
있다.우리는
디자인을
요소가
자들에게
에"@@
박사@@
밀접한
신체
A
완벽@@
쪽
아니기
언젠가
설계할
불가능@@
살아남@@
신문@@
역사
이기@@
쓸모가
변화시킬
얻지
필요하다는
유지하는
ad@@
포함한다.
발견하고
보세요,
동물은
하기도
위해서이다.
지면
"은
발전의
살펴보겠습니다.
있어요.@@
없었다
설명한다.
뚜렷한
국을
자들의
주사@@
의'@@
인생@@
능력은
면이
컴퓨터의
이번에는
그것도
감지@@
)@@
발견하였다.
똑같이
수치@@
크기의
도구가
기록을
분포@@
중단@@
의미한다
적절한
와의
모두를
드에서
인간은
과학과
공감@@
있다."@@
연설을
것입니다.@@
사람으로
중요합니다.
생물의
물건들을
100년
칭@@
촉진@@
좋아
느낌이
초과@@
하세요.
통을
연구가
과학적
소통@@
수준을
가짜
시장의
품을
상징@@
자들@@
모르겠@@
대답할
기억을
생을
줄을
말도
제품
부른다
빨@@
들어가서
구성된
원인을
답이
부모@@
밥을
몸이
치료할
1년에
선의
100%
아이디어는
개체@@
작동하는지
흑인
잊@@
가져온
등이
것인가
보호하는
유전자가
높아@@
묶@@
실망@@
일본
인생을
비행
니다
짜@@
병원에
텐@@
까?
깨달았다
간에
30%
언어로
든@@
조각을
토
모양@@
옥@@
밤@@
어디
전기를
환자는
그녀와
방대한
비밀을
뛰@@
바뀌@@
자선@@
젖@@
비싼
제품이
간단하고
균형@@
운행@@
국민@@
절약@@
손
코드를
ag@@
비교할
마을
프랑스
사냥@@
문제로
정책을
도전은
으로@@
부딪@@
쪽@@
나왔@@
충격@@
나에
반을
네.@@
지속적인
and@@
전쟁이
기념@@
되는지
너희들을
전반
부여@@
둘@@
보았고,
여자는
결정할
킨@@
셀@@
우주에
진화
작용을
구멍을
기초한
오래@@
션을
훌륭@@
x@@
위가
공간에서
미리
멈추지
업
끌어@@
비슷@@
증가하고
이'@@
안전
들어갔다.
있을지도
인지@@
발전에
계획은
의의가
촉@@
"이것은
반응은
찬@@
디자인은
여지
확실하지
겨@@
비로소
농업
변화의
양을
개념은
질병에
자입니다.
ed@@
신을
누워
0.@@
자전거
동
청소@@
영상@@
호를
정의를
해독@@
사물의
층에
방법에
최신
들어가@@
학생
실시@@
선택한
《
배열@@
직면해
스트
미안@@
약물
시도해
그녀들은
십@@
대답했다.
세를
그렇지?@@
수,
시작했는데,
리처드
맞지
지적@@
다소
보냈다.
추구하는
어로
섬유@@
35@@
아기가
책에서
인용@@
는,
금지@@
놓여
개혁@@
허용@@
동정@@
탁@@
의를
j@@
그녀는"@@
통과할
저축@@
차의
바다에
발견을
그렇다.
소수의
관건적인
지혜를
성공한
보여줍니다.
주가
나처럼
케@@
느낀다.
탐@@
물체를
측정할
팀의
발전하고
듣는
기간
주를
이야.@@
녹음@@
어와
료@@
같아
하자.
시작하고
재배@@
가져왔@@
학의
신사
떨@@
하다."
실에
둘러@@
얻게
진단을
콘@@
농민@@
리해@@
영광@@
8년
여러가지
갔고,
창조한
보면서
치명적인
--
목격@@
초기에
빵@@
운용@@
조가
바퀴
냈다.
로봇은
똥@@
망을
좋다고
인체
얼음@@
방출@@
정도@@
혁신적인
어?
변할
변론@@
한편으로
투자를
머리@@
과학의
주제@@
시킨
측@@
잡을
희생@@
갈망@@
면에
었어요.
리면
학교의
받게
법이
시키기
틀렸@@
시간,
주목@@
보낸
쓰레기
여야
운동은
자원이
생각했던
남자
기억이
지혜@@
상자를
하였는데,
사로
필요할
탄
가격을
형이
흐@@
잠재@@
각각
쇼@@
거나,
안전을
전문적으로
농담@@
종일
쇠@@
새벽
인공@@
확실@@
최고
헌@@
게임이
그런지
에너지의
개미@@
션@@
봉사@@
진다
할수록
권력을
한,
체계를
노력을
몇@@
인종
자랐@@
적이라는
2주
뿌@@
차이@@
샀@@
범위
의견을
미국인@@
시민@@
개는
비슷하다.
친구,
마일을
웨@@
적합@@
집의
현상이
팬@@
권이
20
엄@@
다닐
해냈@@
샤@@
좋아요.@@
그림의
였다.@@
멘@@
중간에
와,
첫@@
","@@
지속가능한
즈
전개@@
거야.@@
는가
거리에
만으로
유치@@
지식@@
회가
기후@@
분석을
≪
유형의
위험에
제안@@
실수를
된다면
이들은
토론할
관점@@
거든요.
마이크로
그녀@@
사이트에
늦@@
생겼다.
었는데,
일이라고
공유하는
것처럼,
마이크로@@
야만
선택의
비용이
일주일
초청@@
공간
분열@@
자연스럽게
TED의
태어났@@
문자를
말했을
학을
거야?
화하고
벗@@
빠져@@
식품@@
"에서
엄마는
기금@@
연구한
소스
600@@
생물을
손이
방식에
불렀@@
가져오는
옳@@
뽑@@
문화의
터가
노란색
》
장면을
가족이
드리@@
컴퓨터로
태도를
마찬가지@@
켜@@
보여드리고
없다면,
디
리아
그리
만들고,
전쟁의
한동안
공
종사@@
감각@@
궤@@
자신은
바이러스
면역@@
유럽@@
돌아와서
복용@@
군
대해서
거절@@
율이
공교롭게도
바뀔
아프리카를
적극적인
실로
똑@@
확신@@
충분하지
감히
세대@@
돌아가는
논쟁@@
ay@@
구조
Mar@@
무슬림@@
숫자는
전력
야.@@
줄은
차원@@
나아@@
설계된
고기를
로서,
알려주@@
자체의
슈퍼@@
곁에
핵심@@
학생이
활동에
회를
세상@@
갔어요.
달러에
그릴
제어@@
바
밑@@
정리@@
이었다
널
배에
항공@@
여기저기
위해서
않았습니다.
발명한
부족하다.
진입@@
허락@@
추정@@
세포는
의문을
사고를
생각합니까?
인터뷰@@
7년
모아
시각적
만의
원과
재미있다.
해결하기
적지
것일
45@@
유전자@@
인간과
나가서
필요하지
테스트
아이들@@
과학자들이
침입@@
응용
195@@
194@@
ac@@
생물학@@
못했@@
일반@@
될지
시도할
계를
ie@@
하여,
보이지만
움직@@
대표한다.
거기서
살았@@
로가
트와
구상@@
감사합니다.@@
미국을
"그래,
시작한다.
단순히
오를
호흡@@
백신을
걷는
처음@@
서에
밤,
흰@@
치의
표준
사이에는
생각에
3%
얼음
재건@@
전통
고를
듣기
보았습니다.
올바른
계산할
프랑스@@
하는것을
DNA@@
복을
것인가에
판단@@
",
시뮬레이션@@
회에
운동이
찌@@
포기@@
사유@@
능@@
않았을
거꾸로
못했던
≫
이란@@
병원@@
른
토론하고
1의
ab@@
장과
다는것을
n
이루어@@
초에
St@@
6년
어려@@
영어를
아니야,
있었어요.
역시
달리
콩@@
시장이
구체적으로
되며
사례@@
내내
줄게.
다리가
여태껏
대에서
부에
뒤에서
놈@@
단어는
수상@@
싶었@@
조립@@
중요성을
더라도
차원에서
조직의
근
베이@@
구조의
연결할
디자인이
삼각@@
열고
원시적인
방향@@
사이버
요구를
모험@@
광고를
뼈@@
시작했어요.
지고,
종교
교도@@
모델이
사이트@@
밑에
실은
함
쳤@@
노는
단계를
인종@@
되게
것에서
영향은
편
물리학@@
사과@@
반응이
양의
비행기
전송@@
방해@@
봐야
우울@@
과학은
있을지
행동이
지방@@
안다
8
개조@@
역할@@
그리하여
많아@@
표현하는
하에
들여@@
특별@@
그림에서
이해해야
년간
열을
불가능한
사서
문이
바닥에
멈추@@
뭐
당시의
국에
40%
것인가를
심
시청@@
온도가
식물을
돈은
수영@@
플랫폼을
구글
을수
크를
이론은
혁신
TED에서
페이@@
외교@@
피트@@
몰라요.
재료@@
바다
탄생@@
수십억
부분에
질은
위해,
구역@@
요소@@
않았고,
많다
색을
떠나@@
복잡하고
층의
어쩌면
환자
인가?
하죠
실행
라가
방법
자동차@@
프를
싶다.@@
착륙@@
만났을
씻@@
대처할
도전에
외부
돕고
보장@@
수많은
모순@@
폭로@@
흉@@
물었@@
부분으로
현
%
심리학@@
만들었어요.
혀@@
건너@@
제는
절반은
물리적
명,
스:
입력@@
op@@
메커니즘을
한다.우리는
비디오를
Z@@
가리키는
겪고
안전하게
원시
공동으로
끝에
난다.
의식이
질에
죠?@@
방면@@
표준@@
실험실@@
나타@@
대중에게
했습니다
이죠
저녁
함은
일지도
얼굴@@
주고,
부탁@@
거두@@
재산@@
시장에서
이유로
까
원리를
깨닫지
니다.
얘기를
하시@@
팔
그것@@
출
조차도
잃어버린
연간
비밀@@
식으로
군이
말라고
의가
경영@@
묻고
가격이
톤의
통신
고려할
속도는
갱@@
유사한
공연을
손상@@
h
오른쪽에
기구@@
종교를
한두
오늘은
클릭@@
니다.@@
그중의
표면에
혁명@@
수학을
계에서
수록
몸은
무한한
으니
받아들@@
연료를
들어본
타는
때문이다."
사하라
om@@
까@@
70%
언어가
줄어@@
보편적인
단을
하는것이
이다:
한다."@@
나이@@
피를
만날
왔습니다.
두려워@@
보수@@
실현될
맺@@
한"@@
잘못을
엽@@
책임이
26@@
충분@@
확신한다.
웹@@
언어의
들어갔@@
생각하지만,
르는
다시는
어렵지
현상은
기관이
며,
왼쪽에
갖고@@
불과
5천
품
포착@@
임무@@
분배@@
환경의
식별@@
장치@@
또@@
미세한
마세요.
비유@@
일이다
형태@@
평균@@
마음이
없었던
재
반영@@
극도로
프로그램@@
전이
영화에서
전국
자신에
실험이
밖의
무대
프로세@@
지만.
다.그들은
시,
청소년@@
기준@@
설명해
다.그리고
이라도
알을
무료로
뿐이다.@@
산호@@
과학이
절약할
매달
쓰기
참을
그러니까,
달에
왜?@@
지능@@
이성@@
쳐
채택@@
마을에서
서의
걸음@@
땅을
사용되는
있음을
있다-@@
ir@@
개념이
정보의
버스
소셜
디지털@@
모두의
남자:
편의
한쪽
뜨거운
세균@@
바다@@
역사의
니,
태어날
줄이는
고등학교
경험은
알려주었다.
알려주는
유엔
'이
증거가
공통된
제시@@
분들이
경제학@@
셔@@
생각한다면,
어떠한
부분이다.
라를
네모난
샘플@@
졌을
경기@@
다.이것은
뿐입니다.
져@@
피
미터@@
비용은
브라질
'에
대단@@
계절@@
아가
뒤로
지켜@@
축하@@
총을
전투@@
의미합니다.
운반@@
곳
흡수@@
불리@@
선거@@
석유를
노예@@
거미@@
영화가
바다에서
축
않아.
준@@
춤@@
장려@@
것인가,
설득@@
변화
으로는
겼@@
인류를
전부터
펜@@
콜@@
뉴스를
생겼어요.
기능
고등@@
선과
세웠다.
:"@@
무용@@
하이@@
주변의
서로를
자리를
공민@@
계가
냄새를
다.그러나
보니
옷@@
반사@@
세포에
해양@@
망
차단@@
여덟
여기,
가치는
아니고
빼@@
느@@
법은
그들로
질병의
적당한
계발@@
었고
화에
직면해야
주차@@
떠난
적일
시키지
무엇이든
절단@@
가들은
났다.
아기@@
비범한
판이
나누고
기독교@@
아랍
4분의
분은
극단적인
생명은
박수를
이러@@
잃은
거기
걸어
버리고
느끼지
두려움을
뜨@@
사상을
검증@@
성공적인
하셨@@
내부
임상
꾼@@
자체@@
40년
관객@@
활동이
젊은이들이
평론@@
킹@@
가려고
었어요
제조
수익@@
진동@@
설계하고
이전@@
이상적인
증이
미쳤@@
만났@@
강을
수로
그리스@@
모형@@
그녀
연결하는
보호할
보내고
원으로
이라@@
듣지
주었고,
전화
남자는
가졌@@
처리해야
등록@@
영양@@
싫@@
7
봤어요.
묘사한
초조@@
나가
번영@@
유지하고
하나만
신체의
형식으로
이룰
밝은
지구가
친구들이
역사@@
연합@@
표
학자들은
성과@@
조사
지역은
석
죽일
참여하는
CA:
형은
재밌@@
기분이
기업
자전거를
층이
D
정책
머릿속에서
품이
직원@@
나노@@
넣는
층을
보실
는지에
다면@@
첨단
투자
그리는
방이
적합하지
빠르@@
사교@@
으려고
상처@@
워서
소식이
롤@@
일부분@@
발견은
서식@@
세기에
종이@@
회의에서
제로
퍼져
여성들이
녹색@@
설계하는
"이다.
분명하다.
었는지
될것이다.
가정에서
ter@@
낭@@
개,
링
날이
아를
경제의
깨달았@@
증거를
측면에서
체포@@
사용될
돕@@
연료@@
흔들@@
등에
그럼에도
세대
시스템에서
별
경우가
제정@@
분,
받기
기원@@
강조@@
었다는
너희들과
니까?
근본적인
단의
넣으면
알고@@
자살@@
죽음을
모르겠지만,
무너@@
신경을
조건@@
한때
천만
기어@@
사업에
행성에서
원칙@@
조심@@
전문가가
합리@@
나는'@@
경청@@
암이
상품@@
마을에
전략@@
제,
센터를
도착할
전체에
환영@@
인터넷의
구름@@
한편으로는
돌아왔@@
꼬@@
읽은
택@@
대하는
집은
각자의
23@@
무료@@
땅@@
중에는
ing@@
ow@@
보를
나타났@@
발굴@@
나왔다.
구가
거리
민족@@
소설@@
방면에
지불할
학교가
이념을
지도자@@
개월
브
자원
녀석@@
코
병원에서
느끼@@
시도했다.
누구도
라의
저와
남겨@@
상으로
아이들과
가기
인물@@
분석
추출@@
th@@
고있다.
경을
스터@@
설명하기
동반@@
곳의
조의
범위를
예방@@
너로
교류할
이끌고
끝났@@
마음속으로
명확한
말씀@@
무엇인가?
사항을
번째,
폐기@@
예술은
로에
건의
공동@@
티
중간
가져왔다.
2만
어렵@@
흐름@@
목을
스키@@
조류@@
브라@@
경제가
이슬람
잃었다.
부품을
150@@
이것들이
환경이
주어야
좋고
있는지에
바꾸었다.
이르러
응답@@
기존
수업@@
다리@@
화와
영화는
연
상과
Google@@
거야,
다리
생각했다
세울
받았을
가까이
가로
리용하여
것이다:
소형
처럼.
마음에
문제입니다.
시작하면
순간,
발전하는
공간의
이었고,
흥미롭게도
있었기
셋째,
바이러스에
마땅히
박수
상,
장관@@
이길
신뢰할
25%
웠다.
압력을
국에서
강화@@
인터넷은
보아야
차원의
는다.@@
감과
이봐,
발견했습니다.
수행@@
후에도
인도에
과학기술이
네요.
핵
당신도
둥@@
대해서도
기다@@
심상치
델@@
은행
공동
관객:
국가는
유럽의
효과는
비는
팀
량과
달성할
대량으로
불안@@
원들이
하자
가?
등장@@
에게"@@
유용@@
쪽에
주기
아동@@
어려울
감
모방@@
사물@@
합작@@
부품@@
대상으로
식의
관중@@
사람들에
왔는지
작을
관계는
정한
오늘,
법률
공동의
사진에서
차례
태양
평등@@
워싱턴
돌파@@
있다.나는
아침@@
매료@@
im@@
위험이
월,
함,
정상적으로
일이야
관찰하는
형식을
보험@@
알려진
이루@@
속을
회의에
k
사건
원한다면
벽
신체@@
가족은
기본@@
게,
엔지니어@@
닭@@
9년
기름@@
관의
인다.
하나입니다.
지나
생존
슬픈
6개월
바꿔야
생각과
재능을
분야@@
블록@@
돌아왔을
식이
그때부터
감지할
자아를
주십시오.
ak@@
구조는
id@@
목록@@
사진이다.
이번에
율을
대통령
도시로
기도@@
현실을
바로@@
움@@
점으로
장애를
렸을
후에는
신속하게
위성@@
나쁘@@
있을까
데이@@
친구는
아들이
불이
.나는
충격을
인상을
원인@@
재를
귀여운
불평@@
년간의
부패@@
원인이
건설하는
생각한다면
지나치게
다가@@
태양열
것이지만,
내용@@
전쟁에서
아니라@@
오른@@
보십시오.
작가@@
수면
연결된
과정
궁@@
아름다움을
보여요.
상호작용을
자폐증
여자들은
관심@@
믿습니다.
집단의
민감@@
공기를
삼림
쟁@@
국민의
폐쇄@@
액체
기에는
안을
나올
인식을
번은
화면을
자체
아기를
행복하게
수하고
소홀히
분자@@
있다.그러나
아버지의
무장@@
해지는
부와
참고@@
번에
말했다:"@@
수입을
선택은
나아가
넣었다.
찾지
흘@@
모두@@
어릴
무섭@@
제2차
과정의
왔어요.
도구로
24시간
통
등의
단백질을
돕기
빈곤@@
지도자가
S
가정을
내일
떨어졌@@
st@@
행성@@
초월@@
자리
것이지
없었기
가르칠
끔찍한
결론은
이산화탄소
주위를
이틀
"왜
복사@@
윤@@
색의
라."
제3@@
수컷
있다.이
아니지만
달하는
있겠는가?
선에서
넷@@
목
게임은
고래@@
끌어들@@
길이의
과학에
기이한
했죠
싶어요
카메라
제한을
지게
내지
니?"
중시@@
적다.
조치를
경제를
보세요
편을
동안의
왜@@
사고가
이웃@@
권에
에서.
..@@
표면@@
쓰인다.
5만
손가락을
부정@@
보
뿐이야
음악은
적극적으로
단순한
뉴욕의
숨겨진
라면,
평화를
물고기를
해안@@
거리의
ia@@
하에서
그려@@
힘든
가들이
되여@@
잠재적인
시작했다는
"내가
부모가
나에게는
사진들을
임무는
기계는
우주는
다"는
제한된
문명@@
소에서
깔@@
회사와
놀랍게도
건물이
과학기술을
끌고
만은
화면
놓았@@
숨어
했다."
이동
주의력을
목표가
대칭@@
들이@@
진화의
재료로
의사에게
텔레비전을
hi@@
묻는
자랑@@
마술@@
네트워크@@
몰라.
산소를
히고
씩
보여드리겠습니다.
알아?
않았다고
단결@@
생의
크는
직업
다르다는
마찬가지다.
천재@@
대기
초당
문화가
젊은이@@
관념을
상상을
쪽으로
라.@@
맞는
면으로
지나면
능력@@
일어나서
없어서
읽는
흘러@@
희망이
모르겠어요.
냈다
는다면,
조지
보편@@
충돌
성적
휴대@@
50년@@
했다:
했는@@
마일의
위생@@
단체@@
선호@@
어?@@
반의
것인지를
아프리카는
22@@
드로
합시다.
놀랐다.
이래
건설
죽는
도착했다.
개척@@
주머니에
99@@
대통령@@
차별@@
지지하는
엉망@@
힘은
빵을
필요도
공룡@@
온도를
개미가
시각을
생존할
4000@@
이야말로
무엇@@
일으키는
발전은
그림에
주장@@
입
---@@
썼다
탐지@@
위해서,
기고
구에
봤는데
옳은
비판@@
이해를
그만@@
솔@@
롱@@
않았어요.
이었어요.
회사에서
계획에
많고
지방
머리에
단이
여러분을
마시@@
와는
디자이너@@
정에
찾은
람@@
양
시장은
무역@@
자동차가
꼭대기에
사용을
싶다고
조건을
정부와
바이러스는
전략을
C
스럽게
블로그를
지배@@
내렸@@
세요.
고정된
산이
중국에서
죽었다.
보였다.
말로
안내@@
이라크
연구의
되었고
예쁜
만들어졌@@
빛의
특이한
귀를
예술과
인간이
털@@
산소
소로
반이
말씀드리겠습니다.
염색@@
초래한
비디오@@
츠@@
몬@@
자란
사건의
것인지
사막@@
일한
띠@@
쪽의
동물들이
이에서
혁명을
방식,
사상
바보@@
장난@@
형성된
웃음@@
개선할
졸업@@
측정하는
바꿨@@
아에서
마음의
대뇌@@
서술@@
토론을
혔@@
셨@@
선전@@
존중@@
많다는
다니@@
게놈
일인지
생태
빨간
어려움을
감사합니다
제의
아시다시피
마찬가지로,
표현
oo@@
조용히
잉@@
할지도
감은
'는
찍을
고마워요.
여기까지
'은
구역에
여름에
알려지지
현지@@
서비스@@
데이터에
두려워하지
떠났@@
일상적인
대와
피가
영상
나누어
스마트
행복을
제도@@
이것이야말로
고민@@
주어
좋아.
어떤지
연구하기
석을
1.@@
자본@@
알려주고
3,
생각하는지
대답은
이곳을
물리
출시@@
정이
있어.@@
칩@@
en
사라질
구석@@
설명하는
포유@@
개발한
냐고
바탕으로
자연히
동성애@@
서양
영국의
키가
작성@@
그것들
꼭대@@
주위에
될까요?
영향이
적이다
플레이@@
기업의
할까요?
접속@@
흥미가
구분@@
협력
아동
이르렀@@
전문적인
공간은
위성
술
나타나@@
풍부@@
서명@@
기자@@
아닌@@
유리
종이를
일이@@
논의@@
소득
필요하다
직접적인
는다는
가정
버튼을
체험을
방은
"고
불러@@
놀랄
뉴욕에서
무료
선으로
감각
계는
차지하는
2,
절
얻을수
남았@@
마약@@
다"
꺼내@@
이끌@@
었지만
완수@@
거부@@
조차
위기
생긴
상자에
번도
크가
느린
살해@@
수단@@
인지,
혜택을
깨끗한
서서히
무엇입니까?@@
는다면
죽음의
휘@@
여성은
대조@@
소위
이야기에
전에는
젤@@
네트워크의
입니까?@@
겨울@@
뻗@@
성이다.
-이
700@@
나온다.
약한
교육의
갖고
곰@@
체,
되였@@
이민@@
측정
필요는
집단
빼앗@@
유
보내
싫어하는
나노
요!
파악@@
결정했다
실험에
일어@@
간호@@
대가를
주면
가이다.
이다.우리는
목숨을
어렵다는
위협을
동을
까지.
했어@@
생겨@@
미국에서는
원조@@
가리키@@
폭력을
진행
관측@@
명으로
구멍이
처리
통신@@
바람이
진행할
시험해
끝까지
돌아온
조직은
촌@@
바꾸기
자료@@
면.
아에
팽창@@
적입니다.
가.
체계@@
들겠습니다.
말했습니다.
비틀@@
풀
영원한
대체할
환경과
특허@@
인기
화성
경찰이
암흑
생물이
비롯된
낸다.
돼,
성숙@@
억압@@
창의적인
가게
학교는
지식과
보여주었다.
교육에
물었을
전력을
어린이가
교차@@
밥@@
냐@@
다르게
1이
같아@@
말하기
폴
연주할
자연스러운
순수한
인들에게
병의
였을
궁금@@
사용했다.
요리@@
필요하다고
시기@@
산에
하죠?
구는
위험
카드@@
가까워@@
즈를
할머니@@
그래야
남자를
우는
방으로
아이와
무거운
이것으로
때문일
정체@@
았어요.
현실이
개인적으로
남성
들어가는
외
었다고
충돌을
트에서
자전거@@
낸@@
주제를
장식@@
단계
아기
걸리지
어디에나
남지
내용은
나타냅니다.
매혹@@
검색
신발을
합류@@
치지
반항@@
환경은
원천@@
사회와
서와
알아요.
기쁨@@
없으며
비싸@@
질과
고도로
개입@@
의지@@
추세를
련계@@
의사를
침묵@@
두었다.
이해하려고
할게요.
시작했고
행위는
»
주기를
호소@@
60%
했다.우리는
사라졌@@
um@@
투쟁@@
격을
받았습니다.
시작되었다.
쓰면
쓰레기@@
류가
쪽에서
원인이다.
오지
보려고
종양@@
언이
합리적인
한다"고
현명한
어디@@
만들었다
남성@@
센터에
남자와
신청@@
생기면
까지@@
답안을
임상@@
않았다면
믿고
식당@@
돌아왔다.
상술한
받았는데,
려야
련결@@
총결@@
총명한
전력@@
끈@@
떨어@@
위기가
벗어나
신은
구동@@
나무가
전으로
묘사하는
결핍@@
롭고
혔다.
인으로
유대@@
갖@@
여성들은
왼@@
가짜@@
난민@@
렬@@
인이다.
소리의
경계@@
극단@@
자선
가까@@
경기를
대출@@
ey@@
멜@@
지출@@
률이
류를
아메리카@@
정교한
밟@@
핸드폰을
돼요
커서
좋아해요.
오늘@@
만든다.
교육은
9
수준의
중요하다는
강력@@
감시@@
격
호텔@@
일상@@
폭력@@
확정@@
보시면
자금이
강연에서
같이,
미치@@
수익을
버
알아볼
상에서
프로그램이
추세@@
도처에
스스로에게
규모가
있다"고
지나갈
나오@@
절반이
가로질러
뒤의
식량
농업@@
포장@@
보기에는
,'@@
여름@@
묘사할
졸@@
색으로
되도록
민간
걱정하지
자체는
선진적인
모기@@
철저히
뉴욕에
아와
고가
들은"@@
열거@@
션
싶은지
등등.
휴대전화를
토론하는
구역을
가설@@
그래.
습니다."
있다.그리고
l
수치를
내게
밸@@
대학을
이용해
덩@@
계산
아이디어가
이산화탄소를
묵@@
화석@@
어쨌든,
뉴런@@
본다면
독재@@
1을
통치@@
경은
8%
산의
까지의
쏘@@
대뇌피@@
가설을
불평등@@
바다의
발생한다.
엔진@@
본다.
카메라가
물에서
불린다.
광
으니까
내서
린다
이어야
모집@@
층에서
규범@@
제공한다.
전달하는
작동
어렵다
갔다
담을
범죄
님@@
]@@
엔@@
하십시오.
그대로
견지@@
방식과
ap@@
나뭇@@
얼굴에
아내는
후손@@
구역이
활성화@@
미래는
신비@@
마음@@
봄@@
아프가니스탄
50만
남자의
여자들이
친한
기다릴
전쟁에
관계에
값@@
규모의
합니다."
이로부터
언론@@
잊어버@@
트로
곤@@
이메일을
무엇때문에
참여한
이다.이것은
매력@@
기구는
하던
과학적인
았을
기호@@
쳐다@@
대뇌의
의사와
랜@@
리:
"너는
받는다.
무지@@
기계의
장난감을
문제,
불법
기간에
하느님이
진보를
스트레스
채굴@@
민주
랭@@
산다.
촬영
수확@@
는?
엄숙한
숲@@
은:
크의
쇼핑@@
볼게요.
120@@
축적@@
확실한
차례의
지루@@
전화가
드릴게요.
사에서
것들@@
멸@@
시도하는
까요?
크지
변경@@
나타나지
계에
올리@@
식별할
방법,
폰@@
불편@@
되었지만,
Ch@@
노래
한다,
어리석@@
전체@@
손가락@@
거친
절망@@
규정@@
생각한
군의
관리하는
기관의
소멸@@
바란다
님,
다행@@
소녀가
감정이
여자의
사람들에게는
올라갈
생리@@
잊을
이겼@@
스트레스를
설계했다.
책에
외에도
디자인의
임
재생
트리@@
남겨
수리@@
때만
흰
발견하게
말했는데,
동이
결정하는
집안의
신비한
자라@@
섭취@@
장비@@
사용자
소방@@
오락@@
00@@
나빠@@
짓는
지혜로운
동성애
출현@@
식물
토지를
문제도
게임의
연기@@
동굴@@
인도는
장치가
케냐@@
분출@@
셀
해의
길이가
빛
이루어져
짧@@
통하지
웃는
하라.
말해서
교육이
나라들이
푸른
독일
채용@@
확보@@
구조에
까지,
자랑스럽게
되지만
만약에
마을@@
긍정@@
영역@@
멈출
석탄@@
흡@@
확률이
실험에서
들었다
않아@@
생각했기
우
000@@
높일
조금만
2천
줄수
사람에
완성한
in
고는
당신들을
양자
커피를
도착한
조각
프로그램은
광경을
거리로
류는
신발@@
떼@@
시스템,
관념@@
물론,
제도를
해결책을
주에서
요청@@
심리
마주@@
자마자
목소리가
떨어지는
무기를
법칙@@
가격@@
도표@@
감각을
를@@
보충@@
재난@@
플랫폼@@
하겠@@
이상이
했다.나는
원격
다!@@
특성을
기구의
었는데
학생들을
이다.나는
사진입니다.
뿐
동맹@@
산생@@
가득@@
세포로
경이
커피@@
터를
ev@@
행성이
명백한
아시@@
앞의
역을
수출@@
말의
있다.이것은
이야기이다.
게임에서
민주주의를
em@@
테러리스트@@
생활하는
환자들이
화성@@
삶@@
발이
암컷
모른다는
발표한
고객@@
같지만
점심을
보편적으로
결과에
기초를
메탄@@
발전할
아버지와
우연히
스럽@@
크리스마스
실험실에
아이
애를
/@@
사진에
완벽하게
건립@@
블루@@
I
마음속의
불행하게도
이스라엘
화제를
줘@@
어리석은
니?@@
둘러싸여
og@@
빠뜨@@
어진
밝혀@@
CA@@
해야@@
과거@@
바이러스의
활동
이야기한
솜@@
그룹@@
중국에
개월@@
마크
능력과
배나
스럽고
봤을
관건@@
제품의
스웨덴@@
변하는
시설@@
유연@@
핑@@
주도@@
매우,
지원
모양으로
믿게
삶에
세상에,
수단을
발견하는
학에
다녔@@
제조업@@
모호@@
롭게
바뀌었다.
세균이
진다는
뼈를
전공@@
있다;@@
가와
행
미국인의
다양성을
완전
온다.
비행을
합법@@
수집한
불렀다.
껍@@
오르는
변혁@@
기구가
타고난
있어요?
친구의
헤이,
현재@@
글로벌@@
하기때문이다.
대표하는
선생님,
고급
봅시다
쪽을
지식
로운
부모는
시작해서
낮출
이렇@@
폴리@@
보셨@@
전체적인
800@@
프로그램
특수@@
잃어버@@
들리@@
위에는
착수@@
Al@@
음
말한다면,
렸어요.
놀랐@@
음식과
음식에
쓰이는
금속
안으로
공중@@
조건이
아메리카
얻고
1년@@
3일
상실@@
억제@@
어린@@
성공하지
상상하는
리더@@
지구는
승리@@
기업이
부모님은
보완@@
상태로
미국인들이
았고,
바라는
모르기
길에서
과정이다.
분산@@
대단히
여정을
센터에서
사건에
잡아@@
사용하면
비난@@
이동할
32@@
그룹의
같지만,
감옥에서
종양이
익숙한
절대적인
파트너@@
그리고,
네트워크에
뱀@@
기입니다.
계와
걱정할
골프@@
정말@@
장악@@
선거
탕@@
명과
주목하는
나이지리아@@
것이다,
봐.@@
빛은
문화적
멍청@@
대신
무기@@
절차를
할것인가를
7%
등급@@
선생님은
혁신은
면의
보이고
닦@@
안녕하세요,
프로그래밍@@
영역을
4%
영국에서
어머니의
진전을
옆@@
벌레@@
하나에
학생을
내야
프로그램에
여러분@@
업무@@
있으@@
음악의
"과
역사가
TED에
자동차의
는것은
좋겠@@
직면할
니까.
만났다.
높이
드문
휴가를
일입니다.
An@@
걷고
도시와
류에
있다.그들은
보호하기
남극@@
해결하고
자원봉사@@
장비를
돌아다니며
카메라@@
워요.
짓을
돌아갔다.
만들지
꽂@@
저렴한
떠났다.
지났@@
라틴
인들을
바로"@@
보장할
실시간
내리는
창조하고
형,
문제와
기증@@
전망@@
분할@@
방식의
시키고,
하지는
사라지고
호가
연결
사람마다
해지@@
미래가
월에
숫자@@
림
다!"
릭@@
작품이
숫자가
형과
어에
당을
모르게
질환@@
생각
아마존
참여하고
멸종
외과
파의
지을
ah@@
당하고
가정에
운동에
보조@@
물건들은
혁명
버릴
게이머@@
섬의
잘라@@
점수를
득@@
독감
이곳에는
기둥@@
에너지에
과거를
혁명이
유럽에서
처럼@@
간다
추천@@
협력을
학위를
활용하여
거품@@
중심에
컴퓨터에서
넘어
문학@@
인사@@
남겼@@
꿈이
바람@@
틈@@
예
강하게
인구는
총명@@
패턴@@
엔
진실을
가장@@
신분을
만들어서
었어
나에게"@@
대사@@
평화
관에서
알면
문제라고
여름
생계를
경험에
아침,
사례를
정책@@
전과
무슬림
줬@@
다행히
기뻐@@
한다;@@
e,
Sh@@
색,
뿐이라고
도.
우주로
일생
강렬한
시스템과
포용@@
한다는것을
반대하는
오면
알고있다.
맞추@@
사이를
사람보다
점,
아뇨,
꺼내
무게가
거짓@@
국가를
주시@@
위기를
교사@@
만들어진
순
검사
바퀴@@
Car@@
정말로
느냐@@
감옥@@
혜@@
임신@@
요구에
추상적인
펠@@
선택하는
오후
시뮬레이션
엑스레이
쉽다.
여성을
식물이
구축하는
있을@@
수천@@
채취@@
데이터와
뜻은
많을
국가가
1,
중국이
데,
니가
마르@@
놓으면
모양이
위는
우선@@
한다-@@
생산하는
아름답게
쥐가
학생들의
종사하는
이전에는
탑@@
가도
문장을
통제하고
밀리@@
청중@@
제임스
이상을
연극@@
조상@@
팅@@
'가
되면,
회상@@
이따가
합치면
떨어뜨@@
시킬수
장기
꽤
멀지
개발하는
동작@@
조용@@
좋아할
종류@@
넘치는
없었어요
Google
벌어@@
병은
님
독립적인
채
연관이
질병이
암흑@@
저지@@
멀어@@
비극@@
취약한
행성을
비아
폐
못했을
기억하고
반으로
한다면@@
강간@@
예전에
이죠.
높다는
만들려고
납치@@
곳에서나
마,
데이터의
칭찬@@
어라.
서양@@
랜드@@
건물의
과도한
있든
마라@@
완전@@
혀
신용@@
하느님@@
겨
하기가
피드백을
관,
리게
태양의
노트북@@
형제@@
깜짝
치명@@
단편@@
언급할
참석@@
p
스페인@@
순조롭게
설비@@
걸출한
메커니즘@@
들보다
언젠가는
생각하면
주제는
받았어요.
발생을
삼림@@
ell@@
병사@@
압축@@
엄마,
길로
사용자가
수소
든다.
하나하나
속에서,
결론@@
서야
나라,
가정의
곤경에
톱@@
다해
축소@@
최근의
배경을
문화는
없었어요.
백인
이념@@
방지@@
가벼운
설마
됩니까?
증거@@
것처럼.
확률@@
현지에서
비율은
음악에
찾으려고
변환@@
례@@
아담
댄@@
제에
보자@@
상대방을
으로서,
제도
야생@@
빨라@@
군사@@
상이다.
증상을
아름답@@
표시된
평방@@
보호하고
모인
질병
번씩
못했기
차에서
돌이켜보면
하자@@
않아요
사물에
아냐
더러운
29@@
공헌@@
없어,
포기하고
he@@
유효@@
군사
정도를
언급하지
에야
자체에
제1@@
짐@@
입니다."
기관에
누군가
자유
어려워@@
보건
좋습니다.
쉴
얘@@
나게
다니는
둔@@
이상하게
단순@@
T
잃고
가족,
슬라이드를
삶은
동기@@
글자를
열정@@
파운드의
스위@@
제목@@
센터
걸려
선택했다.
나아갈
가리킨다.
배우기
%,
가격은
식물은
일생을
TV
제외하고는
룡@@
75@@
맞아@@
혈액@@
제어
변화하는
계산을
세탁@@
학년
이후로
것"이라고
생물은
루
으라고
지구에서
내부의
아니야
명백@@
통제
없애@@
주문@@
넣어
점의
론의
동시에,
세웠@@
터의
원칙을
이외의
원할
사회,
비영리
뿌리를
테러@@
에'@@
연료
주류
을지
다면.
문은
동료들은
타인의
미치고
공장을
성인
기여@@
실험실의
에게@@
데는
프로젝트
기대하는
병원
모니터링@@
토마스
어울@@
밥
더라고요.
빌딩@@
화면에
대처@@
디자이너가
독일@@
로마@@
30년@@
식품
토양@@
son@@
제품은
보호를
열대
목소리@@
초의
림을
교제@@
잎@@
의사,
od@@
화되고
기다리는
선택에
건강과
놓은
벌을
의미는
늦게
사랑하게
동력@@
노출@@
지하철@@
예술의
문제들은
옳지
낫@@
발생했다.
습관을
펀@@
워야
수업
기억해야
윌@@
정의
누구를
프가
귀중한
암의
자리@@
세에
보건@@
백화@@
행성에
낮추@@
나갈
말하지만,
공식
아버지를
ed
다:"@@
주요한
레
하는가를
아마존@@
자발적으로
조는
런던
은?
것이지,
리듬@@
어른@@
하,
수할
놀
친구들과
불공평@@
공평@@
연방
되며,
효율적인
작동하는
뇌와
시험
빈민@@
약화@@
오기
내렸다.
따르@@
아까
학술
부인@@
향상시킬
비율이
교
관련되어
금이
실질적인
특징@@
사랑한다.
것부터
세운
프리@@
창조적인
빠르다.
성도
지어@@
않았던
일부를
쪽이
역할은
침대
했는지,
당황@@
실이
세워진
짜리
하였고
100만
하다면
충돌이
말했다:
마취@@
부러@@
로스
감염된
대중
준다
파키스탄@@
아무@@
무작위로
.com@@
의미의
성장하는
모르지만
료
제때에
제와
변화시켰다.
법률@@
살았다.
가운데
턱@@
1분
사방을
관점에
공화@@
똑같은
국과
지붕@@
세우는
뚫고
법의
쥐의
그리고@@
종족@@
포옹@@
네트워크가
길고
연설
회에서
닌@@
추측한다.
다.그래서
간섭@@
을까?@@
남용@@
사랑과
미지의
그야말로
수수께끼@@
경비@@
자연을
색이
최대
내용이
에너지와
사무실에
애들이
의자를
세요?
야생
복
도구는
-나는
생물학
조직에
지만@@
안과
건설할
행을
치에
다리에
극
문자@@
주의자@@
이었어요
이미지
형으로
미끄러@@
로봇의
신성한
소개할
일주@@
말하자면
제공하여
가족과
"그는
뚫@@
질의
사장@@
친구에게
분야를
수준이
타협@@
신념을
형태의
감사합니다!
과학자가
상상하기
발전이
높다
내린
하버드
거야@@
건조@@
도이다.
느려@@
저에게
현실에
시작하기
지역사회의
률@@
얻어야
다.그것은
인들의
지난@@
마.
바다로
소중히
버려@@
세우@@
있다는것이다.
민
메일을
꺼내서
스러@@
셨다.
실패를
아프가니스탄@@
동료@@
넣은
누르면
놓았다.
느끼고
되였는데
사무실에서
탈
감동적인
건물은
늘어@@
겹@@
드라@@
배경@@
주택@@
한계를
박한
설계하여
담배를
사랑은
데이터베이@@
애플@@
공학
ig@@
폰
닮@@
짓고
마를
끊임없는
불
였는데,
행복한
계량@@
건축의
ik@@
심한
정보와
잖아요.
상자
때문이에요.
에게만
눈으로
축을
험@@
를"@@
상품을
마음은
보겠습니다.
과장@@
중동@@
2억
옮겨@@
계획
만화를
--나는
법칙은
마지막@@
이든,
령
보여주기
잡지
땅에서
충분하다.
장이다.
그레이@@
측면@@
싶다."
유전자의
버리@@
잡는
가리@@
독립적으로
너희는
하락@@
시작된
인정해야
다원@@
중요한지
심사@@
가르치고
반응
비행기가
해부@@
일주일에
일으켰@@
거칠@@
뜯@@
헬@@
들지
유혹@@
행위가
신호가
다.그는
"로
곡
B
창작
/
터는
관점이
모른다
않기를
너희@@
지식이
느꼈다
언
1은
먹지
'에서
표시할
될까?
기쁩니다.
올라
안,
독특@@
로로
몸에서
운명을
권한을
니까@@
약은
리용@@
근육@@
업무를
였고,
99%
부,
5천만
화장@@
문에
흥분했다.
공기가
가르쳤@@
날을
결정한다.
않았어요
별을
4,
센터@@
스트레@@
적이거나
힌
문화에
졌고,
세대가
전쟁은
률은
닥@@
작품의
움직이지
흰색
적이며,
막기
낙관적인
미터의
달릴
언제나
갇@@
뿐이라는
사물이
족
사고의
과학,
피곤@@
실패한
광범위하게
브를
오리@@
묻지
날아갈
각자
관계
정복@@
시속
섰다.
혈액
변론을
발육@@
유출@@
어머니와
결합하여
돼지@@
치유@@
폭의
교과@@
말하는데,
직면하고
집합@@
역사적
다.하지만
냄새가
통계
개발도상국@@
수집하는
것이다.나는
판의
이후의
절반의
둘,
의식
장기@@
여자:
특허
혈관
데이비드
우림@@
크기가
지입니다.
소화@@
가지기
수컷@@
시도한
5년@@
파괴할
내리@@
진화를
개미는
몰래
좋아한다
색은
경제에
국가에서
기능은
모델의
학생은
수준에
보고서를
렌
자매@@
이스라엘@@
이념은
과학기술의
서열을
선물@@
데도
단어의
추상@@
절반@@
물건들이
과도
종합@@
장애가
회는
증에
"그들은
작곡@@
장소를
쉽@@
밴@@
스테@@
실용@@
페이스북@@
지?"
페이지의
중동
메시@@
자연이
금속@@
스티@@
거북@@
기르는
부로
삼을
엄지@@
량,
해진다.
빈곤
문화,
어떻습니까?
알려준다
옛@@
두려움이
겠다고
남자들이
아홉
들어가면
필수@@
뭔가
공격을
여자,
전에서
론을
지구와
학자가
외과@@
교체@@
같기
두가지
위,
인정하지
즐@@
홍보@@
숙제를
딩@@
크리스@@
기반으로
시와
아시아
동의하지
토론한
에서든
않거나
몰입@@
달린
치게
소음@@
닝@@
핸드폰
미국,
90년대
카운@@
버전@@
누군가는
ut@@
불확실@@
그는"나는
확신할
창문을
나이
스테이@@
원시@@
단일한
PA@@
1500@@
브랜드
기억하는
있었는데
표정을
파견@@
파이@@
의사의
쓰러@@
그것들도
하다면,
인구를
맛을
역사는
걸린다.
경에
휴대폰@@
생존을
아름다움@@
재료는
ob@@
날개를
근본@@
정신과
지진@@
캔@@
불쌍한
마실
아요
간결@@
작동하지
갔는데
변혁을
낮아@@
없는@@
권은
과거에는
임을
좁@@
불가사의@@
연령@@
고자
어디서나
록
료해@@
찢@@
꽉
말라@@
브리@@
고려하지
조금씩
는가?@@
무신론@@
미국인들은
것이다.이것은
빌어
이다.그것은
무대에서
법에
예술가가
커
가슴
파이프@@
ers@@
받아들이는
아프@@
는다고
떠
정보에
헨@@
회수@@
유행하는
변하고
e는
행운@@
멀리@@
보인@@
얇은
탐사@@
지역이
프로젝트에서
기술이다.
대처하는
95%
ec@@
사이트에서
많다고
위로@@
않으@@
필요해
스탠@@
명령@@
얼굴이
생길
순간이
니는
것인데,
깨어@@
세상에는
반복해서
닉@@
수업이
롭@@
10000@@
3만
회사들은
기대를
유도@@
보이게
시킨다
박물관에
의식의
않겠@@
유전
28@@
실례@@
수집하고
학자
나고
뻗어
비할
전파
슨이
살아남을
경기
가능성은
저기
사용합니다.
조로
행성
악화@@
절반
광을
너희가
쓴다.
명명@@
용기를
실시간으로
도안을
해서,
유를
이끌
게놈을
컴퓨터와
단백질@@
개미
모른@@
중심으로
딸이
리아의
아버지
한다면.
석유가
겁@@
오고
그렸@@
제기한
마시고
27@@
시스템으로
.우리는
말씀드리@@
항해@@
개방된
모듈@@
것만
2.@@
계통@@
만나@@
아요.
과거
만,
물고기가
창업@@
웃음)
동물과
공통@@
경축@@
혁신의
상응하는
평범@@
나타낸다.
신념@@
변화와
유지해야
안배@@
전은
날로
스터
젊은이들은
방영@@
나날이
수치는
시민
턴@@
시절의
쉬워@@
시작했어요
설비가
대단한
아픈
멍청한
떨어질
실제적인
만들었고,
병으로
활동은
소프트웨어가
생각엔
나보다
단은
르의
이후@@
본질@@
그린@@
헤어@@
밖@@
끄는
아내@@
서로의
을'@@
음식의
접착@@
가정해
선언@@
적의
바늘@@
터로
있습니다."
마약을
Le@@
25년
한'@@
나타낼
완료@@
의미하며,
능력에
기쁘@@
차원
밤을
제거하는
근무@@
켈@@
편안@@
졌다는
주시하고
규모@@
적응할
직면하게
섬
한다.이것은
제2의
조명
학과
구별@@
아닌지를
아이폰@@
상태에서
네트워크는
키
다음,
디자인한
지원을
페이지
자:
와이@@
재능이
관심
멕시코
그것을"@@
방사@@
거울@@
로켓
들어간
광경@@
가족의
이야기,
보관@@
돌아와
흔적을
하나이다
숲을
뼈
'이다.
x
가정이
창조했다.
원숭이
학술@@
때보다
피드백@@
주택
"와
빨간색
데려다
지각@@
선진@@
언어는
2의
첨가@@
원인
행위
의존하는
고아@@
예술이
원자력
황금@@
크기를
구성하는
약에
매혹적인
처방@@
의약@@
확률은
아서:
음식,
눈은
다이@@
채집@@
동물들은
바란@@
곳,
불가@@
혁신이
커피
어린이의
키스@@
조성@@
시켜@@
터에
배경
옮길
매력적인
도왔다.
개국에서
인민@@
뿐이며,
주의의
도덕
서방@@
원들은
화석
접근할
수요가
해커@@
코드@@
자리에서
짝@@
줬어요
범죄를
원하기
몽@@
달러짜리
크다
원이다.
어렵습니다.
사탕@@
일하게
정도에
가르치@@
시작합시다.
믹@@
규칙이
옆에서
;
바랄
션이
히지
융@@
수량이
지역,
무역
바닥@@
뚜렷@@
형제자매@@
마가
사진들은
맡은
자신감을
모르겠지만
가상@@
적으로는
직시@@
조건에서
괜찮은
art@@
암시@@
세기의
대통령이
결심@@
시절@@
줬어요.
대답을
쥐를
식에
섞@@
아이디어@@
벽이
만화
막는
돈
이겨@@
수명을
젊@@
관중
올랐다.
반짝이는
으려면
스티브
나이지리아
중요하고
통의
게시@@
할까?
언제@@
에이@@
아들@@
관과
나타난다.
마음
오게
군을
현실로
얼음이
불행@@
충격적인
확산@@
빠르고
제약@@
개와
초를
랄@@
발언@@
DNA가
곤충@@
방법입니다.
달러로
맛있는
그램@@
빅@@
꼬박
국경을
파고@@
빠진
발명했다.
잖아.
기묘@@
달을
사랑이
탱@@
학살@@
적이기
주,
흐르는
새를
버려진
33@@
싶으면
나무에
공부할
공식@@
e의
씨앗@@
내적
싹@@
몰려@@
돌고래@@
변호@@
크:
산맥@@
형태를
닿@@
것이다.그리고
당연@@
Q@@
성취@@
자연은
체계가
학교,
자신
탐색할
영
쇠퇴@@
스미@@
탁월한
인생
가'@@
시대를
렸고,
근처에
암호@@
다치게
위안을
주머니@@
저질렀@@
미칠@@
지출을
열었다.
부족하다는
편리@@
되자
행위에
ing
톤@@
형에
있었어요
형용@@
서"@@
견해@@
그림으로
입니까?"
정신적
정말,
지리적
지도는
음식은
파가
시설을
가라앉@@
조직과
기다려야
헤엄@@
노력해야
킬로미터
나라들은
오가
생각했을
도와줄
갔다.@@
벗어나@@
일어날@@
업에
훔@@
가져와
생각한다."
빛과
바람을
예에서
이전보다
기계에
본질을
어렵게
사람들보다
몰라요
토지
계획이다.
국,
지역으로
미소를
저녁에
수이다.
하거나,
문화에서
안은
낮다.
교회@@
컨@@
두는
전복@@
납@@
단계로
특징은
2년@@
상징적인
걸어서
좋았@@
끝내고
뜻이다.
모험을
싶기
셋@@
본을
싸고
요구하는
겠다.
놀랍@@
숫자
명에게
예언@@
성으로
기다리@@
없이,
눈앞에
가시@@
센터의
좋겠습니다.
일까요?
례가
보이지만,
디테@@
도중에
통이
쥐는
대해서는
20억
빠져
계단을
의식은
화살@@
면은
스크린@@
이다."@@
굽@@
런@@
녀성@@
언을
겁니다.
탔@@
중국과
사용되고
무엇인지,
실업@@
지위를
과연
군은
화하여
종교의
박수@@
장면@@
의식하지
식물의
고양이
곤혹@@
색깔이
궤도에
형성할
직면했을
반복적으로
기까지
어머니를
정의는
학자로서
열이
도전이다.
사기@@
시계@@
GPS
물이다.
히는
색깔을
필요하@@
우고
이야."
알아
못한다
감정
어요?@@
요구할
0년대
벗어났@@
연구자들은
셈@@
스럽다.
평가
일이다.@@
받아들이고
읽기
바꾸지
남긴
분자가
니까요.
클럽@@
절을
싸우@@
른@@
입에서
께서
즈의
참가한
달려가
프랑@@
불과하다
있을까?"
시리@@
업계에서
심하게
모른다고
들어갔을
적절@@
장기적으로
경제는
동안@@
슈퍼
박물관@@
현장에서
좋다
the
대항@@
피하는
즉@@
둘러싼
국민이
색과
종래로
새가
음에도
으면서
발견하지
자고
것이다.이
증은
3개월
돌리@@
낳을
소재@@
다르다
크리@@
들었어요.
주관@@
진료@@
민감한
이해가
발자@@
보인다
외국
이탈리아@@
죽음에
인정하는
일했다.
발휘할
돌을
CEO@@
다르지
기지
일깨워@@
표지@@
로"@@
깨닫기
속도@@
우릴
수준@@
간단하지
개에
생물학적
수명이
뉴런을
작품
두개골@@
평소에
가에서
강대@@
통일@@
배,
배후의
예상치
설계에
줄이
찍는
쟁취@@
여성과
고맙@@
궤도를
알아차렸다.
5분
암은
흥미롭게도,
창립@@
실리콘
구역은
약물@@
독립된
DH:
걱정하는
위대@@
"으로
속하는
공개적으로
의외의
유엔@@
고릴@@
엘리베이@@
펌@@
털
이번이
블로그
따뜻@@
관찰하고
단백질
개혁을
나요.
유익@@
늙은
합성
논란이
살인@@
장치는
놓는
절반을
갖춘
패션
개발하고
생명에
숨겨져
결정에
구조와
안고
애니메이션
잠재적
대역@@
자비@@
75%
부동@@
붙어
내부에서
돌아올
모가
대해야
이익@@
，@@
표현을
찾으러
삼아
권리@@
축구@@
못한다면
충전@@
성공의
발전과
2000년@@
느냐고
못했다는
조기
생기@@
변화시켰@@
립
식은
마을의
열어
않을@@
서열
다운로드@@
발견했다.@@
잖아,
결을
감사드립니다.
병원의
그릇@@
가능하다고
없어서는
러시아
문제이다
센서를
선물을
조화@@
더는
라틴@@
ent@@
열정이
이야기하지
걸렸다.
하나밖에
침대에
째
급진@@
주의하지
끝을
사상이
마틴
재료가
엘리@@
예,
고향@@
영향력을
위험은
크에
세요
아름다@@
ry@@
어휘@@
존경@@
대답했다."@@
감사합니다,
MA@@
물체@@
박사
사망
있어도
죽게
장사를
ul@@
도로@@
손실을
포함하고
상태가
실험의
틴@@
정력을
제한되어
회사들이
중국,
포기하지
허락하지
밀접하게
로비@@
건축을
예술에
배이다.
곱@@
증가할
인도,
물속에서
테이@@
트위터@@
나타내는
역사에서
세르@@
여러분도
마이크로소프트@@
슬라이@@
려서
나타낸다
이성적인
학습을
당연하지,
이미지@@
사랑의
감각이
건의를
환경보호@@
"아니,
공통점이
심리적
접수@@
두려움@@
이다-@@
이론에
자인
에는"@@
업로드@@
다윈@@
는것이다.
간을
의족을
사용할수
유방
%@@
렁@@
곤충을
사교
뛰여@@
의자에
폭탄@@
공업
예측을
경계를
친척@@
되였고
생각했@@
19세기
천문학@@
쫓@@
블로@@
사실에
트위터
버섯@@
해왔@@
바깥@@
산물@@
사이트
250@@
물질의
규칙은
해서@@
원조를
종교가
이슬람교@@
교류를
괴롭@@
엄숙@@
사방으로
방안은
성과는
잡았@@
바꾸려고
의하면
상하@@
요즘
학부모@@
수입이
공개
국가에
통제를
신앙을
단체
건물에
공학@@
쓰레기를
멋지@@
밀어@@
표면을
만나는
많기
보자.@@
보상을
호응@@
소리에
개선하는
당신들과
드라이@@
여행
지은
만들었는데
잃을
그래픽
요'@@
사진의
않았지만,
채널@@
이야기하기
결과이다.
친구들은
군대에
이야기입니다.
공유
탐색하고
넬@@
완성했다.
구상을
진심으로
역
미치게
6개월@@
인도가
자금
돈으로
의,
아들을
동료가
래
말했다."나는
특허를
해진
좋아질
용감하게
진행되고
세계은행@@
유지하기
결함이
어떻@@
있어."
됐어.
것이고
기쁘다.
띄@@
듀@@
보여드릴
사고방식을
30
세대를
과학기술은
기술적인
가져갈
처
사랑에
요리를
소리와
내기
어요."
연을
이리저리
g
15%
경험에서
iv@@
실행할
자녀@@
체내에
씨는
이때부터
발생했을
all@@
링크를
할것이다.
노력했다.
고르@@
떨어졌다.
랜드
못한다는
하겠다고
있었고
이것과
하고있는
멤버@@
슨은
귀
사무실@@
국립@@
학자들이
잔을
원자
가정하면
면역
머지않아
류,
Br@@
위반@@
목표
몰라@@
수한
꿈은
직원이
의의를
실험실을
무서@@
뒤에는
단편
유가
흔한
성인이
사냥꾼@@
이타@@
강연은
확률을
농담을
헬리콥@@
불법@@
구입@@
화폐@@
포도@@
싱@@
업종@@
임의의
찍었다.
좋게도
드릴@@
au@@
운전할
전도@@
사춘@@
은하를
약물의
이데올로@@
기포@@
카라@@
블랙홀이
자동@@
말라리아
규모를
대다수의
소리,
보시는
햇빛을
자랄
일에서
아빠@@
혁명은
통할
신선@@
심은
전반적으로
어깨를
방안@@
미치지
비율을
이유이기도
재정
아이,
페이지에
피해를
겉@@
상세한
치로
던져@@
8년에
비밀번호를
실험실
캠@@
이였다.
과소평가@@
프로젝트입니다.
무수한
게.
쾌@@
명도
말했기
성실@@
고통스러운
자들과
창출@@
부담@@
중점을
없는지
인터페이스를
장난감
가볍게
그렇다고
얘기해
패턴이
전례없는
원한다면,
어둠@@
팔이
포스터@@
10년@@
갖지
살지
녀석은
류사한
런던@@
경의
ti@@
가소@@
박
로스@@
보호해야
지속될
었던
됐어
자체를
진을
낙담@@
마의
역사에
게이츠@@
알았다
적어@@
크,
중요하다
안녕,
이륙@@
프는
마일@@
외계@@
돌아가고
우리에
무관@@
통과하는
펼@@
고에
본래
마치@@
확실히,
도시,
형식의
시계를
마케팅
금은
대비@@
생산을
돌보는
작품에
영원@@
공연
그것과
손실@@
종에
우리보다
벗어나게
감,
설계는
었어.
성장할
5,
차라리
발견했기
방법도
열어@@
집니다.
디자인에
강의
생활과
자유로운
제외하고
때이다.
저희도
해보도록
대륙@@
단독으로
아파@@
하나일
호르몬@@
자궁@@
배터@@
부르고
고요.
oc@@
한다.나는
복제
DNA는
이식
메모@@
롭다.
사악한
보세요.@@
척추@@
따르는
골격@@
보이기
뉴런
190@@
주의해야
목표에
모델에
기차@@
저녁@@
잖아요
그렇다면,
기교를
조지@@
독립
입자가
의사들은
이집트@@
데이비@@
피부
충만@@
활동의
동굴
네안데르탈@@
원주민@@
소장@@
사기
해?
층은
회색@@
다르기
파일을
정거@@
국방@@
&
천연가@@
기업가@@
태양이
수도@@
평가를
무인
호주
협력하는
이에요.@@
세계에는
오른쪽으로
높이는
실험실로
성분을
햇빛이
종은
마이@@
빙하
잠재력이
아기는
배제@@
서.
럭@@
하라@@
마라
가?@@
널려
대상@@
나라로
움을
지불해야
좋겠다.
선택하여
PC@@
체중을
합친
섹@@
수축@@
야말로
봤어요
영화의
193@@
개로
사귀@@
죠@@
이야기에서
형성하는
단체의
상어
쪽에는
옳다고
오신
팀에
첫째는
소득@@
맞추고
수입은
기교@@
지남에
것이며
Pet@@
뢰@@
그리스
만났는데,
필요하다.@@
복잡하다.
마이크@@
주파@@
뻔@@
극복@@
깨뜨@@
한다.그리고
현실에서
공장에서
찰스
내다@@
통하는
하루를
때문이죠
다면?
거죠
부른@@
발산@@
산은
기구
법률을
보내야
씨가
5억
20만
타격@@
위생
쳤다
발견했을
음성
올라가@@
연속@@
평온@@
이야기로
아들은
가져다@@
개념에
강연이
종양
달한다.
이용하는
않았는데,
겸@@
재능@@
올릴
취소@@
아니면,
포함된다.
TV@@
경고@@
형태로
환상@@
포함하는
갖추@@
세워@@
견딜
누구인지
지원하는
특징이
최대한
인류에게
의미합니까?
증강@@
르고
연결을
빛으로
경로@@
것처럼@@
애플
플러@@
인식
기억
것이다.그러나
료를
상상력을
박물관에서
정보로
간단합니다.
좋아한다는
사랑,
않는다."
성적인
돌
육안으로
결정적인
공간과
깃@@
유방@@
된다."
드릴
20세기에
안테@@
진단
천연
소비를
구역의
끌려@@
퇴직@@
생각하지만
비아@@
둔
화장실을
베르@@
하늘의
왕왕
클라@@
줍@@
민중@@
지도가
"내
들으면
배는
여과@@
명한
러시아@@
리스
가깝@@
지리@@
문자가
만든@@
암호를
예멘@@
점령@@
증상이
가려@@
세계,
텔레비전에서
보았다.@@
유사
학적
스크@@
물건의
보안
알고리즘@@
사건은
존재한다고
에너지로
화성에
환자와
줄의
망원경을
제로@@
이야기해
사소한
파를
그것들에
높이@@
해요.@@
석이
보증@@
진흙@@
놀고
직원들이
취해야
나라와
비율@@
거둘
싶습니까?
조심스럽게
무릅@@
50
지나가는
산에서
위치한
성격@@
사막
al
에.
흥분시키는
사람들은"@@
인가요?
스러웠@@
사람이라고
분에
있으니까
반대
세금을
원가를
께
계획의
전념@@
력도
체험할
장난감@@
퍼
양이
전기가
스펙트럼@@
누군지
펜을
두려워하는
무시할
섰@@
바뀌고
이렇게.
qu@@
밭@@
이주@@
경작@@
당이
했을까?
Am@@
사랑
정상에
외부의
사이다.
카드
수에서
재로
짙은
6%
소원@@
그림과
적도
마는
였어요
아프가니스탄에서
지난해
이제,
소년은
가라고
이었을
졌습니다.
움
man@@
대폭발@@
P
조류
주유@@
의사들이
향후
거래를
공급
판에
전달할
가동@@
원하는지
윈@@
마디
선이다.
인정을
돌아가야
기관에서
구하고
지붕
온실@@
가스를
아니다."
대할
구역에서
않다면,
이런"@@
단백질이
초가
셰@@
종교는
오징@@
어둠
전부@@
하실
c
썼어요.
바지를
신앙@@
동영상이
연습을
의미하는지
왼쪽의
가능하게
현장
이해는
걸었다.
턴
좋아하기
등이다.
나무의
65@@
높이의
동적
10분의
아기의
지지를
느끼기
싶습니다
스케@@
발행@@
말할@@
마디@@
아무튼
읽어@@
원숭이가
정반대@@
보유@@
경제와
단에
뉴스@@
안이
뿐이다."
아이티@@
환자들은
길은
그때가
머물@@
6000@@
왕
증명하는
죽이고
Ne@@
절묘한
아시아@@
아름답다.
로버트
노력할
들면@@
주겠다.
불가능하다고
증명했다.
알고리즘을
aw@@
화물@@
탐색하는
로켓@@
소통할
통해,
변호사@@
시작
습득@@
딱
웃음소리
인프라
네이@@
설탕@@
개미를
전체적으로
카드가
데이비드:
빛나는
밀도가
표면에서
높다고
나쁘다.
한다.이
것이다-@@
제공합니다.
으니,
로서의
인생은
크다는
공부하는
무한@@
서버@@
대량
경의를
낼수
슬픔@@
박탈@@
많아
란을
현저한
생각이다.
하드웨@@
사고는
확인할
소용이
얘기
잡은
취할
넘을
3억
달러,
시종
마우@@
어에서
월
보스턴
ia
충
페이스북
대화가
어."
만들면
홈@@
세계대전
점과
플라스틱@@
브라이@@
먹여
시대
식품을
생각하고,
재료
원형@@
가게@@
선형
약물이
전설@@
그림이다.
면적은
자라서
유럽과
천부적인
떠올@@
질병은
운용하여
비의
몰아@@
공헌을
이라크@@
광고
하지도
비행기에
충성@@
만으로는
약속을
벼@@
기회는
고려하는
것이다.우리는
전면적인
준비하고
앉아@@
소셜네트워크서비스
쓰일
훑어@@
동력을
개구@@
바쁘@@
부활@@
격리@@
생기는
사지
2010년
대출을
폭풍@@
분투@@
화로
효율을
태어났을
기초로
세포,
가로지르는
세상
재미있다고
혀서
해야합니다.
왔다.@@
진정@@
감상@@
도움으로
조준@@
ro@@
성형@@
엠@@
위기@@
연구했다.
보라@@
흐름을
증명한다.
인이라고
자본주의@@
조작할
미묘한
초기의
논문을
문명을
-이것은
종양을
요소는
이미지는
마이클
답안은
리처@@
공중에서
올림픽@@
변화하고
배설@@
ick@@
2008년
펑@@
정부,
오늘날까지
부문@@
보행@@
"(@@
삽@@
지옥@@
이론
전통을
경찰은
사라졌다.
국민을
약탈@@
수호@@
경험과
꽃가루@@
매체@@
기록하는
다;
연못@@
케냐
알츠하이머@@
영역이
도움@@
교육,
자나
캐나다
잖아
리우@@
디트로이@@
작아@@
변화,
공룡
아가@@
단체에
선택
분비@@
괜찮아,
세는
마치,
Jo@@
지수
부릅니다.
내밀@@
있다.그것은
교향악@@
직장을
엄격한
판단할
차이점은
배경에서
선생님의
거두었다.
했습니까?@@
맞춰@@
분들은
특수
당할
다는것이다.
성장하고
빌려
빗@@
법적
끝낼
여부를
직면하여
냉장@@
닝
않다."
체계적으로
목적이
고려하고
움직이게
것인@@
프린@@
증,
익숙하지
후로
매개
말할수
노래는
el
정확하지
새는
위와
슬퍼@@
아래를
인식하는
후회@@
신문을
싸우고
구글@@
재활용@@
로스앤젤레스
틸@@
북부의
런던에서
냄새@@
장소@@
맛이
반은
긁@@
곳에서는
동료들이
이다.그러나
노
과학자,
제공했다.
포식@@
스튜디@@
앞서
백신
그때의
협상@@
r
좋아합니다.
투
재정의@@
청년@@
명령을
신선한
자세를
여성에게
Ar@@
20년@@
락
사실대로
뭐라고
좌절@@
딸을
완화@@
으로서의
효율적으로
예상한
않기로
전문가
삭제@@
(SNS)
정도는
보라고
내기를
고속도@@
이탈리아
마케팅@@
교통수단@@
사무실
운명@@
시도를
우리처럼
시로
지식은
상태는
동기가
거리며
였기
핸드폰@@
12년
떠나지
모델
동영상은
브라우@@
계,
이것보다
방사선
불러일으켰@@
적이고,
정할
개설@@
직접적으로
감지
피트의
몸으로
심각하게
증거는
시각으로
임신
살을
6만
구분할
편견을
일한다.
치,
키를
키보@@
반에
소원을
강연의
고기
변형@@
율은
자세@@
똥을
목이
한지,
알아요
눈의
착각@@
나에서
겼다.
인도를
증오@@
시위@@
내면의
가르쳐@@
곧@@
기생충@@
자연적으로
기름을
감정은
활발한
이다.이
표시를
공간으로
싶었어요.
5분의
es
여정@@
원조
수술이
열중@@
안전하고
30억
기억하지
번호@@
물고기
선택해야
ub@@
정렬@@
신발
당장
도로를
지하
주민@@
태양을
관중들이
혐오@@
데이터,
국립공@@
토끼@@
방울@@
알아차렸@@
입양@@
암,
가열@@
았다는
시험을
비행기@@
알고,
이동하는
고래
바닷@@
무겁@@
태평양
활발@@
보가
노력하는
만연@@
노트북을
진화는
쫓아@@
부끄러워@@
리아에서
자주@@
출근@@
올랐@@
믿는@@
라고@@
부상@@
재창조@@
차지한다.
SA@@
크와
있다,
무게를
범위에서
능가@@
덕@@
동맥@@
전례
상황과
교훈을
옳고
까?@@
말,
무엇인지를
위기는
물건에
박테리아@@
자격이
영어로
공기@@
왜곡@@
공장
초청하여
있다.그래서
교류하는
바꾸면
터와
단락의
즈는
av@@
싸우는
없거나
발의
가르@@
경우에
수집할
습관이
다국적
소비
부에서
있니?@@
시대가
"응,
법으로
속한다.
준칙@@
말한바와
생물들이
3년@@
단체를
모으는
걸리@@
도구와
기관은
시작했는데
카페@@
떠올리게
보여드리@@
무릎을
돼서
소년
놀라서
CO@@
부딪혔@@
리더십@@
훈련
스크린을
하든,
결혼
초콜릿@@
지금부터
상당한
가격
발전시킬
예일
산,
중요한@@
버전을
일으킨
정신적인
좋아하고
이민
조절할
자연에
였습니다.
왼쪽은
40년@@
치료에
적으로@@
물려@@
랍@@
살아야
샀다.
쥐고
영어@@
끼를
놀라@@
움은
에서'@@
크기@@
자동
실현하는
문의
따,
브랜드@@
예입니다.
텔레비전@@
동생@@
거야."
돌볼
갖고있다.
와야
생각지도
하다가
협조@@
제공하고
우리,
곳에는
창조력을
된다면,
보거나
ard@@
가공@@
인간을
저작권
파이프를
물도
하느냐@@
소녀는
엘리트@@
합법적인
다음날
로드@@
모호한
드리고
온도
정도가
화면@@
회사,
벌이
되여야
생각에는
질,
어렵다고
21세기의
영양
게임에
뿔@@
사실이다.
인치
우회@@
달할
떠나는
뉴런이
배터리를
보아@@
"네,
두려움은
블랙홀@@
브라질@@
구덩@@
아프리카계
연맹@@
피부에
게놈@@
재정@@
사진작가@@
스테파니
형광@@
만들었는데,
지도에
까요?@@
합쳐@@
멈춰@@
나면
을까요?
번이나
혁명의
없으며,
받고,
임무
욕이
일하면서
고객이
퍼뜨@@
미친다.
등등@@
이다.그리고
센터가
체계적인
하지?
되었지만
장점은
운전
국경
하늘로
9년에
핀@@
목에
교육과
힘들@@
불러일으킬
만들었어요
다른@@
ll@@
즈가
관여@@
없습니까?
출할
얘기하고
틀렸다는
회복할
촉진하는
수치가
현실은
비용@@
률
틀어@@
지었다.
가속화@@
컬@@
전승@@
음악과
인터넷과
추적
좋다는
이곳@@
디가
롭지
첨@@
즉흥적으로
동일@@
The
뜻인지
이야기해야
Facebook@@
완벽하지
구석에
포스터를
표현하고
분들도
아버지,
부근에
모자를
됐어요
었지만,
어렵기
거리와
농촌
그동안
있다면.
리익을
인식하고
회색
군락@@
2천만
초래했다.
아내가
저한테
남성의
실의
지도자의
그러니
버는
째@@
농촌@@
방정@@
하면@@
지식의
킹
안경을
왔다는
으려
거래
방식도
들어야
에이미@@
얼마@@
수준으로
탐구하는
높습니다.
작동할
집중할
순환
흠@@
그렇죠?
인가@@
문화와
꽃을
하를
외출@@
수송@@
가뭄@@
끌
올라가면
제2@@
지평@@
을까
세대는
초래하는
학은
의미하기
가장자리에
수영을
떼어@@
지름@@
다운@@
들어섰@@
끓@@
남아프리카@@
방안이
실수@@
수색@@
만족시킬
캄보디@@
성별@@
춥@@
한번은
로이@@
깨달았을
해지기
행동으로
격려하는
제이다.
여자와
산책@@
인터뷰를
너희들도
따뜻한
저녁을
덜
것의
겪었다.
타의
내려
원숭이@@
낫다.
기대하고
ud@@
산과
스포@@
설계의
살았던
얼
30분
이해한다.
파괴하는
꽃이
쓰여
200년
눈물을
시간당
젊었을
까마귀@@
경우,
시절
독이
재미있고
갖추고
관찰했다.
내셔널
일생의
거울을
비정부@@
재단@@
획득@@
가깝다.
주력@@
더미@@
애니메이션@@
륜@@
향을
미생물
수중
도표를
즐거@@
화되어
모기를
기름
왜?
많든
쌍의
레스터@@
폭탄
작용하는
항공
움직이고
펭귄@@
마주하고
대화는
이윤을
상관없다.
선구@@
논쟁을
간다면,
정책이
위원@@
야외
비행기는
스캐@@
아니야.@@
바꾼
올라가는
주제가
설명하고
외국@@
비용
가치관을
시작합니다.
무서워@@
매개@@
피아노
아담@@
알수
없었을
귀에
즐길
편에
작가
정과
생겼을
그래서@@
수천만
내려다@@
이야기와
하더라도,
괜찮다.
생각했어요.
이집@@
런던의
생겨났@@
어렵고
승객@@
겠지만
좌우@@
껍데@@
내장@@
붕@@
두드@@
뇌로
해는
제기할
토를
생태계를
선포@@
백신이
러시@@
통해서@@
ar
이메@@
렉@@
같았@@
남녀@@
9월
보입니다.
조직에서
아닌가?
이름
애
니까요
세기@@
사용한다면
문명
자원의
죽지
그라@@
없다"고
연계@@
국으로
우리가"@@
불쾌@@
산꼭대@@
일어날까요?
경험한
요구했다.
선,
한다.그러나
당시에
는것을
고속
스턴@@
스위스
알지만,
주목할
.이것은
상상력이
자루@@
달리는
우편@@
시야@@
나한테
사용자의
젠@@
사람입니다.
명확하게
앉은
많아서
고문@@
진실은
재현@@
앙@@
성한
예측
M:
리스트@@
맞이@@
이처럼
행진@@
정상
암컷@@
공룡이
구조,
짐을
모델과
천억
힘으로
쉬지
서도
얘는
이름으로
교류하고
링컨@@
전구를
골치
한가@@
이스@@
조류를
배척@@
내부@@
MRI
제작
대응하는
모든@@
제공해야
공이
물론@@
팀과
랩@@
추가할
삭@@
폭탄을
비축@@
밍@@
차로
경력을
해결하려고
나서서
무엇일까요?
숲에서
본능@@
졌기
색깔@@
알아요?
츠
초등@@
영역은
트럭@@
알아차@@
의외@@
영혼@@
.이
시시각각
처를
린이
알려줄게.
연소@@
전파할
텔레비죤@@
7년에
곰팡@@
정책에
왔기
보유하고
케냐의
뉴턴@@
"그럼
문명의
늘릴
싶어.
응용을
진균@@
모바일
펭귄을
힉스
화이트:
아인슈타인:
들.
생물에
바다가
동물에
140@@
단번에
수만의
샘@@
액을
산으로
연구해야
3주
율
사고와
중시하는
걸려야
제도가
공은
적으로나
올림픽
통제력을
업계
생각해봐
CD@@
지역에서는
수업에서
신문
좁은
하의
보조
대중을
도전이
며칠@@
로에서
모습으로
성적이
일으키@@
지역사회에
파티@@
층으로
샌@@
션은
증과
간호사@@
문제에서
낮추는
주와
노동
클
촉진할
경제학자@@
10~@@
재미있을
상태의
톤
변한
브라운@@
연결이
링을
이랑
마이크
느리@@
라디오
땅
에피소@@
이유입니다.
손상을
한쪽에
싶어한다.
팔레스타@@
외진
캘리포니아의
옹@@
Ma@@
하나씩
소비하는
집,
경우@@
스위치를
램@@
헌신@@
꼬리@@
추운
인"@@
백신@@
노력해
신뢰를
전만
인간성의
가?"
ord@@
밤새
이끄는
에워싸고
론은
학,
들기
정서를
이집트
비료@@
기구에
48@@
기쁨과
데이터로
능력,
알려준
연관@@
차세대
엔지니어가
원형을
결과적으로
든지
결승@@
북미@@
HIV@@
애완@@
에너지,
샌프란시스코@@
했다.이
중앙
생각하는데,
사망률을
강좌@@
쥐
견해는
녀석이
두렵@@
보잘것@@
대하고
2:
널@@
친밀한
여기를
요점은
줄에
배우지
감정의
아내와
코끼리
나가@@
나무는
자연과
레이저
연락을
있다가
붉은@@
온난@@
5백만
예방할
남편은
방법과
그나저나,
부근의
아마도,
부처@@
지난주에
내부에
예정@@
바퀴벌레@@
인간에게
덜@@
않아,
명확@@
유익한
릿@@
시작하겠습니다.
범
무리를
악몽@@
야겠@@
가끔은
공부하고
펄@@
현존하는
터에서
세우고
콜레@@
생각,
삶에서
그리워@@
풍부하고
2500@@
전쟁과
유대인
박물관
킬로미터@@
쓸@@
입에
남부
경쟁을
유인@@
했다면,
고도
장면은
환각@@
기록이
어머니
맨해튼
생명과
컸@@
관찰
남극
냉각@@
의심을
In@@
한적이
결정은
관광객@@
이상하다.
무어의
은유@@
대립@@
일으켜
0과
안전하지
ne@@
벌채@@
컴@@
꼬리를
은하
침식@@
예상하지
미국으로
줄기세포를
모기장을
학과@@
돋@@
크리스:
단에서
함량이
생물학자@@
새우@@
세균을
가까이서
존재해
체계는
리듬을
놀이를
몇몇은
유전자에
유리한
부끄러@@
호는
각국의
받았는데
나누는
성공
독일의
선생님을
있을까?@@
해상@@
학교와
돌릴
잘하는
도전적인
무릅쓰고
국가들이
동료
민주주의@@
부모님이
품은
모색@@
켄@@
말하려고
참가할
죄송@@
계속할
주식
건네@@
인상@@
도서@@
빚@@
언어와
운동과
하자면,
손님@@
단락을
ang@@
용감한
멈춰야
요"
소녀의
변화이다.
2백만
있지?
먹은
이거@@
시골
체득@@
시티@@
덩어@@
열린
버클@@
했다.이것은
해안에서
생각했지만,
광활한
소용@@
킬로미터를
마련@@
념@@
대통령은
소말@@
포
회와
쯤
비밀
대체
장례@@
어디를
여긴다.
비행기에서
46@@
고전적인
알지만
주려고
la@@
잖아@@
안정된
계산해
위성이
보도를
깨끗@@
찾았다
얻었다
원하고
시인
끝없는
뿐만아니라
제출@@
극적인
드물@@
우수@@
피실험@@
넣어야
것들
일리가
분만
다투@@
부드러운
움이
사람들처럼
사상은
사슬@@
판매하는
집과
중간@@
주목하고
대충
애니메이션을
사망률이
사망률@@
선고@@
되고@@
발생하지
화려한
숫@@
대리@@
남을
그루@@
시야를
중요해요.
이중
멈췄@@
장점을
때를
실현하기
의존하여
도구
보시@@
초상@@
있어서,
있죠?
야?@@
흥미롭다.
편견@@
자연에서
표면의
무기
상황이다.
피부를
제품에
키울
할머니가
필요하기
받침@@
이미@@
모욕@@
소설을
붙일
기계로
불안정@@
가지만
둘을
격차를
나와서
세요.@@
나타나기
항의@@
운행
임시
있듯이
직립@@
오랑우탄@@
않았지만
신호는
아들
정의가
이론의
주의와
베니@@
식민@@
알잖아,
않으며,
페르@@
하나님이
교를
나쁘지
다'@@
받았고,
매체의
3.@@
알파벳@@
름
사전에
분밖에
파리의
소재를
호텔
정착@@
따른
라벨을
를'@@
인코딩@@
라에
게이@@
10억@@
물었고,
대출
학에서
무기가
비,
달리@@
이웃
뇌물을
웃음소리는
격려하고
끼고
우유@@
월마@@
추를
변한다.
항목@@
계약@@
자동차에
테러
L:
사이트의
비행체@@
쌍둥@@
존엄@@
옮@@
알리고
데릭@@
말고,
릭
구에서
공산@@
유전자는
생동감
유감스럽게도
천성적으로
슬프@@
선수가
즐겁@@
이해
고객을
일관@@
하는가?@@
모습인지
0년대@@
아시아의
디테일을
있듯이,
2000년에
해냈다.
설사
변호사가
했으며,
내부를
블록을
글자
세에서
품고
텍스트@@
괴짜@@
사람들이"@@
이야@@
틀을
스며@@
흩어@@
병원을
넣어서
관념은
행위의
알려드릴게요.
추산@@
12
영향력이
터치@@
으로만
노력한다.
관찰한
찾을수
정신분열@@
어린이를
실용적인
시연@@
없어도
알렉@@
않았다면,
듣기에
목소리는
David
못했습니다.
하시는
중한
기자가
친구들을
간다면
보기로
le
고리@@
질문
구부러@@
곡선을
여행할
앉을
물건이다.
삶이
먹으면
갈색
프의
커버@@
무섭다.
규칙에
행하는
공포를
메시지는
뛰어들어
20~@@
설명을
올렸@@
인가.
못했지만,
용기가
사람처럼
끔찍@@
막론하고
떠나야
지도자를
더니
담
위안의
법칙이
살아
당했다.
마치고
부족
감당@@
교실
마시는
합병@@
않니?
얼마를
바늘을
결정해야
실패할
조에
반성@@
아니라면
건강하고
터,
달라요.
무엇인@@
해안
개발도상국에서
강조하고
죄송합니다.
시적인
견해가
복구@@
안녕하세@@
않는가?
a는
충족@@
순간은
과학자
여정은
힌@@
글이
영화'@@
못하기
아세요?
..
도와야
에게"나는
있느냐고
예술,
죄수@@
학적으로
1에
니를
인체에
최전@@
못하면
이해하게
초월하는
의견@@
사각@@
찾아와
곳곳에
이곳으로
스크린에
모을
질문이
줍니다.
골라@@
에너@@
레를
신형
사용하는지
수여@@
알잖아.
튼@@
제창@@
구조로
침팬지@@
평가하는
공감대를
아프가니스탄에
권리
크리스가
빠졌@@
수요에
해석을
기초적인
진열@@
국왕@@
홍보
정치에
신분@@
에이즈에
썩은
량에
덮여
감상할
설명했다.
와트의
기업을
피드백
여러분들에게
구축할
기하학적
1950년@@
잡지의
위축@@
스러워@@
발전시키는
얻어
작업은
발견된
계발을
건설하고
어색@@
인수@@
돌진@@
웃고
서열@@
오디@@
타당@@
자원은
인도와
증가하는
엔진을
이리
이혼@@
순서를
비둘@@
사진으로
가스@@
항목을
6월
섬에서
정치,
원한
중국을
스마트폰@@
가스
석탄
중력@@
즉각적인
눈앞의
뱃@@
시계
바르@@
eb@@
"당신의
살기
됩니다.@@
있으니까.
진다.@@
망원경@@
자연계의
(관객:
2년에
사랑하고
곱하기
블로그@@
석방@@
테두@@
부양@@
평방
머리는
심원한
움에
기업은
고장@@
두뇌를
고양이@@
악기를
동물에게
지할
즐거워@@
만드@@
수준은
하나라고
수업에
썼는데,
분리된
좋은지
복종@@
최대의
기사@@
중요하기
행사@@
11
우려@@
배려@@
의회
젊은이들을
급히
음악,
저렴@@
처리하고
준수@@
일원이
싶은데
가요?
지나간
이르@@
소수@@
막이
입자를
갔어요
일어났다
성적을
분명한
영구적인
교류
커뮤니티@@
주인공@@
없는지를
것들,
건지
듯이,
중점은
뉴요커@@
기기
분화@@
쓰여@@
울음@@
프랭@@
묻는다면,
지연@@
욕을
씌@@
며"@@
던지는
예산을
둘러싸인
쓰인다
수집하여
게요.
관계,
생각해냈다.
스타일@@
고한
이브@@
든.
직
끄@@
먹었다.
장래에
양보@@
일어서서
해저
근절@@
싶지만
어디에서나
달이
센트@@
행운을
사이트가
시에서
아빠가
하나님@@
일생@@
어머니,
남자아이@@
할머니는
그럴@@
911@@
있다면@@
인생에
쓰게
기술적
찬성@@
발견했@@
것인지,
옥수수
신흥
왔고,
찾는다.
입학@@
판매
버전의
종이에
바쁜
나타난@@
손에서
의지할
곳과
가정과
사용한다
오른쪽은
바에
아래에는
해결하지
프로그램의
령이
치료가
질병으로
대사
헤엄쳐
5~@@
십시오.
블랙@@
팩@@
해변@@
칼을
성장은
동정심@@
희망은
유지
47@@
군중@@
앤드@@
ill@@
왼쪽에서
잡지에
주목을
TED가
하라는
킨
맞았@@
남자들은
60년@@
옛
원료@@
버스를
테이블@@
그곳@@
하늘에서
일하기
영광입니다.
위성을
미국인
재난을
파운드를
불균형@@
성분@@
식사
것입니다."
강에
기록할
의에
일이야.
견고@@
시아
지역사회@@
리비@@
진화하는
없습니다.@@
강아@@
화학물질을
의족@@
직관적인
혹@@
오바마
PM:
이야?
무릎@@
관절@@
발걸음을
is
대법@@
것은"@@
할것인가?
기적을
집단이
데.
운영하는
그렸다.
아니다;@@
불행한
없는,
수명은
착용@@
십니까?
일부로
빈곤에서
휴대전화
싶은@@
설을
추세는
멸망@@
문헌@@
효과
시작했기
남아프리카
단체가
꽃
현미경
알코올@@
2를
비참한
스포츠
망이
쓰고,
실명@@
운전을
햄@@
로워@@
집중하는
근원을
문으로
에이즈@@
오락
알파벳
사이트는
캐나다의
크루@@
프로그래머@@
5년에
대중이
관련된다.
주변에
상위
회로를
뉴런의
원주민
GPS@@
아.
개발도상국의
빵
10배
건축에
시키려고
조심해야
글꼴@@
to@@
론이
민주주의는
21세기
씨앗을
그렇지는
해석할
센서가
칩을
더하면
마크:
지.@@
액
밑에서
오른
출한
합
둘은
말하는"@@
받아들이@@
프로
능력
뿌리
직장에서
20년이
인재를
캐나다@@
자문@@
금과
그러자
표현이
자에서
선생님과
농작@@
분자는
감정과
구경@@
가득한
소매@@
하여"@@
엑@@
셰익스피@@
소설
강대한
거예요?
하세@@
잠깐,
찢어@@
해답을
단서를
종교에
매사추세츠@@
공과@@
주식@@
게.@@
권,
연방@@
구체@@
앤@@
유권@@
오페@@
받았다.@@
손가락
진행하고
지르@@
변했다
마이크를
&@@
다큐멘터@@
해안에
긴다.
글
습니다@@
전환
전사@@
전시회를
차지하고
쌓여
역에
날에
조각이
사러
물었다
추
전심전력으로
실내
복합@@
눌@@
나기
궤적을
물고기@@
고래의
왔으며,
자금@@
이상,
나타났다
이용해서
줄이고
한쪽은
뛰어넘@@
선량@@
므로
John
회고@@
지도자는
완성해야
남자,
탈레@@
미디@@
이에@@
덥@@
견을
조치@@
야구
영웅
기근@@
아프리카가
되었습니까?
편안한
쏟아@@
값싼
추세가
적극@@
목록을
위협이
부모의
도달하는
있니?"
공장의
같은데,
데이트를
결
지나갔다.
미시@@
때문에.
여성,
스카@@
목격했다.
탈출@@
기라고
방글라데@@
운송
처리하기
죽이는
건강하게
터무니없는
메커니즘이
원래@@
세까지
오른쪽의
할것을
개인이
출산@@
경로가
발할
전환을
도"@@
포위@@
태어@@
찾으면
치기
스입니다.
섬유
42@@
뭄바@@
함께@@
이점을
추진하는
나요?@@
환상을
업데이트@@
강제로
시대는
e가
수평@@
린다는
옮기@@
류와
흥미@@
자유의
Bl@@
방향에
침략@@
미치는지
벽의
모의
카메라로
첫걸음@@
쓴@@
나누었다.
현실적인
움과
동물이다.
력이다.
놓아
행동의
피아노를
모방하는
Sp@@
손은
모으@@
족의
생식@@
새끼@@
스캔
양육@@
길거리
흐르@@
아파트@@
무더기의
분명하게
생각했다.@@
소음을
가이@@
대신@@
닐@@
추출할
로.
디자이너
마리는
추적하고
취향@@
조롱@@
분명히,
잔
똑바로
하니?
약품@@
로동@@
분야는
오류가
해마다
몸과
가슴에
배우게
국립
옹호@@
이슬람@@
코란@@
스스로를
권과
삼림을
되었는지,
200만
살면서
있었으면
가죽
지혜가
지질@@
꿀벌@@
고객에게
연설은
봐도
업계의
최소
괜찮아@@
연속
관하여
라덴@@
만질
남자아이가
상처가
난다
무엇입니까?"
진찰을
기능의
만약@@
도처에서
캘리포니아@@
무
발명을
웃음소리)
ov@@
포괄@@
알려준@@
조,
힐@@
작용
그럴까요?@@
생각했는데,
"아,
체계의
미를
자라면
코드가
비행할
해킹@@
테러리즘@@
밭에
체계에
시스템이다.
절대다수의
사망률은
견해에
제곱@@
흡입@@
공장@@
축은
비례@@
법칙에
소송@@
수량을
소행성@@
의식에
초파@@
익명의
달팽@@
골프
외상@@
알려져
찾게
"그것은
오기를
180@@
털이
참,
말한@@
이익이
중을
횡@@
성인의
짧게
이윤@@
믿어야
주겠@@
점심
국한되지
졸업생@@
격렬한
노란@@
공평한
요구한다.
2000년
인재@@
탐지할
보고서@@
엿@@
인체의
과학기술
오늘날@@
법,
러의
은지
벽돌@@
커뮤니티
언론이
분석할
기술도
말했듯이
개최@@
우승@@
자동차는
부정행위를
일이기
생애@@
론에
증명하기
기관
포함해서
라와
브레@@
소프트웨어는
화합@@
장소에
일부러
것이다.그래서
이었습니다.
장소에서
었죠
머릿속에는
6년에
극장
스코@@
집중되어
존재한다
말했고,
걸려@@
치면
알아?@@
여러@@
구름이
아내를
논평@@
아닙니다.@@
유럽에
좋은@@
낙하@@
머물렀@@
시기의
전시할
먹어야
에선
좋아한다.@@
딘@@
참관@@
오해@@
반면
어둡@@
지지하고
정은
응용할
사라진
대처하기
닿을
여기서,
최저@@
나눠@@
두꺼운
누군가를
보여준다
년은
생일
자랐다.
강하고
되는데,
장거리
좋았다.
10분
여,
내리고
찼@@
펴@@
18개월
콘돔을
운지
냅@@
필요해요
나머지는
소프트웨어@@
드립니다.
관대@@
거야?"
암으로
어땠@@
사전
죽기
트랙@@
신호
정보도
시카고
고령@@
장악하고
10개의
증후군@@
합격@@
랜드의
연상@@
0년대에
단계가
격려할
점심@@
80년대
떨어지고
해주@@
변화시키는
올라가서
작가가
대략적인
때와
믿거나
벗어난
날고
있는가를
갈라@@
6개의
지느러@@
군요
웠다
굴복@@
한계가
동정심이
밧@@
편안하게
거대@@
시간도
단어
"우리
기반
우아@@
의료보험@@
스탠포드
대표한다
기록되어
언은
다."나는
밀려@@
발기@@
이루지
달성하기
고고@@
힘에
공의
날부터
구름
프,
장애물을
불안한
드레@@
생각으로
호기@@
파운드@@
제어할
밧줄을
er는
입니다:
날씨가
추억@@
교배@@
결과,
신생@@
G
마을을
재가
온실
지금이
컨설턴@@
지도자들이
대다수는
오도@@
제거하고
동물,
부족의
어차피
잡지를
호랑@@
추출하여
고양이가
발광
플라@@
Re@@
로만
지향@@
코드
드입니다.
전염병이
명인
진화에
누구의
인으로서
들게
첩@@
전수@@
고마워요,
요!@@
건설에
부락@@
상적인
위치
물체가
노선을
정치를
아리@@
각도로
선출@@
개체의
독
BC@@
못했다.@@
무게@@
매체가
잭@@
성별
','@@
기사를
현상에
젊은@@
Ste@@
제거할
가베@@
시력이
야?
거죠?
갔습니다.
창의력을
의는
기괴한
임금
그중에는
보아하니
시작하고,
포획@@
정치와
진전@@
린을
프라이버시를
남다른
파운드
대규모로
파트너가
큐@@
대전
마술을
줄이기
조언을
불가능하다.
해당@@
.)
천연@@
스라는
물질
밀
맞아요.
거예@@
민주주의의
아니에@@
R
햇@@
취하여
숲에
주었는데,
이내에
영웅이
적든
전제는
협력하고
관계의
뾰족한
미묘@@
기억은
직업을
70년대
원자가
은하가
바를
어려움이
좌표@@
왓@@
발작@@
곳곳에서
논란@@
비밀번호@@
에볼라
스트레스가
개미의
모기가
머스크:
앨@@
한것이다.
진지@@
70년대에
놀랍다.
지진이
튀어@@
주의는
것들에
헛@@
차가운
Sc@@
누릴
사상의
활용할
수시로
핀란@@
배경이
미만@@
룩@@
당시에는
한국@@
지도자들은
개성@@
기준을
과학자와
각도를
요약@@
예술가
것인가?@@
됨에
제공한
프랭크
찬양@@
호기심이
6천
분포되어
발로
이야기도
적이지만
했다면
시작일
각지에
전파를
시합@@
2분
만든다
가능성@@
있어?
퍼센@@
시키면
아버@@
조화로운
다운로드할
만나
소프트웨어로
드:
겸손@@
표시하는
량이다.
유람@@
oy@@
감에
린다고
두려움
하기@@
플라스틱을
북
소량의
유기농
깨끗이
식당에
모습이
현대의
랐다.
스위치@@
물질은
확대할
줄어들고
돌아간다.
지역과
추적할
필요하고
맞출
조직,
잘하지
노력이
평화로운
건설을
거대하고
만으로도
예외@@
치료법을
얻었습니다.
결정했습니다.
해결책이
건데
받았어요
그에게"@@
결말을
티는
지키@@
구축하고
여서
세워야
믿음@@
요구
2007년
ran@@
야?"
도둑@@
보아라.
이도
나무에서
7년@@
는데@@
주위
퀴@@
변
살게
듣고,
농민들은
비교하면
농민들이
범위@@
말살@@
점유@@
당신들도
섹시@@
렌즈를
하버@@
연구와
이쪽은
청소년
훈련시켜
편지@@
패턴은
고의
있는것은
집착@@
핵심은
긴장을
뱅@@
자극을
강연
삼는
높고
왼쪽@@
공간,
보기@@
금방
할게.
명이다.
동료들과
알려주기
걸려서
것일까?
바꿔@@
15
물건으로
받아들여@@
욕망@@
화한
발견이
은--@@
마우스를
접을
능숙@@
부자가
그래
9%
패턴
a가
얼굴은
장착@@
선생@@
돌아가서,
이야기한다.
스웨덴
무의미@@
정사각@@
형태가
쳐서
튼
들어간다.
발명은
구멍@@
발표했다.
저장할
메이@@
원리는
회로
유동@@
소원은
공립@@
전화로
다릅니다.
이식할
염색체를
A,
소개하고
트랜지스터@@
동작
기술적으로
장기를
동등한
교회에
사용에
공격
들어봐,
체제를
지진
무력@@
찍고
생활하고
왔다고
동일한
활성@@
멍@@
세미@@
대담한
치며
부녀@@
마지막에는
오의
3개월@@
소녀를
일해야
관으로
령을
동전을
전용
지지할
당의
마찰@@
끝이
슨의
언덕@@
선별@@
포드
행동할
빈곤한
청각
공중에
담당하는
비정상적인
절대@@
소개해
선형@@
4만
맺을
열쇠@@
살이었다.
대항하는
브라질의
씨,
비추@@
일상생활에서
많은데
캠퍼@@
간소@@
레이
였지만
설립했습니다.
억의
해석하는
살펴보고
많습니다.
작다.
스티븐
동정을
범위는
본질적인
깎@@
분쟁@@
s의
옥수수@@
싶습니다.@@
매니@@
가져다준
기준에
과목을
동력
사람만이
기초하여
브래@@
않는지
때문이@@
경청하는
트로@@
ay
상어@@
탄소@@
별의
그림자를
박쥐@@
원리@@
벨
오염
코카@@
훈@@
해파@@
각기
태평양@@
대표적인
누르@@
대체로
마음가짐@@
터무니@@
해."
크기는
높이고
였는데
제고@@
싱가포르@@
보장하는
받아들여야
중심
들로부터
가능하다는
케임브리@@
분자의
스페@@
것만이
우주선을
언어,
투영@@
우리는'@@
프라@@
을까?"
하면서도
할아버지가
아주머니@@
싶지만,
규정을
뒤뜰@@
오염을
전까지만
있었지만
가능성에
실리콘밸@@
고도의
증가를
통계를
고품질의
물어봐야
유래한
연주를
두드리@@
뇌졸@@
탐구하고
적인@@
무리@@
이다.그들은
내면
사용된다.
감격@@
놓아@@
추적하는
관중들은
ug@@
가는지
인식해야
쓰레@@
역에서
인치@@
식량을
고의로
뒤떨어진
배출
행동해야
검사할
자원과
수신@@
나아가@@
소아마비
겨냥한
2004년
이루어진
만나면
설명해야
이보다
직업이
물어본
발가락@@
믿었다.
기업에
전문가의
여왕@@
결정이
방과
세워져
포지셔닝@@
병과
식당
외부@@
방면을
즐거움이
극복할
책,
봐라.
늦추@@
처해@@
얘가
21세기에
보았기
인다
엄마
인프라@@
풍
관통@@
당대
줄여야
막고
덕분@@
단어로
원칙은
있었을
양식을
고전@@
읽지
씨
불에
나아가고
씹@@
건물에서
변하기
없었다.@@
뛰어넘는
갚@@
물속에
절호의
사탕을
메뉴@@
입장에서
지불하고
검은색
빌려@@
제공하기
Jos@@
an은
식탁@@
요".
무엇으로
구나@@
하는가?"
문과
의자
자외@@
진행하여
w
하였기때문이다.
안다.@@
구역으로
등은
거닐@@
일으켰다.
s는
평균적으로
ES@@
함유하고
통에
사업이
물고
스페인
뒤섞@@
주셨@@
심의
관리할
엮@@
터키
없앨
나는@@
순전히
글쓰@@
성장의
벌레가
칩에
중합@@
시작했으며
혁신에
의사소통@@
새롭고
대상을
주시겠어요?
생물학의
곤충이
국한@@
침투@@
재구성@@
존재하고
변화도
권력@@
베트남@@
a,
di@@
기록하고
집결@@
시작된다.
원형
판으로
차와
나아가는
72@@
인가
체결@@
협력할
법과
원합니까?
차량
사업의
채울
꽃가루를
하늘@@
다니고
스타일을
같다."
나이에
데이터베이스를
하늘에
맴@@
규칙과
변혁이
같기도
전적으로
수사@@
발표할
출신@@
이래로
군에
없었고,
들려주고
의무@@
숭배@@
치즈@@
민간@@
비만@@
구역
함부로
돌고
구급@@
사업
350@@
방어@@
해라,
거지?
그룹은
만화는
급의
저희@@
공원@@
생기고
그런@@
발생
미생물@@
터키@@
적에
서비스가
섬에
장담@@
지구온난@@
풍력@@
웃음소리@@
그룹을
짚@@
잠깐만,
못한다면,
글씨@@
우세를
은하의
설립했다.
사물은
2030년@@
최적@@
고립@@
고소@@
할리우@@
혈관이
죽이@@
성능@@
벌목@@
아르@@
바다는
여행은
쪽은
위아래로
생존하는
마와
활동에서
높이가
변천@@
들이에요.
님이
스키를
지키는
나란히
했는지를
막대@@
아이팟@@
포르투갈@@
선생님들이
가능하다.
례
회의가
M
진리를
희망의
제도에
돌아가셨@@
남편이
자이다
예견@@
시기를
곳에서도
취미@@
합리적으로
하느냐고
부탁했다.
해당한다.
멈@@
평평@@
주세@@
돈의
필
임무가
거죠.
병원으로
그녀도
받아들이기
의의
미니@@
한것은
장애는
창작을
우,
하여@@
시켰고,
어린이@@
하는"@@
월의
2009년
손가락으로
았는데,
스피@@
친다.
조용한
향이
per@@
아닐@@
진행하는
어려웠다.
대륙
줘.
침대에서
깨달은
곰곰이
찍어
깨닫고
고"@@
즐겨
언론의
뉴스가
주제에
얼굴의
세,
볼까요?
있으니
2050년@@
1900@@
굶주림@@
이니까
옛날
설명한다
대체하는
소중한
농장에서
귀엽@@
ation@@
전람@@
외의
확연히
피하고
거주하는
것으로,
상상해@@
납니다.
린의
심해
어획@@
역의
선박@@
명칭@@
분포를
통찰@@
대륙에서
발병@@
인체@@
경제,
하다,
부족하기
없습니다
파키스탄
모르겠어요
주셨어요.
"하지만
만들었다는
딸
나무와
바뀌었@@
젊고
쳐야
15분
우연@@
단계의
궁극적인
샌프란시스코
케이블@@
급진적인
부끄럽@@
전문가들은
현실과
방법의
칭
키우@@
됐어,
유니@@
상담@@
하느냐에
밀어
말씀드릴
무작위
칼
줄기@@
공원
예외가
적다는
온도는
인프라를
하세요
작품에서
중심에서
번호를
......@@
메인
부분,
열면
덮고
깨달아야
실질적으로
그래.@@
관중을
다수의
죽음@@
온통
나타내@@
세포와
있다--@@
때문이라는
코를
고칠
작
정답은
저가
탓@@
동정심을
모임@@
줄로
가자@@
보내고,
아십니까?
'.
설계가
ff@@
힘의
비어
환영합니다.
150만
궁리@@
붐@@
강연에
"아@@
호기심을
궤도에서
골짜@@
하였지만
사라지는
위해서가
돌아오는
웃을
정치적으로
감금@@
접촉할
효율이
분별@@
전두엽@@
저장하는
증가
살충@@
A를
톨@@
즐기는
왠지
지어
위치에서
제기하는
다윈은
할까
키는
김@@
방향에서
낮에
아프게
15만
대학원생@@
자율@@
로봇에
웅@@
날의
절제@@
위치가
그리기
절에
알아,
수술은
성공은
않으며
다리로
해충@@
산출@@
후보@@
빌리@@
생산한
체육@@
다."라고
대다수가
경계가
주:
행복에
침을
특질을
발견하기
판단을
샐@@
라비@@
가치에
받으면
계십니다.
같고,
번만
예루살렘@@
기생@@
모여서
뭉@@
굴
예술가,
방송
자모@@
현저@@
세포에서
생태계
허락해
소득이
윤리@@
중지@@
친환경@@
내가"@@
스승@@
페이지@@
침팬@@
외로@@
가스가
했는지에
날은
투명한
말과
포럼@@
린은
사육@@
시작을
헨리
사우@@
탐욕@@
위치해
아시다시피,
7,
밝게
어!
6,
방식
평행@@
복잡성을
엄청@@
뼈가
혈관@@
이라
연구한다.
흥미롭게
B:
받으러
경우에는
자였다.
계약을
앨범@@
저수@@
토양을
중요하다.@@
역할이
인도네시@@
모습이다.
저장
순환을
집중적으로
보균@@
무덤@@
참여하도록
표지를
의견이
에릭@@
권력
레바논@@
관건이다.
회원@@
땅이
아인슈타인은
정의에
물체의
혼란스러운
프레@@
러가
설탕을
백과사@@
그럴까요?
상승하고
초,
셔서
수염@@
관념이
정신질환@@
튜@@
파괴를
진공@@
권력의
앤더@@
팔자@@
시뮬레이@@
병균@@
나타샤@@
않은@@
카메라는
하얀
큰지
켜
집단을
곳이다
엔진이
박수)
즐거움@@
향상시키는
ant@@
재미있게
친구들에게
동료,
놔@@
주세요
국내
복제할
교훈@@
36@@
가르쳐야
정책의
진이
언론은
강하다.
표준을
관료@@
그룹
느낀다
성과가
권위@@
해졌다
영화,
배에서
로도
자라게
정보,
주위에서
네덜란드@@
진출@@
춘다.
그래?
철거@@
면'@@
있나요?
혹시
옆으로
끝냈@@
인생이
시킨@@
네요
추진할
보여준@@
연구소에서
연주하는
입방@@
학생,
".
준비됐@@
리듬
엉망진창@@
리스@@
단락@@
라이브
거는
새의
박물관의
하마터면
것이다.그것은
기대할
세게
믿는다.@@
여자애@@
만나서
붙인
페이지가
만나러
나눈
받는다
갔는지
4개월
수족@@
아내
인증@@
상점에
따라,
60억
뚱뚱@@
만년@@
템@@
강에서
하룻밤
없었다면
시골@@
주셨으면
전선을
얼룩@@
어깨@@
환자들을
추측을
일이라는
시작될
캘리포니@@
소아마@@
불안정한
국가들은
다리는
예방
제공하지
피라미드
남기고
적이에요.
물품@@
해체@@
키우는
젊은이가
녀석을
왔어요
회복
예비
인원@@
엉덩@@
군대가
항
예와
질투@@
과정과
sh@@
어요,
최근@@
예상할
뜻이
알렉산더
사야
발달@@
30만
구축하여
겨울에
놀라움을
심리학
우울한
격려를
그들에게"@@
아니고,
느낀@@
못했다고
걸리는
종이접@@
진다면
답안이
하루가
운전하는
상반@@
농장@@
줄이@@
37@@
활력이
전면적으로
아스팔@@
많아요
분들@@
니의
8년@@
허리케인
보상@@
인위적인
법안을
판에서
개방적인
재앙@@
원소를
솟@@
관계와
노화를
셋,
교외@@
부작용@@
55@@
다음으로,
느리게
듣는다.
감사한다.
유형@@
잡아당@@
수리
제한이
추고
것이었다.
상상도
조회@@
크로@@
디자인과
사람이라면
미적@@
적인"@@
커뮤니티를
아니야?
솔직@@
일만
if@@
개발하여
친절한
감시
싶고,
다듬@@
몰라,
유연한
순식간에
조사에
고마워,
산소@@
근육을
신성@@
발명
질환을
싶다는
무고한
혼자@@
장면이
앱@@
같아서
뿌리@@
생각의
감사합니다.감사합니다.
스와@@
창시@@
의한
to
지역사회
마친
매머@@
아일랜드
물고기의
조작
마에서
원숭이는
자전@@
진상을
1960년@@
40억
y는
찾았습니다.
대신해서
손의
차례@@
하느님,
저글@@
찰
돼지의
보수적인
네덜란드
여러분들이
위키백과@@
민주당@@
파산@@
세균
고등학교를
말라는
RNA@@
12월
봉사하는
일본의
동네@@
했으면
실증@@
협곡@@
종교,
나는,
말했다."
축구
가고,
어머니에게
기록
지혜와
틀렸다.
유용하다.
네트워크에서
총기
시대로
인기가
에서나
쫓겨@@
자처럼
언론
기후가
입자의
연락할
월드@@
중심이
게임이다.
미만의
60년대
기소@@
우호@@
승리할
유머@@
해소@@
안보@@
인정할
아이슬란@@
시력을
않을까요?
테스트할
지원할
영화에
반에서
코카콜@@
직원
개변시킬수
데이터입니다.
뛰는
항생제를
먼지가
주의자가
인자@@
풀을
성장에
물체
맨해튼@@
바란다.@@
패션@@
재무
·
이웃이
그들에게서
순조@@
부채@@
1조
명성을
미국인이
의도@@
정말로,
세계무역@@
푸는
졌어요
개복@@
찾고,
토의
팔레스타인
잃는
제어하는
잘하고
f
는가.
본질은
시냇@@
예술가의
되어서는
수원을
마리,
통로를
아이들도
고급@@
하느님의
유독@@
강은
울타@@
빅토리아
름을
산소가
위조@@
긴급
등등
분노를
격려
년에서
배출을
집권@@
민주주의가
중요한것은
디스크@@
진한
시달@@
해결책은
발광@@
폭력이
남성과
GDP의
시냅@@
사법@@
회전
도르@@
반딧불@@
인슐린
미덕@@
에어@@
양봉@@
힘과
뒤를
포함한다
주었다.@@
독감@@
경관을
애초에
방사선@@
다양성이
열대우림@@
마음껏
분도
놀이@@
한테도
사무실로
덕분이다.
형편없는
개인과
알아내려고
크기
폴란@@
찾아내는
부모와
할것인가에
교실에
날씨@@
공중
없어.@@
벽에서
참조@@
얽매@@
고양@@
문제들이
기억에
브루클린@@
다)
그러지
나'@@
익
표본@@
끝났다.
드렸@@
진술@@
기능에
3대
것입니다
투자할
참여하여
단기적인
Pr@@
기록한
주립
생리
들고,
일수도
인격@@
뛰어나@@
표의
공연할
생각에,
체내의
말했지만,
상어를
두려움과
누군가의
점도
있었는지
올려
취재@@
31@@
이것은"@@
방향이
존중을
좋아요,
황
음료@@
페트@@
위해@@
출처@@
먹고,
적다
량으로
눈에는
토마@@
모서@@
발생했는지
일이나
해로
여겨진다.
의존한다.
으로"@@
센서@@
기적이
상쇄@@
반응할
더할
강인@@
성장한
다.내가
가든지
여자에게
그럼@@
까?"
펼쳐@@
착륙할
군대를
이렇게,
참신한
살에
맙소사,
셔야
피하기
문명이
베이징@@
죽음은
알렉산@@
이상하다고
해외
X
결정한
이었다.@@
안전에
았어요
것만으로도
괴롭히는
어져
시범을
생각해봐.
갱신@@
고려하기
정식으로
시절을
쿼@@
즐겁고
500만
파괴된
베트남
무너뜨@@
쇼를
확장할
자야
취한
후반@@
자동차와
논리@@
어질
좋아했다.
폭력적인
해져서
생각한다는
삼키@@
심으로
갑니다.
만지작@@
팝@@
s가
직원을
설명하려고
졸업한
결과입니다.
P:
a의
신고
루스@@
주관적인
인공적으로
쉬고
상대방의
정신이
동력이
전극@@
개체가
낼@@
내려야
라디@@
측정하고
전이@@
구하기
노출된
금지하는
컵@@
있었어
설비는
하니
교의
사례에서
특유의
설계해야
회로@@
동은
졌다고
센터는
참여를
아이들
청
지역사회에서
건축은
셔도
종으로
경기에서
벌레
멈추게
켜고
스타
약품
비교하는
문자로
뛰어넘을
거쳤@@
카나@@
얻는다.
예민@@
지령을
고위@@
중학교
풍경@@
막대한
내년에
르완@@
개국
보의
물체에
일치하는
데려갈
수억
토가
퀸@@
강력히
쌀@@
인권
슬프게
대통령의
취하는
상상하고
가죽@@
정교하고
당하는
거주하고
봐봐,
자원에
시킬@@
물건
25만
전파하는
식물에
다","@@
입자@@
사기꾼@@
구글은
벗어나는
소련@@
비폭력
로보@@
탄자니@@
정신은
무작@@
생방송@@
배웠다
라벨@@
지금보다
생기기
진화한
물리학자@@
900@@
죽였@@
기구,
실과
지능을
철을
매장@@
치과@@
그래요.
탄소를
갈수
당뇨@@
이르기까지,
현저하게
광이
동기를
들어가기
징벌@@
소통하고
제외하고,
중력
공룡을
생장@@
하죠.
해결책@@
계시@@
곁@@
술은
망막@@
az@@
프라이버@@
일이에요.
벤처
홉@@
맥도날@@
뉴욕타임@@
인물을
와트@@
버튼@@
엉덩이
촉매@@
홍콩@@
인간으로서
빈번@@
황금
이미지가
묻는다.
클레@@
구리
경쟁
3천
세상과
업이
고래가
입자
인터넷상의
의도적으로
경제학자들은
기처럼
터널@@
있을까@@
대뇌
연설이
하늘이
만신@@
닥터
희망한다
혈관을
코끼리@@
휠체@@
아이티
복지
해변에
제이@@
체이다.
쏟아져
고온@@
의지하여
끝나기
꼴@@
명성이
쉬는
뜨고
감고
로움을
씨를
이룩@@
월급을
자들도
대폭
묶여
학생의
말한다
관리를
왔다갔다@@
동적인
다루@@
기획@@
여기지
런던에
DNA의
개인용
"어,
마른
찾아내려고
압박@@
히면
론과
들이야
태도가
태여@@
100억
으로써
가지,
거울
단련@@
라에서
이른바'@@
움직임@@
개성화된
동작이
상황
면적을
그중에
정서@@
충실@@
솔직하게
리고,
졌다.@@
미워@@
헤이@@
통일된
결정했다.@@
복무@@
자유가
배출하는
세인트
가라@@
이었는데,
스케이트보@@
삐@@
진료소에
지도에서
조류가
벗어@@
이빨@@
대왕@@
진행해야
때문입니다.@@
트:
천연두@@
자연계에서
어린이에게
것과는
빈민가에
피해야
이렇다
겨냥@@
곳입니다.
7억
텍사@@
비밀은
연약@@
입지
뒤돌아@@
속에는
비밀이
우월@@
거야?@@
질로
진다고
다음에는
격파@@
접어@@
넘게
지수를
때마다,
여는
여동생@@
하느라
추측할
쇄@@
은?@@
적혀
논쟁이
화제는
영향에
높이를
상기@@
룸@@
출산
화제에
노인@@
전이다.
하겠다.
어서는
텔@@
두어야
출발하여
。
줘야
미가
밀가루
보석@@
이라는것을
습니다,
먹기
항공우주@@
돌아오@@
핫@@
월급@@
부족하다고
수직@@
2000
IBM@@
받아@@
남아프리카에서
버그
교수가
재료의
훔쳐@@
초청을
보여주지
다빈@@
수수께끼를
아마추어
옅은
돌아오지
풍이
가지의
적용될
범위가
현미@@
저울@@
계산하는
실천에
로켓을
왔는데,
꼭대기에서
빠졌다.
들었는데,
죽고
비하면
30~@@
표범@@
변이@@
되던
삽입@@
숲의
과를
정확하고
편견이
조합을
전환하는
인간적인
y,
묻는@@
하더라고요.
해적@@
만나게
공부를
준비할
펭귄
서'@@
의식적으로
생물들은
원숭@@
작용할
이론적으로
분홍색
o는
휴대용
임산@@
늑@@
법률은
싱
어때?
귀찮@@
무릎
손상된
발생했습니다.
곤충의
않더라도
필연적으로
사업은
허가를
초등학교
적합하다.
항상@@
난민촌@@
관광@@
종,
정하는
모양과
주차
기억의
명확히
동경@@
사실과
나온@@
번영을
달라이
전염병의
얻어@@
세기가
경에서
흩어져
이야기들을
바래@@
싼
민을
아니며,
종교와
놀라지
말투@@
알아차릴
직원들에게
루터
사명을
맡을
온도@@
성공했다.
갤러@@
떨어지@@
형상@@
예쁘@@
올려놓고
적이다.@@
힘이다.
도구이다.
추구할
상관하지
넬슨
만델@@
환경,
무늬@@
정신병@@
다시@@
해석은
연설의
사악@@
사도
Ev@@
자르@@
참여해야
거시@@
북극곰@@
히"@@
ip@@
촬영을
찻@@
되돌아@@
대회@@
제외@@
흑인@@
협력의
관찰하면
자폐증을
8만
1:
증발@@
증가했다.
괜찮아
묘사하고
85@@
이용하고
숯@@
모래언덕@@
깨달았기
돈과
빈곤을
따르면,
석유와
주기@@
고유한
100
유일무이한
어린아이였을
기자:
앓@@
너희에게
출생@@
폭력에
장치
그린란@@
녀
보았지만,
용서@@
묘사했다.
수량은
수십@@
파라@@
수학의
멀티
파란색@@
예측하는
위협에
탁
유발@@
말라리아를
찰리
다중
베네수엘@@
부품이
3천만
글렌@@
Wikipedia@@
KB:
패트:
화산
거기@@
함의
컨트롤러@@
카리브@@
뿜@@
높기
존재
가리킨다
무심코
하다:
생겼다
당신은"@@
설문@@
팅
였던
90년대에
측정한
격차는
고무적인
올렸다.
전례가
있느냐는
어떻게@@
알려주지
발달한
내로
전극을
절차가
20세기의
영향력
60년
잔혹한
소년이
달라질
배불리
톰
강력하고
어때요?
페인@@
소비자가
하고.
귀찮게
2005년에
목격할
녹색의
간호사가
통증을
선량한
요소에
접시를
고에서
배우가
불러일으키@@
파생@@
틀렸다고
.그러나
조치가
공급업@@
어린이들이
지불하는
창작할
첼@@
못하고,
),
합창@@
공유해야
대고
던질
가족에게
자연적인
증의
이스라엘의
공항@@
만나고
이전과
버려야
지금처럼
공급을
하워@@
사고하는
사용됩니다.
구석에서
연산@@
조화를
등반@@
옷
수면에
타파@@
오스트@@
세계화의
급격히
표시하고
멸종된
비에
대변@@
만들기로
브루@@
주소를
극을
일요일
않습니다.@@
콧@@
끼는
부모를
원하@@
맹세@@
섹스@@
있었어.
구로
크에서
Mc@@
필요해.
며@@
줄게
서게
놨@@
주동적으로
부분에서
있다!
되는@@
나가는
똑똑하고
전문가를
판결@@
싶었던
것이지만
리해할수
많고,
노벨@@
나야
영양실@@
두면
것임을
기대하지
2년이
비료를
어디가
보며
비즈니@@
질병과
사용된
높지
보통@@
숨겨@@
말합니다.
뛰고
될것이라고
설치할
파멸@@
차원을
어린아이@@
말해줄
관례@@
이상하지
지탱@@
같을
쟁탈@@
우를
지하철
잡지@@
유리를
돈도
Chris@@
적인지
불가피@@
방법이라고
표에
줘서
식과
했어.@@
끌어당@@
자일
녹화@@
비명을
체제@@
하느님을
선택하고
얻기를
ann@@
연구하여
교사를
말했다."너는
창조
근거한
면"@@
있을것이라고
코끼리를
"당신이
ink@@
태양은
은-@@
천문@@
마을이
유래@@
킬@@
대자연의
선도@@
이지,
중첩@@
캠프@@
폭포@@
상세하게
티타@@
날아가는
발에
오로@@
자폐@@
소리)
접촉한
과거와
옷차림@@
트위터에서
시간이다.
정직@@
부분적으로
돛@@
기후를
영혼을
색채@@
명에서
학생과
에요.
원에게
알았어요.
추출한
공상
혐@@
혼합
밀도
초음@@
웰@@
업무는
주조@@
신문에서
연구해
돼?
처녀@@
십자@@
초콜릿
공화당@@
했어,
줄리@@
동영상@@
아웃@@
흥분해서
점액
자질구레한
배출량을
방지
면적이
고로
Ad@@
기초가
먹일
성숙한
발전한
폭파@@
a와
재무@@
박을
몰랐어요.
받을수
예이다
대표할
대화할
대가가
나라에서는
브라질에서
문장@@
운다.
은행이
은행에
9개월
었다면
캐릭터@@
(주:
정치는
피는
냉동@@
소규모
대륙을
복지@@
코펜하겐@@
맺고
무언@@
현미경으로
계실
그들에
가르쳤다.
꼬리가
매료되었다.
로와
지난번에
사례가
어두@@
질문:
요구가
0년@@
줘
봤어?
부시
접할
걷기
진화할
구,
바구@@
말씀하셨@@
렸습니다.
인보다
공격할
아프리카,
yn@@
누구와
설득할
균형
안심@@
바이올@@
주파수를
음악가@@
싶은데,
쉬워요.
촬영할
일수록
모금@@
코미디@@
버렸@@
옮겼@@
관점으로
치즈
생물학을
벽은
아미노@@
ok@@
않아서
것입니까?@@
할수도
테로@@
에네르@@
석유에
방치@@
욱@@
0년에
언급했다.
비만
상자가
사운드
백악@@
발표
진작@@
금속을
돔@@
서부
박혀
생태계의
수염을
있는지를
부품은
프린팅@@
시대,
됐을
진드@@
중산@@
오늘날,
비행체가
비행체를
계로
원조가
난제를
광학
,"
이하의
벌떼@@
itt@@
열쇠를
타인을
반죽@@
중심을
계산한
인간성을
모금
좌석@@
단기
사법
대수롭지
자체도
160@@
황화수@@
세균의
발은
선명한
수백@@
스프링@@
재난이
행동하는
전체에서
적으로도
여지없이
진지한
이러면
정서적
협동
퇴근@@
혁신과
고난을
PI@@
빨간색은
버렸다.
평등한
발견
올린
교사
성공에
집중하고
반응하는
근육이
D를
워싱턴@@
학교로
포함된
300만
시설이
국가와
가운데@@
얘기할
시켰다.@@
대회에
운동선수@@
2008년에
도쿄@@
쏟@@
으면,
이치를
에는'@@
그녀들의
속임@@
본보@@
개발할
확장
효과에
보스턴@@
투자는
념
e와
생각한다.나는
싶어서
그로
음과
영상은
형식이
창조하여
ine@@
캐릭@@
그곳을
환경으로
넓고
교란@@
즐거움은
문제야.
살아남은
표정@@
공허@@
깁@@
였지만,
계속되고
많아지고
니다."
나왔어요.
이럴
노력으로
유입@@
교묘하게
사항@@
캘리포니아에서
모래사@@
1/@@
계산하면
긴밀하게
주었기
로마
곤
형성하고
만드는지
도살@@
완전하게
니까?@@
연산
깃털@@
켰@@
손가락이
엄중한
보호에
틀
질수록
전망을
이익에
약의
진작시키는
외계
관찰하여
상당@@
폭발을
그려
도움이@@
자체로
관중들에게
전해@@
죠,
아들의
드디어
읽었다.
티가
따르고
비웃@@
스러워
아니었다.
아닌지
히,
남편@@
종이로
이유이다
즐겁지
아이디@@
조종하는
돼지
하나이며,
수입의
국민들은
절반으로
남아프리카의
값을
행위와
좋아해서
렀다.
들어가야
감사해야
교도소
가구를
놓았는데,
친밀@@
걸음을
인식이
친절@@
부추@@
인에서
적응하는
이동을
명심@@
간소화@@
재조합@@
디자인,
도서관에
보장해야
도서관@@
분리할
프레임@@
수명
기술에서
영국에
비교해
망설@@
잊고
반복되는
획기적인
적이어야
되어@@
단단히
모델로
2007년에
사진,
돼요?
8천
대륙의
겠지
머리카락@@
인식할
바뀌는
체험은
함도
가리지
포착할
컬
이야기들은
화면에서
마크@@
인쇄할
보여요
았다.@@
픽@@
준비
정지@@
수업시간에
온다
모식을
아인슈타@@
뷰@@
다'
다하고
격이
한번,
휩쓸@@
핵심적인
감사를
칭찬할
바퀴를
완성하는
박사는
선택,
예상
내면@@
부담을
을것이다.
북미
미는
들입니다.
방대@@
심과
추월@@
화성의
괜찮다고
갇혀
환
호르몬
제품,
물질에
비누@@
백만분의
됐다.@@
사람이나
따를
할아버지는
자유,
뭐든
끝나지
수법을
할게@@
꺼냈다.
기때문이다.@@
았는데
봐요.
알았을
줬으면
방사성
유선@@
MRI@@
개방형
가운@@
돌아간
종류가
한이
내용에
현실의
놓지
갈지
걸고
절차@@
년에는
연하게
인류와
침팬지는
잘할
하는것과
생활,
죽인
지식에
여성에
선지@@
i는
or
난감한
넘겨@@
무사@@
학대@@
클래식
App@@
부여할
생겨난
정에서
날아가
꿀벌이
초는
현미경을
아실
엉@@
순간부터
자기가
업계에
이름은'@@
거예요.@@
조건은
기구와
지뢰@@
14살
애매@@
주변에서
초월하여
다루는
위기의
종과
그것보다
북쪽으로
이동하여
효력을
소액
결혼을
소개를
모형은
립니다.
휴대폰을
화장실에
전화번호@@
영양을
않을까?
삭감@@
봅시다.@@
스코틀랜드
겪을
에이커의
글은
의하면,
겠습니다.@@
알고있는
ati@@
스프레@@
ack@@
스터를
공룡의
하지만@@
개체
많다.@@
폐기물을
모의@@
전시된
판결을
파리
꾸준히
케이크를
스파@@
숨길
타락@@
양은
세워
수학은
당첨@@
청정@@
퍼센트의
D가
충돌은
는것이
배럴@@
태
녹색으로
기억하십시오.
수학과
ie
원한다고
구상은
소행성이
파리@@
노트북
노이@@
지적했다.
실현해야
ch
국가안보@@
불평등이
생각하니?
.그리고
침해@@
으세요.
배터리
대뇌가
심장에
애드리@@
오른쪽에서
네티즌@@
흡연@@
데릭
예쁘게
물질과
이었던
강좌를
b
알고리즘은
상어가
합의@@
펭귄이
칩
치와
감의
어떨까?
접속할
산악@@
기준은
나라들을
학습의
수업은
취하고
가르치지
통한
헤드라@@
대표하고
통제해야
백혈@@
근을
아이러니하게도
상영@@
리우데자네이루@@
고전
수면을
상업적
품으로
찾았고,
생체
변이가
34@@
들린다.
강렬@@
때문이며,
관심은
인가,
때"@@
원가가
비용의
데이터에서
학부@@
국내@@
투자하는
달러는
문제일
장애
시하는
매사추세츠
안녕하세요.
흥미롭@@
재즈
친구들,
입니다.나는
대화
것인가?"
아이콘@@
외교
가능
공장이
인'@@
o의
살릴
생산하고
돌리는
거리,
기차를
승용@@
채소를
재배하는
급속히
파티에
상황입니다.
세포들은
리익@@
행할
하고있는데
되여있다.
알았는데
영향
결함을
국회의@@
의심의
비와
C.@@
누군가에게
사진과
촛@@
브롱크@@
나랑
못하다.
영리@@
가설이
부딪힐
계세요.
강철
공유를
절대로
원료를
창
에게'@@
신장@@
인사를
킬로그램@@
전신@@
붓@@
위험과
달러이다.
오후에
다친
올라가
얻었고,
인다는
진행된
연결하여
쓸모없는
뿐이야.
던졌다.
접는
방관@@
목욕@@
슬로@@
운동에서
덴마크@@
내가'@@
딱@@
진입할
시작했으며,
들리지
인프라가
보존할
표면
고층
륙@@
습격@@
생존의
통해서
댈러@@
무대@@
다섯@@
죽음이
학이
미친@@
아니오,
개체를
4천
변화로
남겼다.
기원전
넣지
아시는
잊혀@@
알아차리지
수첩@@
석에
부리는
무한히
음이
산업을
전송할
나중에는
승리를
국경@@
급한
조종
전화는
물었습니다.
하드웨어
지능이
화면이
3개
교실@@
이해하도록
지적
먹으러
군요.
알아.
짓
항우울@@
장담한다.
맞아
부딪히@@
영역에
스캔을
수면@@
귀결@@
남편을
싶으@@
우주선이
'로
지수@@
일어났을
어깨에
있다면?
분열
인쇄
1600@@
하이테크
주민들이
메시지가
유방암
찾았을
것이다.하지만
자라지
상반된
정의할
산책을
모래
저희의
사람이라는
않다면
오스트랄@@
좋아하게
자들
시작되었다
났어요.
건설한
설계와
보살핌을
있습니다:
발하는
원숭이의
뉴런은
학자,
백을
납세@@
엔지니어,
기기를
배터리가
림프@@
소통하는
상식@@
프로젝@@
꺼낼
ist@@
TED는
믿든
확신합니다.
국한된
재생할
곤충은
먹는다.
하게@@
가축@@
춘@@
합법적으로
적이었다.
업무에
교묘한
엄격@@
중요하지만
레시@@
끼칠
사무실을
발생하여
생겼는지
머릿속의
이상은
차원으로
틀린
라이베@@
11살
범상치
걱정해야
종교적
만족하지
"그녀는
당선@@
세계화
배운다.
갓@@
인민의
해석이
세력이
연구자들이
스티브@@
외곽@@
직관@@
래?
추종@@
약품을
명당
편안함을
비행하는
꿀벌은
순간이다.
낙서를
지표를
썼을
품에
자동차,
화이다.
접속하여
유통@@
전도
신앙이
집집마다
적이든
청각@@
마틴@@
노인이
가정은
주었다고
ott@@
사촌@@
할것인가
시베@@
로빈@@
개발도상국에
강구하여
걸렸어요.
직사각@@
컴퓨팅
철저한
스콧@@
지적하고
손과
만들었기
았습니다.
록색@@
내어
파괴적인
er의
상대를
인터랙티브
나이는
류로
식사를
프로펠@@
부자
순진@@
용을
해드릴게요.
소중@@
y의
분당
마귀@@
일으키지
포인@@
니콜@@
도래@@
무엇일까?
지폐를
이야기하고,
ull@@
로스앤젤레@@
만화가
3년에
지루한
사과를
으로도
체중@@
걸쳐
남쪽으로
사실의
전달하고
법률에
그레@@
응용하여
건전한
..."
클라우드
피트,
도로,
표시했다.
시각화
20분
아름다움은
비탈@@
갤런@@
3~@@
은퇴@@
여분의
것들.
자기야,
요리
애틀랜타@@
슨:
운용하는
온화한
돌아가면
지혜의
부드러@@
편찬@@
사전을
NASA
싶어하는
코딩@@
디자이너의
iz@@
"과"@@
성장이
니아
내놓@@
달라졌다.
석유의
넘었다.
난처하게
멀다.
충을
미한
역사적으로
모국@@
자신감이
손잡@@
성에서
짐에
필립@@
80년대에
경기의
태양계의
킬로미터의
플레@@
가슴이
불편함을
파워@@
y와
띤
울타리를
기회이다.
분사@@
저비용
횡단@@
생성할
맥주를
아리스토텔레@@
말라리아에
신기술을
185@@
영국은
은행의
Net@@
법정에
힘
배합@@
클리@@
아니요.
휠체어를
이러는
"그리고
하느님은
인디언@@
모기
동물도
어디든
회전하는
촉각@@
마루@@
빌:
웜@@
대단하다.
되면서
종이다.
발톱@@
동물들의
자란다.
액이
벗겨@@
게도
여기서부터
현상
뿐이@@
기여를
머리의
사라지지
서비스,
는?@@
견이
쾌락@@
대해서@@
변혁의
생각해서
는지는
범례@@
해고@@
20명의
E
부족하다
2006년에
내포@@
는"우리는
불만을
다이어@@
enn@@
야만@@
Y
e를
해커
끝나면
과학기술에
교실에서
일어난다.
부른다.@@
높아질
한편으로,
개선하기
해결되지
상품
보험
에겐
하는가이다.
경쟁이
미시간
말씀드렸@@
가게에
치료의
좋아하지만,
댄
공사
중요하게
시킵니다.
Me@@
시끄러운
낭만@@
싸울
겉으로
고통이
일이든
고봉@@
반격@@
굳@@
토론이
들어오는
남겨진
떠내려@@
죽었을
센트를
떠나기
기록은
사망을
물질적
서기
지도의
날씨
요일에
일간
복잡하게
제기했다.
곳이에요.
니까?"
연산을
가구@@
기하@@
목에서
팔꿈@@
신경이
달의
대해,
확실하게
법이다.
조직하는
십시오
호흡을
사망자
보여드린
폭발할
성질을
쁠
입니다.이
북부
집단은
블로그에
살이다.
12살
물었다."당신은
망칠
했다-@@
인식은
준비해야
일이었다.
걸로
았고
이었어
확고@@
혼
맞나?
흙@@
탐색을
진전이
튼튼한
남자에게
누구에게
남부의
사용하는데,
형편@@
발표했습니다.
전역에서
시장,
디스@@
아바@@
말씀드릴게요.
렀@@
필사적으로
시작하지
정상으로
장학금을
도도
레고
때까지.
쳤을
오븐@@
물러서서
에게,
스포츠@@
공언@@
즘@@
가슴을
부하@@
차원이
게으@@
8000@@
버리지
구제@@
지붕을
응
해수면이
소음이
미친다는
힘,
오세요.
보이는데
게요
원한다
우뚝
용인@@
진보가
되어서야
아니며
정기적으로
나왔을
곧장
문학
one@@
야."
아일랜드@@
들어와서
사에게
무의미한
더라도,
동태@@
열정적으로
박사가
컨트롤@@
기호를
지능적인
거에
괜찮아요.
개만
우울하게
합시다
반복
프로그래밍
테스트에
취
YouTube@@
속하지
폭력,
잔인@@
어디서부터
많지만
그림들을
그림자가
복원@@
앉았다.
치고,
일러@@
듣게
가나
콜롬비아
민족
성욕@@
하게도,
범을
감옥
술한
15살
모델이다.
건축가@@
접촉하는
웠어요.
보여줬@@
대대로
왼쪽으로
어울리지
Cha@@
경험
제품과
공감을
13년
변화시키고
조명을
떡@@
표는
마찬가지이다.
상호작용하는
두세
생각해.
감사드리고요.
와.
널빤@@
시스@@
내고,
낙타@@
것인지에
바퀴가
투표를
걱정하고
초음파
사용되지
비싸다.
그녀들에게
손녀@@
크리켓@@
엄마에게
L
BF:
컵을
일으키고
10년이
바로'@@
향유@@
사용한다면,
피터@@
그곳으로
만들었어
노벨상
저작@@
존중하고
되였다고
.그것은
배후에는
딱딱한
테스트하는
튼튼@@
다에
낡@@
건축과
하였고,
생성하는
얻으려면
무도@@
기준이
객관적인
강요하는
와주셔서
눈앞에서
6살
s를
여러분.
보답@@
풀고
옮기는
건드리지
발견하면
폭행@@
해!@@
오바@@
이남의
수분을
불가사의하다.
부모님@@
전략
바의
구했다.
겠습니까?
내년
어지럽@@
발표된
식,
기다려@@
것이다.그들은
벗어났다.
포인트
덴@@
효과적이다.
"아니@@
윌리엄
결핵@@
이라크에
페이지는
선명@@
폭이
실험이다.
비용으로
자기를
잠깐@@
활동과
이라크에서
단축@@
제공
경고를
보았다고
of@@
침범@@
병원은
이죠?
작동합니다.
우르@@
답
피라미@@
and
날개
공원을
이웃의
일까?
연한
쓸데없는
수감@@
에디@@
골라
전환은
자이@@
Be@@
세계대@@
내용과
중심의
자랑스러워@@
특이@@
화석을
있는지도
누구든지
상호작용
않아요?
테러를
받았기
이었기
개념과
합니다@@
시퀀@@
타운@@
눈치채지
평평하게
사진에는
한마디로
사슴@@
나한텐
시도하지
예수@@
A가
한쪽으로
의존하지
필요해요.
오늘도
라인@@
공급이
푸르@@
3백만
인내심을
작물을
지하에
케냐에서
압력@@
조각으로
생이
많을수록
굴을
갈망하는
혈압@@
과학자로서
양치@@
샌드위치를
레오@@
트도
의존하고
가디@@
이성애@@
온실가스
폭을
강의@@
불과하다는
잎을
헐@@
행동과
상황에서도
발버둥@@
그후
킬러@@
시골에서
마일로
de
인처럼
수술의
Se@@
오두막@@
행정@@
제조할
메가@@
풍을
2011년
당에
포함하지
공장은
해운@@
인형@@
돌아가지
고무
재해
남았다.
어쩌@@
a를
중성@@
구별할
.org@@
과학적으로
딸은
Cl@@
1월
숨기는
동영@@
전쟁,
Abed@@
작게
성가@@
소금@@
권력이
돌고래
엔트로피
홍삼@@
K:
면적의
다르고
부터@@
로봇이다.
그림,
화씨
높을
세균은
패배@@
너무너무
이렇습니다.
웃으며)
경제적으로
아도
이젠
고양이를
주신
선봉@@
이야?"
는가,
올리는
교사의
개선을
화제가
수업의
임금을
학생들@@
옵@@
과제를
가볍@@
비행기의
불러
방사능@@
논술@@
부서@@
미디어가
젊은이들에게
18
시카@@
숨기고
평론을
꿰@@
감정적
간디@@
압력
제한
던져
변형
미생물을
짜증@@
벌고
방지하는
수년
처음엔
담긴
일수
계획과
전국적으로
저소득
모차르@@
강구@@
모두"@@
읽었을
파킨슨@@
되었으며
10월
먼은
져요.
자)
높고,
숲이
맞은@@
새와
딸의
."라고
서요.
기록했다.
일본에서
갔고
리아는
그물을
샘플
유산@@
생산량을
Bill@@
건설된
상상
구식
안다고
걸렸다는
모니@@
동영상에서
학자와
했지?
유엔의
모델,
형성하여
낳는
했다.그는
고래는
보여주었다
시도하기
지역사회를
감염
이었고
점입니다.
최종@@
나위
달러에서
스러울
컵
911
놈이
틀에
표현은
가방을
도약@@
다리의
어딘@@
믿음을
상관없는
해?@@
에베레스트@@
번거로움을
하버드@@
있었다는
일치한다.
남편과
스탄@@
미약한
킬로그램의
3배
그러한
끝내@@
개념
매를
상승하는
함으로
곡선@@
채널을
원칙에
중립@@
도파민@@
시나리@@
조립
회사입니다.
가격으로
건강,
앞
벤자민
된다는것을
일상
랜드에서
환영을
국제적인
표가
건축물을
현대적인
매체를
초보적인
작용이
거든요
부분과
예술가들이
건설해야
3~4@@
채우@@
사냥을
우위를
비참@@
불필요한
지식,
어떡하지?
역사적인
체내에서
읽어야
진화가
1~@@
80년@@
방,
쪽,
앞을
바닥에서
바깥
믿어@@
알려
실체
실체@@
연결될
통화@@
모래를
스티븐@@
벗고
고난@@
불러일으키는
진실성을
다큐멘터리를
안경@@
사용자를
접촉을
있다.하지만
업그레이드@@
하위
다'고
문서를
다녔다.
대학,
제니@@
100명의
일대일
대학은
원망@@
500
보존하고
심에
스스@@
샌디@@
복귀@@
증명하고
연이
덤@@
에릭
,"나는
세요?@@
졸업
이남
수자원
인도로
낳고
관계에서
경외@@
언어에
열광@@
크다고
보내지
홀시@@
가지로
남녀
합작하여
수동@@
접힌
평면@@
있었습니다.
얇@@
영하
기온@@
팀,
추락@@
영역에서
진은
서류@@
요법을
오염된
텅
안전하다고
느낌과
가락@@
목으로
목욕을
방울
빛에
본능적으로
않고도
병사가
미니
조명@@
좋아한다고
모이는
나타난다
합쳐서
작가,
감정적인
화장실이
시간만
이중@@
풀어@@
사용했습니다.
누비@@
C,
탐측@@
종양의
판은
물품을
굴러@@
두지
일.
힘껏
제발,
70억
소집@@
분석에
비타민@@
재는
위키@@
보수를
처음이다.
동영상
년으로
작아서
생명체가
다닌@@
재난
추출하는
이것이@@
하루의
인애@@
인간에
도덕을
행복의
말씀하셨다.
찾아낼
불꽃@@
국가,
뛰어넘어
도달하지
되다.
저지른
공장에
것인데
퍼가
크레@@
분?
미술@@
였고
잡힌
허가@@
만들었고
생태계에
ett@@
비롯된다.
대표하여
직원들은
진실과
선양@@
샐러@@
침몰@@
기울였다.
끌어들일
위장@@
휘발@@
지방을
더가
"엄마,
수록,
되지?
초반에
재단이
을까@@
순서에
메스꺼@@
여기로
신화
이밖에
도요@@
크라@@
민중의
민중들이
부패
있다.만약
그러던
상공@@
고집@@
감정에
서면
계좌@@
패턴에
악성
서지
알려줄@@
원한다는
행렬@@
해본
수공@@
놓았을
모형이
느냐
핸드폰이
번거로@@
원소@@
녀석들은
심각하다.
식물과
화제@@
튀@@
"이@@
이쪽에서
했어요.@@
시리즈
서방의
신흥@@
강도
백분@@
짝을
움직이기
협상
되었습니다.@@
통해서만
가진다.
창을
빨아들@@
껍질을
제목은
거짓말@@
받아들이지
구름을
섭씨
전역의
용도가
불량@@
글라이@@
스노든@@
수집
파도가
지형을
125@@
의미와
하수@@
정치가
단으로
무미건조@@
사막을
끝에서
석유는
발전소를
고려해
나무로
강탈@@
단단@@
H
기자
보기를
깨달았다.@@
대담@@
HIV
아니오@@
화나게
진동을
원인으로
집계@@
소음
대기권에
바베@@
19세기에
망원경이
끼워
초점
석회@@
박물관을
뭔@@
운석@@
날개가
이에요?
초석@@
서비스의
동그라미@@
스펙트럼
무더@@
깨진
룰@@
이기적인
푹
4축
잃었@@
슈퍼맨@@
삼촌@@
위협은
도자기
흔들어
노인들이
막았다.
브룩@@
코소@@
64@@
기사가
으려는
아르헨티@@
피부의
초마다
콘텐츠
따랐@@
남성보다
보았습니까?
노숙@@
아랍의
바다표범@@
한다.그래서
세로
우간@@
무엇인지에
카이@@
좌석을
화해야
Su@@
들었습니다.
노예가
해커가
자꾸만
탐사
단독
가상의
올라간다.
이곳이
퇴적@@
GDP@@
나요
제도는
없어."
남에게
다니며
분위기를
맥주
달리고
경제에서
국가에서는
다'는
10살
구성을
억지로
동의한다.
선생님들은
속한
인정한다.
필요한지
법규@@
자만@@
회,
수백,
탑을
마음과
목사@@
역사와
철학
아버지에게
사건에서
경찰
이야기들이
마법@@
주인공은
테니@@
전개할
챔피언@@
단위로
굵@@
노를
니다!
생겨서
고?
이성을
해답@@
회상할
팀에서
못한다고
직감을
이사를
경쟁할
거품이
보내면
세트를
100개의
창작한
실험실이
화제로
긴밀히
이해하고,
하는지.
색채가
하자고
At@@
말하면,
솔루@@
무시하는
하니까
저랑
달고
하고있으며
붙이는
묻기
붙여@@
씻는
est@@
고향
Mat@@
조직하여
물고기는
질서
피아@@
잔혹@@
나오기
탐색
창문
재료와
도형을
환상적인
아이들,
환자,
집에는
억제하는
해에서
식별하는
주제로
소스를
감사하고
웅장한
활약@@
10여
반대편에서
완수할
감사합니다@@
기다리지
학생들과
배웠습니다.
속박@@
것입니까?"
말하겠다.
의도를
좌석에
순간의
알아냈@@
병사들이
개국에
는.
머리카락이
고위
"어떻게
벌써
창조를
건가요?
보험을
만들거나
재능과
그런데,
시험에
믿어
드리는
우아한
좋아하고,
아닙니까?
4년에
저명한
몫@@
의미한다.@@
품질을
세기를
말기
그래서'@@
이렇게@@
없으니까
고통스럽게
고통과
결정하고
깨우@@
질병,
렌즈@@
한바탕
가져가서
적고
연관성을
단지@@
일하고,
관장@@
관해서는
틴
부모에게
걸이를
보기에,
만찬@@
고속도로에서
예전의
아닙니다
2차
2월
아시아에서
밭을
시원@@
활주@@
이르렀다.
책과
이야기합시다.
큼@@
예산은
피트를
조화롭게
박물관은
말라리아@@
이성적으로
둘째는
뜻으로
전망이
단계,
평가할
진보의
돌연변@@
주요@@
제시한
알기로는
검은@@
속은
싣고
시체를
일어났어요.
사용되었다.
정교@@
사랑할
사용자는
연결은
라우@@
설치되어
색깔의
떨어진다.
말하자@@
일부일
사용하고,
공포의
추진
압
광은
세상에@@
근원@@
지내는
밤이
브로드@@
배포@@
하셨어요.
입니다@@
농담이
트릭@@
불러야
US@@
ick
Paul
oll@@
입력한
상호작용할
위험하다.
같다."@@
말하기를
시까지
연구도
희귀한
여행에
개구리
있습니다."@@
싶어?
방향
수량@@
만나지
성교@@
잃지
둥근
작품입니다.
지정@@
계층
층층이
1밀리@@
왕복@@
소련의
인터넷,
열의
들었다.@@
낚@@
따뜻하게
캡@@
퍼진
ess@@
사례는
호르몬을
성분이
슨과
말한다면
대부분@@
척
갤런의
곰
썰@@
거라는
내성적인
온몸이
팀워@@
적이어서
봉쇄@@
지금까지도
잡기
기다렸@@
구매할
악
루이스
괜찮으@@
시키거나
원합니다.
조례@@
종류를
개발했다.
궤도
집단에서
우연한
미쳤다.
재단의
넘는다.
방해를
장치에
기억하세요.
그걸로
클리닉@@
퍼센트가
먹어@@
질수
대회에서
위키피디@@
사고로
동아@@
자유는
디즈니@@
착취@@
무자비@@
폭발이
7.@@
2008@@
일본,
야구@@
럼@@
파에
길다.
있었다면
감응@@
형식은
바보
는가?"
유감@@
정서
자발적인
보세요:
허리를
시작되기
소녀들이
표현하기
후퇴@@
거품
진실이
밖을
민주적
평화의
요소의
무시하고
이르렀을
신봉@@
신,
구부@@
없다는것을
물론이지,
부족은
크리스마@@
제목을
싫증이
다윈의
태우고
사막의
태어났다.
불행하게도,
자본을
개념이다.
4시에
선거에
정서가
깨달았습니다.
낙타
조정할
통용되는
대통령을
혼동@@
공통점은
노예
현명@@
경치를
들었고,
미쳤다고
40~@@
까다@@
집단에
껴@@
시작한다
양자역@@
시도한다.
시기가
노인의
온라인으로
시각에서
모는
존재하기
고생@@
썼고,
인가?@@
85%
전까지
토론했다.
이기때문이다.
보여줄게.
답장을
명만
깨달을
덕분에
에이즈를
발전했다.
원자의
사람인지
췌장@@
Mo@@
용어를
동업@@
er가
들어올
던지@@
길이는
전형@@
경감@@
잡았다.
잡지에서
이치@@
물건,
음은
셈이다.
응급@@
해칠
뚝@@
행복하고
클수록
포르노
입니다,
밝아@@
왕래@@
시선을
서비스는
있었지만,
넘지
파티를
회복하는
진실하고
태양에네르기@@
현상이다.
채를
해당하는
콘텐츠@@
브러@@
저쪽에
같은@@
부엌@@
엄청
해봤@@
균
하와@@
따르지
누설@@
떠다니는
피트에
폭발
종업@@
죄를
착각을
발견했는데,
비상@@
몬테@@
슬라이드는
야자@@
잔디@@
'입니다.
톤을
깊이가
건설하기
대화에
아까@@
전략적
심는
처리를
겸손한
쌓인
만에서
공백@@
켜져
센터로
열정적인
구하지
위태@@
형성한
실례를
츠를
났을
사람에게는
수단이
척의
가지고,
낭비하는
삼림의
파괴하고
사람으로서
7000@@
나아가게
동원@@
일찍@@
악의
기준으로
엔지니어
오와
창출할
시추@@
설계하기
망은
실험실은
arr@@
소속@@
부정부패@@
핵융합@@
4월
채팅@@
사용자@@
엔진
보자."
원소가
다시말하면
17살
소리이다.
카타@@
더운
의미할
병,
온라@@
잡지는
꿀벌을
잎이
망의
얽@@
은행을
5살
과학에서
전자기@@
천국에
생각도
제자리에
달리기
신화@@
파일
제도의
선거를
정글@@
매력이
말씀해
여부@@
최고경영@@
알라@@
신체에
독감이
단위@@
하늘
마리
알래스카@@
심장병
Arduin@@
뉴스는
곡선이
쓰나미@@
살인범@@
주의가
소송을
돌고래가
쇠똥구@@
게리:
거미줄을
현숙@@
경전증후군@@
닉
해양의
연구개발@@
생물이다.
보이시@@
생물들을
1.5@@
일종@@
호의
꼬리
들릴
애들을
틈을
반박@@
불리한
고양이와
일하지
추앙@@
승진@@
사적인
선두@@
2009@@
EC@@
않겠는가?
대가는
적과
한계@@
방향은
쓴다
머릿@@
조영@@
기적@@
불러일으켰다.
애들
깨끗하고
짐
심,
들었어요
윤리
있겠어?
모스크@@
준칙을
폐기물
일원@@
어떡@@
이용한
신다.
나.
한다!
이겼다.
참가했다.
테르@@
방울을
반사
어버@@
돌아다녔@@
얘네
본다
벌지
실험과
감지하는
78@@
투자가
금의
MIT
비엔@@
읽어
음향@@
음향
족을
들어가고
스크린의
언급했@@
우연이
음표를
춤추는
가수@@
않은가?
척하는
하소연@@
였어.
않을까
두려워한다.
제외한
경멸@@
이란의
끝나@@
붙여
붙였다.
글에서
기억나?
벤
발생하면
울지
옮겨야
분마다
조류의
초와
비치@@
뚜@@
마지막까지
플랑크톤@@
물고@@
트라@@
육
칼로@@
금요일
심에서
피아
랐어요.
면서도
생산에
있어요?@@
혼자서
헷갈@@
알려줍니다.
겐
법률의
희석@@
리념@@
뮤@@
최근에야
돌이
있을뿐만아니라
기울여
단체는
비전을
토에서
주변@@
위안@@
모퉁@@
D.@@
끌어들여
주머니
타인@@
카메라에
증명한다
사진들이
기대어
오라고
사냥감을
평등을
대답해야
조종할
목적으로
관념에
더라@@
결혼할
싸서
일간의
식당에서
중퇴@@
개국이
것은:
문이다.
조건에
사고방식은
유력한
귀한
되였는가를
맹목적으로
창조해야
이끌었다.
얼을
문,
플랫폼이
사업에서
간이
내려와
교정@@
오에서
을수록
쇄
이케@@
리도
아름답다고
설명이
진다면,
가져올@@
투사@@
맑@@
부흥@@
의과@@
간행@@
모른다.@@
갇힌
가능한지
생체@@
직업은
할머니의
아치@@
유럽,
옥스퍼드
제공할수
강이
있더라도
전시를
어렵지만
성립@@
2는
나선@@
와도
건설하여
육을
말하고,
무관심@@
만하다.
제기하고
몸에는
병리@@
잖아?
항생@@
빙하가
물속으로
있어야만
사들은
죄책감을
가르친
갈망한다.
십여
순종@@
책망@@
능력의
측은지@@
접근하는
고래를
하게,
쉽다
선택하면
알잖아
차고에서
동기는
뚜렷하지
1시간
했다.그리고
전대미문의
2차원
분석하고
생각에@@
린,
기절@@
각성@@
혔다
해야겠@@
조이다.
서로에게
세가지
2011@@
십니까?@@
멈추었다.
듯
곡의
전반@@
분들께
프로젝트로
황을
대박@@
난다는
개괄@@
을까요?@@
저주@@
후부터
시작되었을
소개하겠습니다.
정수를
예견할
구속@@
생존에
측량@@
흐르고
엽
강자
것뿐만
새끼
브랜드를
협력이
커지고
환각을
깨어
시각에
명씩
과장된
외로운
디자이너는
돌이켜@@
프와
액세@@
계시를
부지런@@
든지,
않습니까?"
핸드@@
전에도
고등학교에
았기
연합하여
젓@@
늑대@@
글쎄@@
밀도를
2천@@
우연의
토론하기
MB@@
뚱@@
보인다는
맞은
알려야
록,
의자가
공연이
말해라.
차지할
줄기세포
매끄러운
4억
콩
맞다.
신과
모일
정책은
비영리@@
창조적
목적지에
산업에
노동자들이
있어서는
주세요.@@
목표이다.
대규모의
여길
대체적인
없든
피자를
객관@@
바둑@@
당연하다고
강박@@
건을
계급@@
인형을
만났는데
녀자애@@
마을로
직을
컴퓨터,
총체적으로
187@@
바빌@@
만들었다고
만났고,
부족을
꽃꿀@@
노란
주파수
사람들만이
아마@@
연기를
부패를
색깔은
입술@@
필름@@
하이라이@@
떠오르는
인터페이스@@
클린턴@@
(미국
슬픔을
중요하며
수천수만의
지수가
타를
인종차별@@
안보
국민들이
할머니를
프로이@@
바나@@
세계보건@@
1800@@
부여하는
못하지만,
있는가,
지오그래픽@@
신축@@
도달한
계정을
엇@@
대답하지
부모,
분석하는
열대@@
2005년
참여하지
슈퍼마켓@@
엔지니@@
건너는
여정의
락을
무기의
수리를
후면
무게는
심장을
설립하여
매력은
꼭@@
기상@@
체인
개성을
을수도
꿀@@
도안@@
모르겠다
윙@@
때문이야
"와"@@
네트워크,
")
이듬@@
래의
놓고,
지렛@@
인들도
계획,
결말이
.....@@
심부@@
능력이다.
칼슘@@
발견했어요
는지.
특징
크로
몸매@@
두뇌@@
만족할
인과@@
더,
기이@@
야외에서
로버@@
잔인한
애리조@@
윌리엄@@
가치관과
종식@@
속담@@
보내서
마라."
또한,
향하고
광범위@@
다녀@@
정치인들이
해결할수
규제
의원@@
그때,
캔자@@
안정적인
버스@@
지수는
강제@@
류형의
효능@@
좋아하는지
중력을
NASA가
코페르니쿠@@
위해서였다.
것들이다.
대륙에
지상
대중교통@@
산업의
자산을
연료의
보여줘야
예사롭지
가깝고
악을
뿐이지만,
물리학자
200
da@@
ton@@
띄는
항성이
원자를
특성은
액체를
생각나게
쌓을
im
전환할
Ed@@
신문에
IP@@
ike
누군@@
생각이라고
폭동@@
방정식을
이동하고
박쥐가
대부분을
Gu@@
분별할
사태@@
남아@@
생각합니다.@@
0년대부터
선충@@
비행체는
14년
여기고
강철@@
망원@@
관이다.
옷이
앨런@@
있다.우리가
5월
달콤@@
엄마와
어때@@
틀림@@
ind@@
아프리카와
설치하여
대화에서
직관적으로
뎅기@@
히틀@@
간단하지만
산호초를
사우디아라비@@
트럭
(시청자
알았지?
회계@@
리더십
에이즈와
네트워크로
하향식
테슬@@
정리하는
ian@@
없다."@@
규모
사용이
논리적
먹이사슬@@
LA@@
관들은
J:
일산화질@@
푸아그@@
초전도@@
가베:
자극적인
미끼@@
도착하면
보여.
맥
지대@@
생활한다.
시작했다고
생물학자들은
중시하지
표현과
체계에서
(여러사람이
감도
생각했어요
어떠한@@
협동@@
로서는
되였기때문이다.
기회에
대열에
파란
결과도
무를
직업에
일꾼@@
졌지만
불과하다고
가벼@@
보고서는
회의는
130@@
하세요.@@
팔에
자기공명@@
이루고
사물
정치의
날카로운
흑백@@
생활로
순수@@
목격한
시킨다면
주목해야
유엔은
뚱뚱한
파티에서
휘파람
지적할
마르크@@
힌트를
과학기술과
작지만
정제@@
응용은
납득@@
MIT의
가져가@@
대학이
나아가야
창조할수
방법이다
남의
유출
플로@@
한창
현상의
교류의
린다.@@
멀리서
감시하고
's
장소가
화려@@
수용할
잉태@@
에네르기를
소리:
열정은
의거@@
증으로
심층적인
두려워할
항쟁@@
고맙습니다.
였는지
말했어요.
아니요,
그래픽@@
"또는"@@
하자."
부대를
대공@@
재활용
음식으로
5년의
주지@@
서양의
카르@@
것으로서
스코틀랜드@@
말해도
기본적으로,
산물이다.
트레@@
몰두@@
두드러@@
카를
i,
생각하십니까?
달,
만져@@
근육
계속하고
두려워하게
적용되지
신임@@
어민@@
마음으로
영구적으로
갈라파고스
수립@@
창조하기
에서처럼
도와주@@
18분
염
피해자가
백신은
접종@@
목표로
입었다.
북부에서
절반에
스타벅@@
발렌@@
모아서
울고
식에서
-우리는
여자도
폭력은
되었다."
듯@@
지체@@
누적@@
그렇지,
우유를
같았다
열지
궁금해@@
준비하는
TED를
면허@@
암세포가
치료법이
이유도
중계@@
바꾸어야
신속@@
에티오피아@@
82@@
매매@@
으로의
했거나
천년
국이다.
머물러
나요?"
잉글@@
폭력과
생각해보면
은행에서
승낙@@
답답@@
유추@@
바늘
늦출
지금과
생각했다."@@
다.그
좋고,
의심한다.
이력@@
어려운@@
걸리고
되찾을
선진국@@
콩고@@
지낼
셉@@
해수@@
피난처@@
2003년
격자
경지에
이쪽으로
일시적인
시애틀@@
루이@@
예술적
노화
이기는
1000
이정@@
부르지
수하는
대답하기
원본
죽는다.
마이너스
소시@@
일부분은
이다;@@
손에는
평소@@
블
주방
영혼이
8개의
산업은
걱정하게
2가
이니까.
욕망을
능력도
구동
동물들을
설치하고
해!
이메일
쉽고
신중하게
선택하지
없음
찾았어요.
지원이
마침@@
our@@
mm@@
맘@@
기록된
리론@@
준다면
특별
기회
Ben@@
인이나
4백만
못했어요.
그릇에
개발하기
되겠@@
고요@@
색깔로
센티미터@@
정식
느낌,
책임
복이
개구리를
가장자@@
미사@@
바닥을
들어왔다.
호흡
영상이
곳이라고
s,
빌릴
'와'@@
함유되어
문제라는
않습니까?@@
보았는데
방법일
범위에
아브라@@
공식적인
외로
반,
비천@@
샌프란시스코에서
집행
노력한다
존중하는
선풍@@
방문했을
핸@@
게임과
오렌지@@
곤충
설치하는
넣는다.
아니?
증가함에
이유다.
결정했을
컬러
잘해야
품과
타임즈@@
아이폰을
연결시킬
서커@@
차도
Dan@@
기.
Bar@@
혀를
한테서
골
꿀벌
단백질의
스틱@@
해지면
고기@@
네덜란@@
조항@@
대회의
주범@@
한을
아이디어
선거에서
부동산
외에는
상황,
세균에
아이도
세포들을
눈길을
km@@
말했던
여가
생각보다
달러밖에
가톨릭
말했다."우리는
표지가
모와
장벽을
유사하다.
파란색은
입는
하신
y가
에드워드
때문이다."@@
그녀들이
시집@@
이야?@@
John@@
말했다."당신은
듭@@
리나
믿음직@@
러닝@@
국면을
고향을
샤오@@
품질
일에는
주머니를
발표하는
니아@@
모범@@
해졌고,
생활할
자판@@
독점@@
잉글랜드
모르고,
엉망진창인
레벨@@
호출@@
부족하고
변두@@
남
소형@@
꽃가루
프로세스를
이라고도
44@@
상식에
갖고있는데
맡고
시각이
생각해냈@@
'도
이진
안드@@
개념의
NGO@@
장치로
미생물이
라코@@
법정에서
투쟁을
개선하고
력사@@
시에라리온@@
밭에서
노부@@
적용되는
그만두고
했을까요?
다르다고
해결될
유령@@
맺는
u
배워서
애호가@@
때였다.
북반@@
소득은
폭력의
분들
아프가니스탄의
로부터@@
있다.그
고객
어두워@@
(여러분이
비약@@
물리학
40만
노르웨이
별이
기억한다
표면이
측
무게의
의식과
호텔에
캄@@
오해하지
땅의
망에
발명하지
미래로
무선@@
점들은
int@@
후자는
빗물을
구해야
시내
참여
테스트는
증가는
선생님
해리@@
환자들에게
참여했다.
일군@@
골라서
마지@@
휘발유
소비자의
정부도
빚을
구매하는
켓@@
페이지에서
찔@@
기금을
자극하는
화면은
"와@@
가져가
냄새
인슐@@
일이지만,
연루@@
단백질은
슬라이드@@
주장을
us
섬이
이벤@@
노란색@@
갈아@@
여기서는
기대한다.
토론하지
건널
시행@@
후보
기계와
문제다.
영장@@
없었습니다.
조와
프로젝트이다.
날아갔다.
스페이@@
집중해야
죽었다는
내재@@
강제
외면@@
업에서
우리에게서
육체@@
마술
ib@@
Fran@@
선택이다.
뿐이었다.
일각@@
수직
않으면,
피아노@@
결에
정신적으로
매력을
미디어@@
괜찮아.
공연은
덧@@
이산화탄@@
철학자@@
분장@@
단절된
반짝@@
마라,
원활@@
림상@@
발견의
브레이@@
우며
설탕
폐쇄된
론쟁@@
전립선@@
행성은
수소를
사망한
감시할
수학적
1초
박쥐는
재빨리
마그네@@
주세요."
일부분이다.
우리에게는
받는다는
사용하도록
킬로@@
동포@@
설정할
부수@@
증상은
의미하는가?
Ke@@
퇴직
독소를
천주@@
조율@@
Ros@@
정신질환을
시켰다는
증조@@
훔치는
운행하는
아이고,
빅
액은
제안을
공격이
티의
제작할
올챙@@
진공
됐는지
세력의
인도할
확고한
숫자로
암과
고상@@
번역
소셜@@
그린:
훌륭하다.
SETI@@
키리바@@
반란@@
Ap@@
다의
소득의
전염병을
플루@@
임계@@
MO@@
Jer@@
에볼@@
먹구름@@
StoryCorp@@
영화로
여겼@@
대서양을
분으로
탑
독을
황당@@
악은
근거
응용하는
공원에서
됐죠
없다,
가요.
되다
동료는
또는"@@
물어봤어요.
4개
낮다는
년령@@
우에
가난하고
조치는
위치와
최적화@@
치우@@
정책과
불공평한
재능
주었습니다.
배후에
단위의
통제할수
통증이
4~@@
그때@@
제작된
르완다
잊었다.
공민의
블록
요소이다.
싶었기
바이오@@
생화학
하나하나가
따른@@
하지?@@
빙산의
어!@@
불어@@
창피@@
있는,
뭐예요?
콘크리@@
부딪혔을
공용
현황@@
바꾸었다
주었을
사람에게서
된후
늘리는
설득력
킴@@
말한다.@@
오케스트@@
전류를
채택하여
영상으로
인터페이@@
연구소의
스러웠다.
비슷해요.
공연하는
홀
노래가
않았을까?
길게
콘서트홀@@
부분도
텍@@
밴드
추는
장소는
아닌가?@@
gh@@
충돌하는
선정@@
아들,
공개하는
때문이야.
숨기@@
룸메이@@
침묵을
희망과
극복하는
멈추고,
3월
댓@@
트윗@@
당하지
시작했다."@@
진실하지
돌이킬
뚜껑@@
크기에
경으로
심어
문제야
이치에
시작이
시켰기
철도
익명@@
편리하게
상품이
으니까요
"입니다.
릴지
어딘가에
가게에서
나타났을
팔고
가르침을
유지한다.
증상@@
이걸로
브로@@
함에서
전구@@
린다면,
자각@@
척수
하였다.@@
콜라@@
들어가게
마다가스카@@
경보@@
이거,
2006@@
역이
성명@@
일체@@
작업이
일으켰다
근원은
보상은
들어요
예외는
시켰습니다.
공정을
힘들게
원가는
찍었어요.
못했지만
알릴
어?"
적응해야
살의
왜냐@@
전문가들이
걸어야
준비한
상해를
Robert
버림@@
똑같아
탄을
돌보고
친구인
방갈로르@@
생각해봐,
예요.@@
시작이다.
'과'@@
한의
이론과
외계인이
습니까,
불린다
용감@@
지시@@
머스
장군@@
관개@@
고찰@@
하였으며
내버려
화물을
거래가
전환의
코코@@
이런저런
떨어지지
불쌍@@
무의식중에
심리학자들은
졸업하고
진행했다.
즐기@@
주시겠@@
응용될
성과에
결론이
들면서
근무
부모들은
있느냐@@
답안@@
진동
전쟁으로
죽었다
운영하고
전략은
선동@@
조직으로
계통의
데만
20,
안정을
두려운
세웠다
날수
건축가가
님은
2010년에
완공@@
토론해야
정의하고
자보다
논리에
낭비하지
건너
자손@@
메커니즘은
나이를
치료하기
유형을
건의한다.
어긋@@
지나갔@@
히말라야@@
가기로
지나가@@
기진맥진@@
밑으로
불과했다.
드나@@
렸는데,
받았고
십시오.@@
iPh@@
핸드폰에
책으로
이르는
스트리@@
연결하고
섬유를
연결하면
건축이
그물
럼을
보장하기
프린터를
Ge@@
e에
훌륭하고
스웨@@
사용하려고
대학원@@
ris@@
Par@@
sk@@
들었기
행동에서
섭@@
보답을
해보자.
인입니다.
뜻이에요.
한가?
98%
"세상에,
공감할
았는지
것이니
파편@@
나"@@
비출
폐허@@
장악할
곡은
크리스는
생각한다고
합작
과거로
카시@@
인터넷으로
있는가?@@
한가지
입니까,
돌아서서
수요는
그루의
왔고
대칭
면과
통과했다.
소련
사건과
미혹@@
참혹@@
마일에
봉
용품을
틀이
지기를
이다.내가
Rob@@
주사를
깜빡@@
활동가@@
발생한다는
숫자의
아이러니@@
구호@@
꺼냈@@
향
교회
뺏@@
께@@
무엇에
수직으로
가져오@@
나이지리아의
깨달았어요.
교사가
존재는
길모퉁@@
해볼게요.
부서가
낳았다.
서부의
결한
주어진
o가
않았고
잡화@@
탐지
작용은
강도가
원고를
촬영은
헬멧을
2~@@
BF:@@
불편하게
형제가
근처@@
교환
이봐요,
레스@@
마스터@@
부분적인
분뇨@@
한계에
영국,
기업가들이
그,
유행
연결시킨다.
여름,
발자취를
살인
건물과
250만
12개의
박물관이
신부@@
니와
했다.그들은
아니라면,
누구에게도
이빨을
엄마를
아예
보시다시피,
미,
딕@@
그네@@
체험이
폭격@@
참가하는
의제@@
Sa@@
흥분시킨다.
하기전에
커를
여성들을
부르며
지키고
아우@@
걱정된다.
총명하고
주말에
외에서
전국적인
양극@@
낚시@@
목은
으니까.
일정
음의
마에
전파되는
누를
봄
보는지
속성을
마."
추방@@
왔다갔다하며
""@@
것인가.
예비@@
아무튼,
출마@@
귀가
설립할
세로@@
유목@@
처벌@@
구조에서
애플리케이@@
휘발유@@
튀니@@
연민@@
짐바브웨@@
권으로
두루마@@
뜻대로
건이
린과
깜짝할
두려@@
비친
후속
견본@@
토지의
시킨다는
찾았다고
도덕적으로
부한
동시@@
시작은
손도@@
나누기
인종,
여행에서
항목에
터빈@@
프에
경기가
담당@@
에드@@
경험으로
100여
크기로
정리할
계속해서
치료는
ad
기관과
돌아다니@@
서비@@
알아보는
업은
앤
수학이
캘리포니아에
과일
소모가
난제@@
나무,
왔어.
지역사회와
En@@
누리고
담배
는가@@
Jon@@
있을까요?@@
군대의
햄
버스에
회피@@
효율은
1980년@@
으러
파트너를
둥지를
재밌어요.
이었는데
사람이기
생각났@@
5일
사례
군중
사상과
오디오
인이라는
맑은
방출할
도파민
완성된
Mon@@
정하게
발레@@
늪@@
생태계가
기쁨을
해결했다.
들면"@@
웃음
아인슈타인이
국민
은행은
발명하고
자이자
서너
있어?@@
국회
물질로
규모는
호수@@
생생@@
조선@@
96@@
설계,
거품을
간,
berg@@
증가시킬
플래@@
로그인@@
전략이
전파될
반대로,
방직@@
ric@@
통제하기
메릴@@
30년간
감탄@@
역할에
잠깐만@@
폭력으로
수동적인
존재의
상대방이
테디베@@
곡이
K
관중이
교수는
반나@@
가능하고
슬라이드
후에@@
erm@@
평면
않을것이다.
보여야
도입니다.
돌아가자.
우선적으로
인플레이@@
분자로
사슬을
Sha@@
계산이
전제하에
han
너,
되였으며
두께@@
중반에
진리@@
중점적으로
움직여@@
측정을
이러지?
코딩
end@@
발성
재산을
모니터@@
땀을
피우@@
토위
뉴런과
적재@@
피의
떼가
엔진은
매끄럽@@
기발한
책벌레@@
는가를
맵@@
배고픔@@
저널@@
치유할
이익
회복될
지혜는
장점이
만났다
준다면,
독감에
민주적인
암호
핵무기를
i의
매뉴@@
샤워@@
때문이죠.
조약을
범죄에
혁명적인
인쇄된
오프라@@
아키@@
풍선
춘
예상을
드래@@
유조@@
il
더듬@@
질서를
심장병이
FOX@@
없었는데,
8,
안전벨트를
외기@@
어머@@
참다랑@@
일렉@@
분산
크리켓을
프탈레이@@
JA:
일론
최하@@
결합하면
거대
리모컨@@
입이
기둥
기둥을
석에서
50억
발전시키고
가혹@@
마음속에서
결정
목표와
들다.
인간적으로
이윤이
한국
아프가니스탄과
등한
묻혀
하다는것을
위치는
35%
격차가
걱정했다.
인상적인
분산된
산물
전반적인
명확하고
변수를
AA@@
상상해봐
거쳐야
초로
없도록
외딴
토리@@
세대에
빈민가
방해가
상연@@
스튜어@@
원들을
으셨@@
시켰다고
생각할지도
행위,
경이@@
DI@@
시작에
소프트웨@@
안전과
분야가
칙@@
곱슬@@
4살
단락은
합니다,
익숙하다.
보셨을
포함되지
걸리면
준다고
토큰@@
대상은
어려웠@@
영업@@
관하여,
사려고
하니,
음악도
본적이
바꾸고,
이상하게도
브가
상자@@
성격을
LED
만들려면
설치했다.
맞춤@@
멜로디@@
효과도
소리도
이번@@
보다는
면에서는
깡@@
졌는지
우울증을
나타나서
언론에
내리지
모르겠습니다.
없애는
바라고
녀자@@
아내,
뉴올리언@@
썼어요
닐
4개의
비닐봉@@
의존해야
연료가
칼로리를
조상들은
슈퍼마켓에
도구,
즐겁다.
일부이다.
곳도
하우@@
의적인
세척@@
러는
1억@@
비아의
서고
나라도
AR@@
지역이다.
일년
브는
보낸@@
진일보한
건강의
일으킨@@
달라
열악한
휘말@@
바이러스,
벌어지고
무례@@
포스트@@
곁에서
섞여
나빠질
일부입니다.
낙하산을
허벅@@
2001년
착륙
전투에서
군대
낙후@@
남기지
인들@@
갇혔@@
아내에게
예전에는
두르@@
팽@@
제외하고@@
초래하지
부엉@@
쪼@@
줘,
몸부림@@
거부하는
',
의미하는
포기하는
신에게
안녕@@
인권@@
아프리카에서는
발생합니다.
희망했다.
제품으로
급증@@
부분
그나
주의로
7살
기숙@@
신입@@
교에서
속도와
의식적인
길과
청할
검사하고
작업의
품질이
현혹@@
공원에
왜냐
주의,
불일@@
즐기고
부드럽고
마사@@
그것은"@@
표로
개발도상국
차고
시다.
완성하고
고객은
미얀@@
광물
방어
패널@@
허리케@@
교통수단을
이용하지
들어가지
자본
부분입니다.
대화의
쟁
함이다.
것이다!
개량@@
추가했다.
수명의
설명한
주장한다.
논쟁할
이로써
기후의
두드리는
예전처럼
테이프를
타자를
종이가
불안하게
다람@@
콤@@
광섬유@@
궁금한
당겨@@
기반@@
얘기하는
담겨
받기를
성별,
전체로
하다"고
끌어들이는
한다--@@
3:
뱀
숙이고
들리지만
담배@@
누르고
입력
버전은
입력할
개발을
을게요.
시청자@@
자리가
전날
설립한
43@@
이미지의
노력은
실린
책략@@
적절하게
유일무이@@
말했어요
그녀는"나는
유난히
아니겠@@
번.
비평가@@
죄책@@
똑같다.
밑바닥@@
었다."@@
사라
품의
행운이다.
감사할
하는가,
발굴할
일생에서
덩어리가
구부러진
재건하는
색채를
탁월@@
탐구할
거기에서
것이다--@@
맞혀@@
질문,
언론을
내려갈
주전@@
낭을
갈라진
바람에
동남@@
객
줄기
유럽연합@@
변의
수도꼭@@
소프트
자이기
여성들에게
가르친다.
빵은
세계에서는
생리적
태어나
나쁘게
발굴하는
흔들리는
최선의
공공장소에서
더를
설명하겠습니다.
식수를
자"@@
같이@@
그렇기
잤@@
들었는데
순조롭@@
사이즈@@
이때,
경매@@
밝혔다.
임대@@
렸다.@@
주실
미칠지
조작을
식품의약@@
피와
DAR@@
딱정벌레@@
운동할
위치로
조작하는
문헌을
저장하고
환자에
Con@@
윤곽을
유방암에
되려면
뜨거워@@
안된다.
이루기
지도,
일부분을
마십시오.
풍선을
다고?
연필@@
5.@@
쌍둥이
맞죠?
템플릿@@
분해할
페루@@
화될
개나
BG:
트입니다.
주의자들이
지점에서
청부업@@
간접적으로
숨
비결은
되였다.@@
단어에
정확하다는
라인을
바쁘다.
발생하기
발견했어요.
Ab@@
코끼리의
보에
스피커@@
태도로
압을
대략@@
도라는
레드@@
내며
아침을
좋지만,
맞습니까?
릅@@
처지를
등과
애국@@
콘서@@
오토바@@
N
질문은:
학우@@
스태@@
인물이
조각의
강단에
계산하고
초급
셀루@@
국민에게
다스@@
용의
민족의
면도
기다렸다.
입으로
개인을
그룹이
의학의
봅시@@
라고도
꿀벌의
자외선
촬영하는
나오지
켓
가지에
악마@@
그래요?
사건,
선거가
암암리에
해왔다.
모드를
역겨@@
협의를
엘리트
미디어를
쌍방이
테스트에서
극단적으로
삼는다.
38@@
계획도
ph@@
승려@@
150년
외부에서
배경에
나타나고
팔았다.
언급해야
라디오를
트위터를
입니다."@@
이미지와
활력을
기원을
의도는
추적하여
여행하는
격려한다.
하나요?
메리
다리에서
부지@@
어려워요.
눈에서
척을
트럭을
어리@@
연구,
고체
시도는
두개골
채우고
찾았는데,
4시간
방에는
NI@@
때릴
통계에
휴대폰이
부위를
편리한
온난화
탄수화@@
약물은
심지어는
돌아갑니다.
발전시켜
O
작품들을
태울
없다-@@
도와주는
베일을
뉴욕시의
토지@@
도로가
은혜@@
가려는
가져왔다
휴가
어둡고
가늠@@
아기와
상호작용이
자폐증에
랜드는
보류@@
FBI@@
않겠다고
크고,
해온
딘
의심하지
깊게
이들이
영어는
2002년
틱@@
힘들어요.
깨고
티라노사우루@@
핏@@
기나
관중의
구어@@
설레@@
존재가
기반한
학대를
마셨@@
관찰하기
제왕@@
파운드가
식별
대서양
발생하고
수령@@
고속@@
밀하게
달팽이@@
공으로
do@@
세요@@
끼쳤@@
"너희들은
샌드@@
알고리즘이
설명은
보잘것없는
강,
릴수
일하러
때입니다.
시멘트
강우@@
없다;@@
공급할
적용된다.
되지만,
관계이다.
벌었다.
토성
하나인
채소@@
모른다."
30일
별에서
아파트
그림입니다.
구성할
늄@@
인도주의@@
우주비행@@
느낀
간은
주민들은
타격을
이념이
주의할
보라색
설득력이
몸소
전환이
절약
들어주세요.
오르기
풍력
소진@@
조각은
주어@@
화장실
달리기를
틱
잭
느낌
아카데미@@
면?
마음속에는
전자는
꿈,
창조력이
anc@@
예의
가깝다는
말인지
카메라와
깊이@@
10년을
중요성은
기구에서
인도에서는
맷
일본은
as
테두리
무엇이@@
동의할
아칸@@
해제@@
대응해야
밀집@@
지위에
눈,
공급하는
응집@@
책도
계산의
하셨다.
그렇고
고문을
할것이라고
제목은'@@
필수
아름다워@@
나타낸@@
이기를
수잔@@
범블@@
발명이
견습@@
그것들로
이용해야
받아들였다.
말았어야
숫자에
선택과
값이
어려운지
알고리즘
10,
줄기세포는
고갈@@
진행한
자면
시련을
민권
부르기
퍼레이@@
전제@@
인적
조합하여
복권을
진흙
제거해야
하나님은
전염병@@
부분만
내려놓고
we@@
0년의
사회에는
정신의
려요.
앨리@@
고마워요
화학적
피터
학적인
학살
호주@@
실종@@
시달리고
결심했다.
브랜@@
uc@@
섬을
자갈@@
질이다.
ust@@
받았다고
발현@@
직원들의
메타@@
전부는
사람이다
버튼이
개미떼@@
신기하다.
전염병
지대에
죽이지
하느님께
약과
3D@@
보도는
등급을
자릿@@
채택할
부상을
심전@@
유충@@
일이지만
아몬@@
골격근@@
힉스@@
펠로몬@@
이미지,
파이프
흡수할
펩@@
익살스러운
집이다.
생태계@@
안정적으로
집게@@
밑의
됩니다
창업
어린이는
엄숙하게
고수@@
노동자를
도태@@
영역의
점이다
핸드폰으로
노동자의
나타내고
젊은이들의
이후,
전통적으로
범위의
실천을
성능을
관련될
10의
수십만
지난번
객이
그늘@@
알려드리@@
만성
조절하는
주도하는
기회와
25
행사를
자루를
서사@@
모르고
대우를
다이아몬@@
속삭@@
문신@@
피어@@
sp@@
죽었@@
검색할
견뎌@@
커뮤니티의
결과와
성경
전까지는
입법@@
가져다줄수
주간
간접@@
방향의
투입할
딸라를
노동자가
악기
책이다.
구한
외부와
오페라
입니다.그것은
거문@@
춰
없었지만,
프로그래밍을
사용해서
녹음을
보존되어
관도
데서
조정을
너가
"그
변화시켰다
나만
또"@@
뻔했다.
어이다.
부위의
됩@@
신분
당신에
겪게
금기를
주인이
주소@@
사후에
하르@@
한다"는
버전이
프랑스에서
표현하고자
포기해야
나온다
거주할
토에
확장을
읽으면
상상해야
바뀌었다
교외의
단체로
아이에
증기@@
환상
강의를
정확하다.
손바닥@@
소원이
여행이
서식지를
기울이고
해에는
보호가
해와
곳까지
직면
거듭
어린이들에게
도전하는
발하고
늦추는
생겼습니다.
남길
저장된
안녕히
문에서
남자아이를
행이
성행위를
중이다.
솔루션@@
스카이다이빙@@
메고
오셨@@
나열@@
세요."
나타나면
가슴@@
하길
였어
Bri@@
반대의
합쳐
스크린
경력은
치르@@
아쉬@@
얻었다는
쫓는
확보해야
60
포기할
리아에
없을지도
발걸음@@
방문하여
시장으로
많았다.
피,
목격하고
잉
회의의
늘어날
몹시
는데도
고마워@@
반전@@
렸기
자연재@@
1학년
기뻐할
적극적이고
상금을
곤란@@
기뻤다.
조립할
합니까
부들이
싫어한다.
추가적인
자부@@
직장@@
쇠약@@
하든지
창조한다.
더하기
돌리면
프랑스의
노르웨@@
청했다.
대학과
조직한
충동@@
흥미진진@@
고속으로
기어
아빠,
곳이야
것이라면
이다.하지만
다가올
찾도록
덮인
빌딩을
기초하고
키워@@
하기는
도서관에서
비슷해
보여주면
연극을
으로.
있을것이다.
요소,
활동이다.
될수록
관해서
신진대@@
적당히
치료법은
하더라도.
주장은
료해할수
장려하는
색이다.
각지로
해발
보고를
시대와
뭐야?
낯설@@
삶과
편지
기승을
했는가
빨간@@
리아,
해안의
배신@@
때문에@@
깨달@@
누구인@@
마이크가
크기와
수중에
활성
이루었다.
RO@@
건,
없는데
깨뜨릴
뭐하는
코드는
니다@@
소프트웨어의
스탠포@@
비디오는
데터를
용기
가르치기
가입하여
예술품을
Un@@
검사는
감상하는
밑바닥
공학을
재활
집안일을
나서야
방사능
태양계
ass@@
네팔@@
성욕을
수반@@
쓰러뜨@@
보살핌@@
동원하여
향수@@
소환@@
시각적으로
말대로
그려야
충분하다
놀랐어요.
위성의
달은
발사할
사건으로
갈망을
'다.
주둔@@
마스크@@
것이다.만약
ath@@
추워@@
도우@@
보자,
하룻@@
에스트로겐@@
성분은
생긴다.
진의
당뇨병
심장이
남미@@
파충@@
양과
오클@@
경제학의
필요하며,
가스의
되었습니다
새겨져
걱정
뉴델@@
른다.
한눈을
때문만이
맞게
아카@@
저한테는
우리들
무함마@@
판단하는
아름다움과
카펫@@
바뀌어야
개업@@
정의하는
모양은
라는것을
테이블에
170@@
그런대로
열었다
Bo@@
가운데서
만들어졌다.
빨간색으로
먹게
작용하고
지면에
기계,
원숭이를
영장류
생물과
결정된다.
판별할
이곳
잘라서
올라가야
세요,
경련을
농장
수술에
프로그램으로
수분@@
슬라이드에서
유로@@
보너@@
봐야겠@@
친구들@@
자유주의@@
존재하는데,
유튜브@@
공정한
8월
최저
첫해에
색깔
13살
석으로
잡지가
가능합니다.
현황을
기대했던
커튼@@
컨테이@@
비용도
학자이다.
"이것이
인간으로
비슷하다는
지배하는
pp@@
확대하면
검출@@
때-@@
그것들@@
(역@@
부족할
의제를
좋아해요
물어보면
들으러
끄덕@@
커뮤니티에서
설교@@
Char@@
세력은
즘
공동체를
점이라고
적대@@
파괴
낳은
누워서
분노,
희망합니다.
비관@@
까.
뉴요커
지갑@@
련계를
궁금하다.
토로
지중@@
독재
스크린에서
중동의
제퍼@@
성경@@
기한
새겨@@
박물관과
가을@@
익숙해졌@@
알아요?@@
작업에
부족이
현장의
비뚤@@
일어납니다.
에이즈로
진화했다.
사기를
이득을
항온@@
스펙트럼을
어요?"
아마추@@
텔레비전에
았다고
이다.그래서
와해@@
나이,
안개
출처를
캐롤@@
평상@@
바라보며
자리는
클린턴
했다.그래서
조상들이
차이
소스@@
있지만.
합시다.@@
출현은
단과
뤄@@
투표
업의
한쪽@@
95@@
아라.
무늬
공유해
양성
피해자를
심사를
작동하고
영감이
확장하는
세계이다.
재미있어@@
모방
머
7월
나에게서
웠고
다양성
Lin@@
머리와
호주에
샘플링@@
깨닫는
충돌의
니까,
행동도
역은
온다는
봤어.
웃으시며)
동의했다.
통과하지
맞춤형
도전
묻는다면
전자를
NASA는
세월
여러분들
생겼다는
흙을
잡한
스톤@@
중국어
증후@@
참가하여
4.@@
해보면
느냐에
오염이
초래하고
이르러서야
건강은
농장을
참가하고
인터페이스가
절개@@
산업이
중세
짖@@
16년
번쩍@@
온다면,
강으로
총에
외롭지
창녀@@
불법으로
소유하고
400년
정규
달러입니다.
밤의
단절@@
소모하는
축에
민첩@@
사명은
할뿐만아니라
소비자
사치@@
공원의
따로
반대편@@
까지는
텍스트
링크@@
신용
장치와
생각하시@@
공룡은
라기
마르코:
적용할
해라."
마이
병든
얘네가
굶주@@
들어서@@
간지@@
야!
동굴에
눈과
유죄
인정했다.
뇌에는
피부색을
하고있음을
뿐만이
스럽다고
과정입니다.
다가와
자유와
것이다;@@
지질
개발도상@@
코끼리가
단어와
페미니스트@@
쿠바
해군
미국인을
지적재산@@
켄
에탄올@@
입니다.이것은
옆의
양양@@
직책을
사전의
"-@@
설득하는
독성
헤아릴
앗아@@
우주선
사과
차원,
시드@@
북극
붕괴될
생일을
Will@@
조건
중간의
일정@@
량도
과자를
케네디@@
성경에서
지방이
반영하는
amp;quot;@@
느슨@@
닿지
노래의
수석
담요@@
과학자들과
성실한
취가
14
60년대에
중간에서
보냈습니다.
돌출@@
실,
양성하는
베토벤@@
상징한다.
용도를
은밀한
항성@@
원자핵@@
부딪혀
방출하여
니코@@
번거@@
조사한
비유를
얼마입니까?
결합할
z
질량
추진하고
피트가
B는
He@@
킹을
심오한
질량이
미세@@
판,
보여주려고
물체는
영향도
선수들이
운을
청력을
제시할
오존@@
화이트
터치
재료,
발효@@
것만큼
매듭@@
인내@@
말한"@@
마이크로소프트
성년@@
포도를
진실로
이해하려면
드물다.
타지
구글에서
해낼
ach@@
뜨겁@@
아날로그
의문이
노인을
부족,
최소@@
사진작가가
성공과
사용자에게
보유한
자면,
것인가@@
예약@@
대처해야
오클라호마시@@
다비@@
옷,
났고,
컴퓨팅@@
i가
충돌과
과정,
쓰려고
셔츠를
한데,
내포된
벗어나야
.com
췄@@
소한
돌리고
말하지만
급속한
병사들은
상공에서
금으로
의족
교통사고를
점프@@
형성한다.
비제로섬
갔다가
그곳이
Ph@@
데려가
단,
산호초
사우디
천연가스
폭
소비는
6~@@
프로듀@@
브레이크를
자지
사촌
원조는
게이머들이
야합니다.
호되게
눌러@@
A는
뜻에
Ushahidi@@
힌두@@
rat@@
점액@@
상어의
눌러
돌멩@@
몰디@@
도마@@
소송
유격대@@
시민의
세탁기를
딥
아이:
KB:@@
손가락,
레제트:
개발된
리다.
동물로
들여다@@
이들의
산골짜@@
화산이
압력은
싸움을
대서양@@
표시가
웅크리고
년마다
사고하고
몸속의
운행을
자극
말고는
평을
궐@@
결합시켜
하나였다.
있는것이
칠레@@
도달하기
획@@
투입하여
의사결정@@
아메리카의
격려했다.
독창@@
과학자들의
공기의
방식에서
할리우드
'과
개에서
제공한다
제인
체내
일상생활에
개방적이고
동의를
이야기했다
2004@@
지키기
으로'@@
새로운@@
재료에
소수
테크놀로@@
이야!
럼
있죠
시간으로
가방에
속임수를
시장과
30초
서서@@
덩어리로
든다
직감@@
주민
비용,
세인트@@
투자하고
금에
과잉@@
올리고
현재를
밴드를
목소리로
딩
담은
내용의
의약
의외로
압도@@
대성@@
장입니다.
춰야
밴드가
진실하게
뉴스에서
곳에서,
보면@@
보았지만
니까.@@
풍자@@
모로
싶어하기
테헤@@
우리의"@@
나중@@
그림들은
죠.@@
지나자
발과
대학교
섬은
하와이
웨이
제네@@
생산된
사회자:
식량이
굶주린
5개
광대한
제국의
0년
iel@@
꿈에
할게
작별@@
일러
조개@@
모형
일어나기
관리하고
촬영했다.
킬로메@@
고있음을
위원회는
있습@@
유산을
련합@@
핫스팟@@
방면으로
척수@@
폐에
호전@@
파트너
솔루션을
들었던
자들,
번이
하자,
2004년에
따라갈
떨어졌다
신중@@
뉴질랜드@@
웃음을
자살
보라.
살,
걸어갔다.
키우고
그다음에
겠죠
경미한
필요하면
치거나
봤어
분명합니다.
눌렀@@
연결시키는
t의
되였다
경영대학@@
뭐죠?
형태에
창조의
괴상한
불구@@
백만@@
중년
않았어
1년이
없었지만
시작했어
물어볼@@
웠고,
찬란한
말이야
아니라는것을
노벨상을
가격의
흥미진진한
강과
선물
시카고@@
양에
장사@@
농업을
툴@@
"한
분들을
해리
합작한
성립되지
반대편에
지능
산꼭대기에
실현하고
전사를
밀고
무한
의의@@
비슷하다고
연관된
비슷합니다.
훌륭합니다.
자서@@
미칩@@
인내심이
신문의
랐@@
렐@@
성인@@
허용하지
표지는
어지고
내려고
입구에서
카드에
동부
재건
중요할
투철@@
의존할
사격@@
확인하고
리거나
그리스의
부두@@
예산이
전에야
시기는
예측하기
연구했습니다.
날지
뭘까요?
가려면
산봉@@
돌렸다.
호수
캠프에
제트@@
올려놓@@
가치와
용서해
분산되어
전선
비트
중앙에
해안으로
아직@@
겪는
체험이다.
배우고,
횟@@
쿨@@
수동적으로
오프@@
알아차렸을
걸으면서
외출할
구글이
좋지만
움직이@@
업계는
인터페이스
가을에
일치하지
손목@@
y:
단조@@
학습에
er와
ood@@
a라는
시절에
"안녕하세요,
혁신,
텍사스
무너진
영혼의
쿵@@
않았는지
정하고
지니@@
다할
메디@@
산타@@
공사@@
안타깝게도
형광
작품이다.
거쳤다.
초상화를
보기만
각색@@
방송을
프로그램에서
이다--@@
결혼은
움직임을
때.@@
사라지게
호혜@@
짊@@
길이다.
가두@@
감옥의
양식@@
엄한
불러일으@@
위성은
따라야
선두주@@
기회로
속이
곁을
있을수
되고있다.
ron@@
진에
제안한
탄산@@
감소하고
임신을
전립선
인조
높게
가입했다.
현재와
주셨다.
그저
책상에
펜실베이니아
거,
이웃을
첫째:
도모@@
번째:
기대에
자이고
Wi@@
친근@@
있습니까,
시아@@
편집
요소도
감염될
놨어요.
개조할
주에서는
이탈리아의
약물과
생겨났다.
과학자는
푼도
내과
곤혹스럽게
지름이
층,
고있으며
주기의
롤러@@
스프링
만들었다.@@
촬영이
날카@@
어깨
잠시만@@
가깝게
이익은
90억
커질
아저@@
초콜릿을
였죠
신앙에
판매할
돌아가게
바이러스와
원리에
줄임@@
동참@@
판이다.
데이빗@@
발명할
1990년에
재활용할
나라마다
민중을
과시@@
7천
참고
50개의
벌기
부서의
초라@@
겪었@@
박힌
뚜렷하게
CT
해마@@
영역으로
보낸다.
퍼질
이것이다.
주황@@
상대적인
티셔츠를
:"나는
이에요,
"어떤
아마도@@
도덕의
폭행을
취미는
라마@@
옳다.
전문가,
사람.
공동체의
갓
명만이
소녀들은
커뮤니티에
분쟁을
약속했다.
않으려고
마라톤
사고에
업무의
좋겠어요
생각해낸
자아가
2003년에
정원을
부근에서
배웠고,
머리로
소개하는
부족으로
저절로
웃음소리,
유전자와
코로
되기도
식물,
온몸에
빨간색@@
담고
사이가
명언@@
자식@@
괴이한
끄고
자만
다채로운
시골에
10가지
사막에
클릭하면
집어@@
좋다.@@
간략하게
old@@
압력에
앨버@@
50~@@
발전,
폐결핵@@
모세@@
양로@@
않니?"
개.
문제.
나타났다는
불확실성을
무엇인가?@@
일부분이
40
의미한다고
공연에
모에
사자
구석구석에
가리킨@@
사람일
조합
7만
건조한
년이나
보존
빌딩의
빌리
폭탄이
초청했다.
갔던
생각만
부대@@
지킬
서비스에
192@@
파견하여
명밖에
행복이
엔지니어들은
출력@@
봄에
골격을
글의
비교하여
Av@@
모형으로
있었죠
오리
구조이다.
좋았어요.
분야,
수행했습니다.
미러@@
껏
3분
돌아다닐
줄리아
보급할
함유된
30년이
제창하는
ion@@
RIS@@
이름의
가늘@@
시도가
류행@@
베를린
석의
나눴@@
스토리@@
대다@@
전국의
생생한
웃기는
건전@@
광장을
폐를
뇨@@
변했는지
전진할
2~3@@
페니실@@
입체@@
취미를
경험의
자폐증@@
마라.@@
썼습니다.
딱딱@@
마을,
마찬가지입니다.
얻고,
쉽다는
병원이
동성@@
짐작할
거시적인
조류는
닭을
감독
수단은
가볍고
후가
기차
주간의
미소한
실지
쬐@@
만과
뷔@@
아래는
밀수@@
죄로
빔@@
스케이트보드를
알아차렸다
뜻이죠
다",
믿는다면
바나나
학업을
내밀어
지리
고속도로
셔츠@@
틀리지
정규@@
감정적으로
펌프를
요소
물건도
견고한
공식을
형성했다.
스키
약물에
상한
있다.예를
미쳐@@
발견할수
멕시코에서
농업은
태양광@@
빠질
있다.이런
체라고
반짝반짝
옥스포드
문자의
애호@@
억만
일일이
디자이너들이
Mor@@
표지
Je@@
트렌@@
뛰쳐@@
때에야
병사들을
억제할
수단
빵이
싸게
장래의
천명@@
헤로@@
십
안다."
황폐@@
체중
실패의
감지하고
천지개벽의
사형
드럼@@
할지@@
이산화탄소가
오르고
섭취하는
무너질
alk@@
SO@@
추측은
논점을
극소수의
말하자
시뮬레이션을
금세기
다루고
광경이
산호
얼음과
시뮬레이션할
공격의
해바라@@
변화시킨다.
이상하고
8시간
고관절
쉐@@
감염률이
커요.
C는
러시아의
발송@@
거짓말
웅대한
아폴로
헬륨@@
접
천문
회전할
모조@@
최첨단
국가로
커다란
마쳤@@
명상@@
아무렇게나
키벨@@
산화@@
호환@@
대마@@
오류를
탐험을
이하@@
파키스탄의
개도
노인
못합니다.
혼란을
부인할
전류가
총이
천연적인
형사
후세@@
무기는
학과의
번역을
법칙과
올지
혜
심사
심화@@
눈물이
분류
설명하지
곡선의
ux@@
전달되는
도덕적인
유는
검색을
절이
비트@@
1945@@
Jul@@
브레인스토밍@@
옆
익을
투자해야
줄기세포@@
꿈꾸던
외적인
쿠바@@
불평등한
침팬지
신장
포도
기회도
해상
지도자
물었다."너는
한다는것이다.
어휘를
안락@@
지불한
버스가
동성
사이코패@@
점프
얼음을
톤에
9월에
앵무@@
콩고
희극@@
수수께끼
1만@@
동료인
시스템입니다.
하메@@
쿠르@@
조카@@
자원,
아드리안
콜러:
무기로
hir@@
퇴치@@
인디언
감자튀김@@
ack
휴대
이렇다고
액션
무의식적인
상호작용의
혹등@@
단속@@
혈압을
고정되어
12%
떨어져@@
100배
크리켓
디미@@
«@@
Wolfram
6분의
에덴동@@
편두@@
거미줄
거미는
감자@@
겨드랑@@
인식하게
솟아@@
연기가
끊이지
라!@@
수학,
찌를
친구들
지리멸렬@@
어)
자꾸
구멍에
의사소통을
마다,
놀기
통용@@
0에서
분석한
견
투자하여
온갖
막지
북미의
낮고
반년
고효율
중시하고
반영한다.
단결하여
목표,
우림
과학자의
주입할
우면
주제
방식이다
1차
싶었다
생일에
걸친
열정과
호기심
끼리
유럽을
주름@@
정체성을
언론에서
엔지니어링
발표하여
씩@@
실수로
각을
4분
전망은
켤@@
측정한다.
두께의
순서대로
시멘@@
시연을
흥분한
착안@@
들으셨@@
황당무계@@
부서에
줘."
경제학
잣@@
가져가는
줍니까?
경우는
영향과
제정할
그럼요,
견디@@
있기에
정도,
주민의
요약하자면,
음악가가
확장하고
단편영화를
적응하고
수법으로
쓰레기가
s와
지거나
말하기를,
스콧
시끄럽@@
재즈@@
나간
스도
뮤지@@
For@@
뛸
효과적이고
어때?"
았던
가봐
무지를
일방@@
사람들.
별거
일깨@@
페이스북에
있다.)
붙이고
바랍니다
밟고
뉴스에
넘쳐@@
있어요."
이란은
방문할
악수@@
스펀@@
베이
캠퍼스
필리핀@@
매고
농축@@
먹이사슬의
시체
나왔습니다.
걸러@@
조상이
야기@@
지위가
계란@@
500년
받습니다.
일부분으로
고독@@
트레일러@@
알루미늄
가장자리를
가구
10월에
e라는
촉각을
연결되는
부분일
생겨
탐구
변호사,
없다.우리는
의미하지는
내포하고
영양분을
먹이@@
삼았다.
시켰을
마비된
투신@@
분야
자원봉사자들이
공포
20여
어떠@@
백신의
감염되지
밴쿠@@
무릎에
뉴욕시
거리고
앤서@@
십니까?"
난다면,
기다려
타야
돼."
질지
하강@@
던진
망가뜨@@
메신@@
재건할
진영@@
딸,
조직적인
푼@@
쓰기로
최초로
해요?
먼저,
자아
회담@@
중환자@@
반복하는
대가@@
의사로서
이야기.
색다른
선택한다.
트이다.
수확을
개혁이
옥수@@
잡아야
설립하는
창고
운영할
개막@@
여동@@
유머
다닌
와트
우울증
달성해야
신체를
그룹에
당초
본질이
분쇄@@
넣고,
유의
소외@@
의식,
CNN@@
설명합니다.
연애@@
절약하는
다행히도,
관적인
배우자를
나타나
경력이
벤자민@@
까요?"
에이즈의
팔지
협찬@@
청년
2005@@
폭풍우@@
호주에서
러시아에서
돈,
건축가는
목표물을
도서관
도서관의
열람@@
지붕에
예산
오토바이를
파손@@
드세요.
부작용이
간단하다고
순위를
유익하다.
과학기술,
게놈의
이르러@@
가장자리@@
빙하@@
시련@@
체들이
감각과
one
협박@@
생애
인용하여
주기로
럭
작품들은
무거@@
가로지@@
아프리카로
경험할
요리사@@
똑같아요.
무기력@@
믿음이
동정심은
너에
공중으로
졌는데,
경험,
로서@@
없다.이것은
기도하는
무방@@
탐험하는
도망갈
희롱@@
공격하는
말했듯이,"@@
썼기
놀랍게
기록하기
ell
것들도
Microsof@@
긋@@
Window@@
모드로
섀@@
os
거나.
메일
메아@@
바르게
20개의
이거는
위하여
박테리아가
증서를
생성된
이미지에
Pl@@
스턴
첫날
땀@@
못하거나
움의
에스@@
열렬한
걸작@@
검사하는
과도하게
숨어@@
갑자기,
천둥@@
1초@@
꿈꾸@@
휘트@@
요구하지
무궁무진한
소프트웨어와
s라는
낭만적인
섹스
정의,
자이며,
쾌감을
자존@@
데이
발전시키@@
로비
선입@@
무궁무진@@
초점이
군비
핵무기
싶다:
봉을
줄도
소통
Han@@
일일
흥분되는
Har@@
입증@@
유발하는
의무가
세대,
노동자들은
자본주의
복지를
상의@@
들자면,
행동,
빨래를
리터의
리더십이
등,
땡@@
나뉜@@
위협하는
다해야
그랜@@
주동@@
개혁
있는"@@
94@@
멈추면
뼈의
입체
그로@@
햇빛
용으로
것만으로는
손수@@
습을
꾸며@@
번을
음식도
슈퍼히@@
승
1000개의
옵니다.
문명에
기르@@
좌우
제약
하고"@@
자제@@
돌려야
마이클@@
승인@@
심혈관
효
영상에서
모르면
동기화@@
보에서
메울
있음
Richard
명단에
글로@@
강도를
분홍@@
챔피@@
관절을
생물학적으로
먹었@@
않나요?
단백질로
동영상에
흉내@@
골드@@
공유는
합의를
가입할
때처럼
세균과
해치지
DNA에
포인트를
배출량은
권력은
고용하여
죽였다.
아이티에서
6시간
말만
방문했다.
두개골을
화성에서
어떤@@
상자의
적으로"@@
3시간
단위를
없는데,
피우고
분리하는
행복
기술들은
Chris
스크
사랑하기
줌@@
저지르@@
Is@@
데카르@@
스틴@@
백성@@
기름이
동그라미를
졸업할
도심에
들이지
연계를
amp;@@
설비
문맹@@
나누면
이라크의
쇠락@@
들어갔다
영국과
여사@@
격렬@@
야지.
관찰한다면,
꾼이
풀려@@
마귀
도전과
숙련@@
버드@@
범죄의
나?
"우리가
꽃가루가
알이
달콤한
떠나게
보자:
다가와서
손잡이를
는"나는
기타를
체험하는
배역을
니:
노력한
사실로
하다-@@
인쇄하는
맞추는
수익
짜서
데이터베이스에
수집했다.
명세@@
자유롭고
설정을
10개
앨라배@@
재구성할
사살@@
커뮤니케이션
민주주의
알다싶이
과학기술로
허구@@
케빈
반복할
뢰
보수
협력은
기보다는
개념,
코미디
시위를
냉담@@
수단의
왕립
시급히
베
차별을
우스꽝@@
체제가
발견하였다
모퉁이를
시력
잎
영화와
컴파@@
비싸고
원천이
7년,
생겼어요
돌아가신
부합하는
자료가
고,"@@
조금@@
2012년
이다,
생각하면,
(관객@@
있거나,
간다.@@
남성이
분석하여
강기슭@@
인터뷰
각국
전화,
폭발하는
삼고
넌@@
지상@@
봤습니다.
시작하게
멈춘
그룹으로
초빙@@
행복은
지원하기
청각을
발사
시작하면서
만나야
창밖을
남극에
워싱턴에
예:
잘못이
번호
것들의
취지는
채식@@
발전하여
조각,
덩어리를
없을까?
숫자이다.
소통을
멀티@@
얄@@
활기차게
공동체@@
집도
토지가
태양열을
일자@@
카트리@@
텔레비전과
사운@@
자폐증이
경찰을
않은지
소식입니다.
긴밀한
함의를
케첩@@
10초
히기
연락하는
한다.그들은
수공
맹인이
man
엄밀한
시대에는
대형@@
프로그래머가
이라크와
데?
뿐이에요
시범@@
식민지
보세@@
재활@@
차원에
좋아하든
사형을
햄버거를
off@@
수년간
전송
이름,
잊어버린
기지@@
그치지
활동으로
11년
구분하지
외상
초보@@
ez@@
지경@@
질문할
이용하면
불안해@@
씨의
당했다
득
NA@@
ef@@
파이어
바람의
잉글랜드@@
비버@@
무대를
어른들이
색칠을
개조하는
다르다.@@
따랐다.
아웃소싱@@
화이@@
냄@@
렛@@
사들이
구금@@
사령@@
탕을
188@@
갔기
관개
태양에서
하천@@
Cra@@
설명
사실입니다.
일이죠
설비의
진화와
조종사가
왔지만,
의견에
생각났다.
기술입니다.
개월이
전파의
톰@@
DVD
우유
잠이
깼@@
로드
샌프란시스코의
프라이버시가
상점@@
시기이다.
개조
모습일지
기교가
보다.
짐승@@
당했을
휴지를
금,
교통사고로
수행할
사회로
독일,
ool@@
동영상의
녹고
표본을
책에는
물들은
알갱@@
뱀을
생명도
유일@@
간결한
암스테르담@@
방식입니다.
콜롬@@
게릴@@
동력은
어떻게든
정당@@
생각한다.그러나
동굴에서
대칭적인
획
시민이
국회@@
거액의
토성의
맞추어
명중@@
력사를
기능과
3년이
폐허
철학자
월이
프로젝트와
구축된
법률,
만하다고
어요.나는
1인@@
데이트@@
Kar@@
벽,
진입하는
갈릴레@@
블랙홀은
바깥의
늘어나는
방해하는
쾌적@@
이것만
부딪히는
메시지@@
생태계에서
농도가
추가로
롤
+
확인해야
말랐@@
uk@@
경험도
변을
가거나
교차
선천@@
결정한다
진력@@
엄
존엄을
사막에서
출현을
해요,
침팬지가
사용,
35년
특성이
경탄@@
체중이
당파@@
대학교@@
확인하기
3의
줄기세포가
햄버@@
바비@@
큐
다년간의
력에서
폭동
간절@@
"무슨
스케이@@
Flickr@@
민권@@
운동,
높을수록
두었@@
사용했다
엔터테인먼트
생겼다고
프:
나고,
컨퍼런@@
블로그는
도보로
사랑합니다.
4시@@
1년의
튜브@@
오크포드:
데릭이
등등,
있습니다,
근거가
척이
배아@@
앱을
시내에
마인@@
게임,
발견에
식으로든
하기보다는
하중
들리는
떨림@@
상황이다
불규칙@@
종결@@
일본에
헝가@@
손짓@@
줄무늬@@
호주의
찰을
충돌로
아브라함의
항로를
잡아서
믿는다면,
사용량을
계에서는
하는지는
많은데,
해롭@@
카운트@@
털을
건강하지
불가지론@@
추억을
더의
돌이@@
보송@@
지령@@
겪지
펄스를
초신@@
륨
기업가가
존스:
은...@@
네!
9,
문명은
개미떼가
옮겼다.
노르웨이@@
원자로@@
시합을
도박@@
2012@@
험
했는가?
사형@@
구석으로
구세@@
킨스
유리에
자바@@
대칭성을
피닉스
촘@@
볼티모@@
간과@@
모순을
카트를
스티브:
사세요,
멜린다:
아쉽게도
변동@@
해파리
오늘날에도
어렵다.@@
뇨
지긋지긋@@
(여러분
독서를
하다--@@
이래@@
지우@@
신체적
없다@@
불로
향상
고객들은
해봤어요.
띠고
.내가
놀러
린다면
국제적으로
취득@@
공평하게
기회의
표현했다.
만족스러운
요소와
노력과
선생님께
입안@@
찾아냈@@
생각할지
뼛@@
꾼
표현한
10대
시즌@@
국내의
딸과
동행@@
목적과
혁신할
2009년에
우호적인
위기에서
좋아요
뱉@@
쳐다보며
웨스트@@
미터이다.
틈이
순간적으로
것은'@@
커닝@@
해로운
훔칠
달러도
외투를
만들었을
점검@@
배웠어요.
관점이다.
지방의
창출하는
없는가
오하이@@
투자에
융합시킬
음악으로
보스턴에서
로봇으로
살이고
마비
적외선
책임진다.
아티스트@@
장소로
밴드@@
술집에
있으니까요.
뒤이어
재미있다
우울증에
거고
"뭐@@
디자이너로서
받아서
댓글@@
텍스트를
자라
그들만의
가지면
41@@
버리는
플라스틱의
용해@@
불가피하게
방문한
하고요.
절대다수는
만들어져
목록에
환을
해양에
장기간
타고@@
처에
재배하고
유토피아@@
우스갯@@
하나.
부호@@
겨울
고요
멈추는
느낌이다.
손목을
건드리@@
전선@@
증명되었다.
유엔이
책임감을
취급@@
평범하지
비극을
기술이나
작년@@
보여드렸@@
제멋대로
크지만
비타@@
돕는다.
든지.
다리,
지도자와
적십자@@
눈부신
즉각
은요?
재미있어요.
블로그가
붙여서
티를
숨겼@@
결말@@
웹사이트를
사진이에요.
렘@@
--내가
낙담했다.
두려움,
동네에
존이
하는,
존은
들어왔을
안전벨@@
갈고@@
잡혔@@
펴고
군대에서
왔어
지도자들을
내려가서
수준에서
있을까.
닦고
티에
옥스퍼@@
좋아요?
양자@@
허용한다.
질문으로
나타났는데,
기괴@@
수준
20대
스에게
원자로
잃었다는
떠나고
한순간에
최후의
Sch@@
상승할
썩@@
방출하는
설득하여
탄생했다.
남부에서
부가@@
상품의
가치의
총알@@
도표는
어"
성공이
소극@@
답장@@
걸어온
기울일
생각했고,
혁명과
경청할
저기서
요약할
지경에
회원이
시작으로
계획할
유럽은
보편적이다.
기대가
점수가
정치가@@
텔레비전이
음미@@
시계가
쌌@@
조각에
기부
확산을
풍에
잃었다
렬한
범람@@
잠겨
디자이너들은
예라고
30,
비싸지
망과
시내@@
개발업@@
로이다.
조합할
죽거나
황홀@@
나쁜@@
청춘@@
얻었을
원칙적으로
게재@@
사항은
떨어지기
덩어리@@
왜냐하면@@
최고봉@@
찔러
억이
식당을
본보기@@
제스@@
무관하다.
바짝
지점을
혁명에
4일
자르는
허튼@@
끼
와!@@
예뻐@@
카메라,
체제
단순하고
Pal@@
끝나고
만듭니다.
하드웨어를
사면
적용됩니다.
라운드
1마일
동료와
RG:
픽셀@@
0으로
놀랍지
시험이
신청을
an,
연락하고
비디오가
빠져들었다.
000명의
입력하면
인문@@
점수는
서에서
프레임워@@
록색
했니?
유튜브에
브라운
맞나?@@
의미에
미안해,
정반대이다.
책들을
코치@@
그릇을
교육하는
교회에서
요인
of
CI@@
실천
숭@@
엑스레이를
학년@@
58@@
깨어났@@
난처@@
평
비교
내려가는
성애@@
수요와
별은
종잡을
짝이
것이어야
굳이
긴밀@@
고조@@
감옥을
과학자를
안치@@
무미건조한
한다면?
과정으로
표현해야
디테일이
심혈을
움직여
NASA의
세워졌다.
열은
뉴질@@
했다.그
앉아야
벡@@
스캐너에
당뇨병,
예방하는
울부짖@@
간다는
먼이
가치도
정도까지
안아@@
다와
켰다.
주방에서
핑
환호@@
길의
단호@@
유쾌한
불렀다
담요를
고'@@
숲으로
부드럽게
스타워@@
광고는
사용하거나
구부릴
헤르@@
로스앤젤레스에서
설치된
졌지만,
약간@@
조수@@
주인은
항아@@
정면으로
출판
화목@@
셜
애들은
가게를
포인트@@
불안감을
세와
크리스티@@
젖을
대뇌에
닿는
학자는
엑스레이@@
작다는
비난을
형이다.
경제적인
사용되어
불과합니다.
경쟁하는
은후
마우스
동태를
색상
드도
"정말
몽둥@@
거.
축구를
늙어서
이식을
1984@@
아킬@@
골이
제품이다.
육식@@
브루노
건은
생각하기를
공짜@@
멋지게
표현에
엎@@
디,
작가는
자유에
의료를
스리랑카@@
고향에
피부가
고가@@
건축가
줄게@@
건설했다.
사장이
맞먹@@
낮추고
권력과
설치한
맥주@@
클로즈@@
튀어나온
영장류@@
그물@@
녹색은
밤낮@@
제임@@
뒤엎@@
지각
바뀌면
토론
마스크를
여자들의
심고
여성이다.
이맘@@
탄에
Sar@@
경찰의
El@@
그녀들을
포틀@@
의심스러운
물어보고
나쁨@@
온종일
증언@@
장학@@
주임@@
소녀
팔아
않아요.@@
간주한다.
계산은
합니까,
참신@@
분야에서도
론으로
왕은
노예로
풍습@@
논쟁은
통은
때문이다.그러나
광경은
그것들에게
조사는
궁극의
버지니아
토론한다.
0이
챘@@
에이즈가
우간다에서
피로
파리가
보일지
진화된
단단한
태우는
예술에서
잘됐@@
나오고
후반에
이사했다.
머무@@
투자자가
주황색
허리@@
별에
콜
2006년
기쁩@@
플레이어가
거절할
기초는
원칙이
보겠습니다.@@
열한
수단으로
인다.@@
아사@@
금치
요르@@
스웨덴의
의식하게
개조하여
보장
보이는지
할아버지@@
로슬@@
수단과
평방미터당
트라우@@
살까지
거든
떠올랐@@
왜,
결정하기
포스트
다윈
꼬리표를
사막으로
450@@
오스카
괜찮을
맞을
보우@@
인도주의
수거@@
함께,
켤
예술가와
라운@@
리입니다.
형용할
원들에게
예전@@
도도@@
저장되어
골동@@
첨부@@
복제하는
소각@@
동맥
혈액을
항생제
Ra@@
부딪힌
바라보고
초월할
유해@@
패스트푸@@
없었고
근처에서
플로리@@
울타리
료해하고
기계들은
로봇과
인공지능@@
팁@@
배경은
전보다
헛소리@@
가정용
이념에
지하에서
몰랐다
와인을
한밤중에
결합하는
깅@@
아메리칸
금지
공통점을
자가@@
년대에
차량을
저기@@
.하지만
1960년에
발버둥치고
상원@@
포르@@
훔친
메일박@@
동작은
형성되었다.
뇌도
혼란
이행@@
Ag@@
앉는
역전@@
막대기를
쌓아
재산이
국내총생산@@
이다.너는
포기했다.
달한다
당근@@
보건을
우리에겐
전통은
기호
셜@@
관하여@@
토론은
안전하다.
싶다"고
방안의
범한
디:
하려@@
일부터
분포
들려드리고
시도했다
파운드에
독한
표시한
층과
냉동
개발했습니다.
18년
70년@@
했습니까?"
눈동@@
앨런
1로
다리와
대지
배기@@
uz@@
겐@@
사관@@
바칠
측은
은...
비판을
술에
Fl@@
휴
측의
관목@@
번식
극장에서
태양과
수학에
재미있다.@@
경제학자들이
파이를
슨,
심리학자@@
재배할
교훈은
Nor@@
돌아보면
서부에서
누구입니까?
임의로
수록@@
그곳에서는
ED@@
따서
청정
연료로
교수님@@
ich@@
일들@@
사명@@
사고,
박이
도'@@
8백만
의기소침@@
구글의
장갑@@
앨범을
노인은
총결해
당대의
189@@
흥미롭고
어쩐지
끝은
논리적인
별로@@
변두리
인근
차이이다.
슈퍼마켓의
누구에게나
이해했다.
하겠습니다.@@
ur
복잡하지
써
아이였을
ica
글씨체를
?아니면
취하지
공항에서
맙소사@@
매체에
각도@@
위원회의
병균을
타서
보여드리는
조각과
스타일의
앞에는
ox@@
세나
유창@@
창조했다
던지고
인종에
결과의
공작@@
적이지만,
비결@@
과학자들을
개미에게
지구상에
해설@@
기저@@
사용하게
해야겠어
교통사고
발견되지
정맥@@
부품으로
간단해
떼를
마니@@
계산기를
하다.그러나
E.@@
펜실베이@@
알카에@@
ym@@
지."
응급
불평등을
S:
가설은
설득하려고
연기
예측은
우주에는
애하는
밝히는
허블
다원적
막힌
로렌@@
가까워질
필요하지만
담보@@
불가능해
닫고
자아에
20000@@
환경도
enc@@
독학@@
깊이를
소포@@
재난적인
발명된
잉크를
귀여@@
반딧불이는
고백@@
표징@@
소란@@
설치
소행성을
연설하는
훼@@
개념으로
포함될
부터.
My@@
인력@@
고려하여
물어보는
186@@
건드리는
크리스,
선견지명이
공부에
맞이할
하죠?@@
존스
장면
테스트가
노스@@
돌로
때문인데,
인정하고
도구에
들인
선수를
의로
당연하@@
중,
기기의
중국어를
관점과
점동@@
외적
고리를
ADH@@
깨달음을
경기에
풍격@@
형식에
드론을
드론이
삼림이
크메@@
고상한
행위이다.
개별
ST@@
IM@@
AS@@
아이디어와
논리
스라고
비행기와
황금의
했으니
일들
끈적끈적한
콘텐츠를
사망했다.
산호초@@
Jim@@
때문
때문이다.나는
것이다.우리가
번역할
Red@@
처리하지
충돌하여
우습@@
나미@@
개미굴@@
실패
옥시토@@
나이지리아에서
타인과
그녀에
AL@@
제공하고,
호루라기
코딩을
비둘기
칸
존재하는지
발견했다고
가격에
통화
인형
제지@@
법률이
8살
벽돌을
뇌진@@
노등@@
설정한
재난에
엔트로@@
경험이다.
SE@@
뚫는
삼촌은
교차하는
500개의
싶어한다
재발@@
사춘기
NB@@
증후군을
노폐@@
드려야
아리스토텔레스의
마야@@
있다.너는
동굴을
ine
들으@@
대상이
용왕@@
지하실에
대마초를
제곱을
할지,
교착
메가바이@@
교통체@@
Alpha@@
바오@@
레베카:
거미가
세쿼이아
초파리의
AIMS@@
1-2-3-@@
밀도는
심해@@
사용하는데
을뿐만아니라
망으로
돌았다.
양쪽
마일,
손톱@@
콜라
액의
예민한
사라지면
내일의
어렵지만,
읽었@@
체제는
받았다는
아빠는
독단@@
조금의
배운다
춤추@@
해진다
기쁜
직장에
노동자
지속되었다.
등으로
하는'@@
비율로
높지만
투입을
경비를
였다는
받아들여
순위가
시스템도
선생님에게
시종일관
운영을
핑계를
검토@@
질량은
계통에
C를
모방할
치료,
감소하는
관점
기계에서
여긴다
범죄자가
경계에
홀로코@@
진실에
열정으로
영국을
["@@
기상
성층@@
휘파람을
마음속@@
예정입니다.
그것을'@@
벽돌
방울이
왁@@
비이성적인
간호사는
깨달았어요
서부터
요'
한다.하지만
원인에
얹고
보아라
옮기고
직면하는
취업@@
오해를
세부터
달러만
논점은
드리도록
악기@@
일반인의
인터렉션
많은@@
샹@@
매개체@@
모로코@@
지명@@
비롯되었다.
관찰한다면
(음악@@
보였다
장소,
딕
건축물은
비슷하다
귓@@
볼륨을
et
코드로
아이스@@
amp@@
듣기에는
판과
화랑@@
마음에서
우러나오는
부분인
배워@@
어둠을
조만간
행동하지
호소하는
반갑@@
깃발을
변두리에
이스라엘은
공항
친다
느낌인지
1000억
수화@@
표류@@
'으로
버린
뚜껑을
플랑크@@
2.5@@
초과하는
ros@@
고대의
소비가
이치는
속한다
규모와
성장하여
못했고,
풍자적인
만든다는
지속가능@@
지이다
믿습니다
수증@@
생산의
바람
개조하고
보완할
어긋나는
알루미늄@@
종합
소아과
아가씨@@
무용
퍼졌다.
총으로
인접한
여겨져
불편한
남부에
롬@@
주의자,
일어났는지,
창설@@
됐습니다.
월부터
대담하게
계절에
갖고있어
시도했지만
운영에
파고들어
쌓는
아니라.
고향인
감염을
않았다."
았지만
었다."
싸는
일어났다는
음성@@
사서@@
생일@@
신체가
바빴@@
훌@@
시계는
생각한다."@@
시청자:
처하게
감이다.
정상이
스카이다이빙
정도면
나가면
내려놓@@
우아하고
용감하고
걸어가서
분발@@
실패했다.
군대는
시도
지지하지
연구들은
대항할
버텼@@
왔습니까?
인구와
오스트레일@@
이상해
이번엔
말했지,
불합리@@
니에
간직@@
생산량이
완비@@
등급
상인들이
들에게는
발전하지
발급@@
떨어졌다는
오빠@@
긴장했다.
놀란
분명하기
뜻이@@
바꾼@@
등산객@@
프레젠테이션을
파서
순환이
종이접기
나쁘다고
중요합니까?
갔다고
직원들을
토크@@
쇼
알아맞@@
프랭클린@@
때에
융통@@
대기업@@
운동이다.
같아,
콘돔@@
위치,
협
야드
오일
추가하여
식물로
어지@@
지어야
버튼
복도
시야가
바라며,
원인이라고
나갔다.
신체와
주장하는
생물학에서
뿐이기
공정
미치기
염색체
드리아
예측한
응시@@
필요하고,
존하는
그럼요.
유실@@
단순화@@
쟁이
수영
했다--@@
바라보았다.
버틸
3개의
묵묵히
갈피를
엉망으로
유머러스@@
베테랑
케이블
케이블을
영구@@
날씨에
이후에
긁어@@
클라우@@
가지도록
전체,
현실이다.
여정에
플랫폼은
4:
기계적
모니터를
구상이
여사님,
osh@@
둘러싸@@
접근
클릭
얻었습니까?
나타납니다.
미디어는
계몽@@
앨
건의는
기억하@@
해라.@@
증가하여
Tom
충족시킬
형태
Dan
00만
싱글@@
편은
지날
차,
수정할
게도,
개인화
점수@@
문턱@@
좋으면
채우는
연구자가
하다."@@
놓아야
연구함으로써
능한
동료의
기껏해야
유능한
찾으려면
보물@@
ou
커:
돔
공간이다.
이미지입니다.
부부@@
정적인
싶어,
부부가
원천이다.
둘이
진짜로
피카@@
시간밖에
부위에
99.@@
감각,
부여한
비율의
잡동사@@
이었지만,
휴대하고
데려가는
분포가
모았다.
베스트셀@@
고환@@
A의
모른다면,
태아가
죽음,
정자를
개구리가
책임감
해석
직접@@
하나하나의
단편을
동그@@
인도에는
관심과
모임을
붐비는
사람이라도
조용하고
필요에
보도에
해서.
균형이
인물은
독서@@
신앙,
깨우침을
찍었는데,
풀어
작품과
가지러
일들에
동네
어른들은
표정은
대외@@
빌딩
Shar@@
펭귄의
주시면
옛날에
과정도
암시를
핑크@@
사직@@
대뇌를
크레이@@
소설이
유선
미미@@
분개@@
녀성이
분야에서는
없다.그러나
두드러진
종양은
원했다.
아니더라도
비범@@
10년,
사용했던
MIT에
MIT@@
오!@@
해보고
십시오@@
알잖아@@
기관으로
줄기세포로
한테는
ure@@
경사@@
일부분에
6백만
메뚜@@
맛볼
그램의
수치에
장관이
공짜
상호@@
들자.
로'@@
특징에
전달해야
박사를
밑바닥에서
써도
너비가
주택을
교회를
배달@@
위탁@@
9개의
달라는
연구팀이
구슬@@
코끼리와
루시@@
의학적
부모님과
생각하기에
도전할
지지한다.
알츠하이머
하고있다고
신호에
결혼식
도덕과
무관한
가치관이
생에
녀성의
제국@@
대화하는
공통의
월스트리@@
맞고
얻으려고
자랐고,
권리에
중얼@@
읽기와
신념이
취향을
역과
다가오@@
ah
변론
경쟁자가
쭉@@
돼야
일찍부터
꼽@@
이대로
공부한
재단을
걱정이
영합@@
자본주의의
세계화@@
공장과
9년@@
사로@@
신앙의
존경을
한가?@@
그것이@@
동료에게
즐겼다.
통과하고
기교는
발표했는데,
제목은"@@
app@@
존재에
장착할
골칫@@
놀랍습니다.
나비@@
축하할
예술가는
도착해서
뭔가가
않느냐고
계승@@
회사로
15개의
예산@@
유럽으로
대신,
예로부터
제작하고
갔다는
슬프고
여기서@@
낀
않겠다.
연출@@
일까?@@
보도하는
날짜@@
나이로비@@
토끼를
형태는
세금
사르@@
경쟁하고
보안@@
경찰에게
피비린내
사진도
상징이
생전에
리념을
구축해야
바라볼
연설할
통제가
간병@@
9년,
리에게
두뇌가
형성될
왜곡된
1970년@@
장식
다이애@@
포유동물@@
자부심을
인식에
본질에
독자@@
개방
독자들이
스펜@@
하세요,
화학요@@
o,
다양성에
알파벳을
변이를
초원
깨어난
사한
이다.그는
평화는
뉴욕으로
채택했다.
살육@@
불의
된,
코카콜라@@
오묘@@
주주@@
채택한
접근하고
낮출수
항목은
심사숙@@
30여
한가운데
이었지만
모형이다.
골격
예쁘고
무리
실리콘@@
비추어
빨라지고
판막@@
고쳤@@
권위
영감의
속도도
용어@@
과일과
농업의
코코넛@@
예전과
상점에서
아이스크림@@
식이다.
당지의
필요합니까?
ber@@
하하,
창작했다.
Lab@@
우두@@
파운@@
색상을
드에게
생기발랄@@
Po@@
지역사회는
전국@@
라틴아메리카@@
es는
추악한
정성@@
당국은
해치는
컬럼비아
계획이다
필라델@@
세포들이
경찰에
극장에
들어.
확인해
보신
온난화를
고객의
않았어.
상황의
후천@@
의의는
5세
스탈@@
살에서
스타트@@
추수감사@@
지나서야
업계@@
관리는
자산
e-@@
하는것이다.@@
패스트푸드@@
내디@@
하이퍼@@
링컨
전장에서
들수록
줄어들
니.
날개의
이미지로
결말은
끝장@@
붙어@@
싸워야
들어보셨을
스텔@@
다름@@
유명하다.
필요하다."
청결@@
주의에
정부에서
노인들은
동료를
달팽이관
수없는
후각@@
인용
상태
대대적으로
자"
자."
화장실@@
가본
통신을
트래픽@@
사용한다는
삼아야
훈련은
덴마크
창문이
연기할
3천@@
걷다가
생각입니다.
벨트
기게
필터링@@
않는다."@@
ian
자금은
높다.@@
생성
볶@@
중국으로
아시아에
채의
자신만의
부스러@@
사기극@@
하더라@@
수지가
걸프
필라델피아@@
기후변화에
멕시코의
이유일
amb@@
상단의
상상했다.
산비탈@@
경직@@
튕@@
T-@@
치솟@@
배양할
좋아지고
부러뜨@@
전지@@
나노튜브@@
광고에
행복감을
모순되는
훈련된
부르면
멜라@@
출혈@@
되었으며,
앵@@
3년,
성장과
ound@@
쪼그리고
알약을
엄격하게
상점을
Hy@@
극복하고
병세를
매립@@
말린
쓰레기통에
에콰@@
개에게
쌀
찌꺼@@
동의하는
마구
다이어트를
무의식적으로
풍선@@
로고를
에밀@@
형제
좋겠어.
관찰해
상상할수
뻣@@
포함됩니다.
o를
흡수하는
앞으로도
지구로
육지
남반@@
해"@@
별도의
에이즈,
닦는
물고기와
Col@@
모자
공예@@
거가
생략@@
통풍@@
사리
자세로
Ale@@
소나
역방향
항성과
비슷할
편성@@
개발에
시각,
올리브@@
잠수를
오늘날까지도
감소
현행
폐렴@@
망라@@
BMW@@
격렬하게
게놈은
있느냐
형성하기
위로,
1000분의
루는
체크@@
절차는
놀라움@@
재미있지
충돌할
기밀@@
B가
미군
간단하다.@@
없다.나는
경영
기간이
얼마인지
오렌지
비길
지표
물리학의
깨어났을
우주선@@
여겨지는
파이프라@@
시인@@
구더@@
양말을
아인슈타인의
살짝
유용할
검을
통,
다른지
초기@@
축복@@
심장병에
리튬@@
예지할
반드@@
땅은
지난후
촌
그/@@
학설@@
품질의
Sebasti@@
연결체를
'나는
현대화@@
해주었다.
쌍방의
목소리에
부패가
자본의
무기력한
지나야
전에.
입니다.우리는
구분하는
그중에서
일했던
사망할
배고@@
방해할
설비에
제조를
불교
여겼다.
참지
영을
냉혹@@
희망으로
뽑아@@
수공으로
병원,
필을
모방한
뛰기
헤르츠@@
크면
바꾸게
시간대에
계속될
취임@@
녀석들이
데이트
전분
벌은
미끄러져
발견했고,
Google은
프로그램,
들려드리겠습니다.
봐요
실행하는
전자기
안심하고
저축을
이해하면
태즈메이니아
조나@@
결과이다
폭발한
바뀌어
변화무쌍@@
배양
구글에
신기하고
10명의
유닛@@
눈썹@@
로키@@
인텔@@
생체모방
로보트@@
it
권에서
초점@@
비제로@@
인간성에
의사소통
일했습니다.
늑대를
세포핵@@
경쟁은
부활절
중이
상파울루@@
틀렸다
산호는
쉬울
800만
TB@@
교수와
구두@@
애틀랜@@
자아는
발암@@
당지
다니지
어찌할
탐험하고
수리할
사람들로부터
침팬지의
용기와
기뻤@@
기대
시적으로
시켰는데,
퍼센트
해협@@
비둘기@@
펄스
오후,
맞대고
:)
삼촌이
규칙
체형이
Per@@
패
유대교@@
이슬람교의
자양@@
편협@@
선수
팔자호
부모님께
경향@@
스타일이
전지
아이스크림을
봉사할
가져왔습니다.
단위
독감의
TE@@
총체적인
서버
절약하고
서적을
맥킨@@
보드@@
여사:
있어!@@
돌고래의
텔레비전의
무신@@
수학자들은
의학을
후아@@
스티븐:
머스터@@
권력에
=
정신병
Free
N:
거미의
버티
Alic@@
셰릴:
테즐러
존:
파란색을
엑스@@
꿰뚫어
데이터이다.
지상에서
40000@@
화산@@
액체가
흘러
빙
시리즈@@
여기도
엘니@@
장래@@
누군가@@
치며)
너보다
보존하는
용납@@
드릴게요
과감하게
교제하는
의사결정
고객과
저희를
생산력을
이룩한
가늠하는
비집고
이슈@@
믿기지
알아낼
교수
면에는
열릴
기후에
분자와
상당의
분자에
제목이
듯한
이건@@
규범을
화이트보@@
끝났을
클럽에
라노@@
지켜야
탁자
나치
"모든
오스틴@@
이성적
생물학자가
아름답다
생물학에
평가하고
만들어낸
살펴보는
것이다."라고
가"라는
불어
동부에
파트@@
극도의
110@@
레가
창고를
내려가@@
들만이
바뀌었어요.
악한
성경의
경건한
조사가
넣었다
십시오."
현금을
지불하지
대상의
속이는
기억하기
얼마의
창출하고
주민들에게
발견했다는
딸라의
계층의
좋겠어
상당
탄생을
돌파구를
즉"@@
연주하고
머신@@
중으로
방식이라고
죽음과
저,
공과
없습니까?@@
드릴까요?
und@@
되였음을
굉장@@
러야
Wat@@
효과로
ook@@
Wh@@
bor@@
울음소리를
새,
열정,
형제,
Twitter@@
바람은
그림자
사람이고,
국기를
미사일
"와,
드릴게@@
("@@
"누가
저것은
독일에서
이스라엘에서
회수
악수를
회수할
염기@@
싸여
사온
시골의
판본@@
전원
더미를
테니까
대면@@
케빈@@
지내@@
인도하는
공구@@
스탠퍼드@@
질병이다.
면...
알레르@@
회전을
중추@@
전하고
풍요@@
모였다.
이동한다.
동부의
지지가
레이더
장착되어
법도
1950년대
존,
그려서
못했어요
충돌에
했던@@
행동이다.
돌아왔다
반쯤
성적은
카메@@
워렌@@
토요일
일요@@
꿇고
캐나다에서
타게
대양을
친구들의
메시지
책임지고
하다;@@
내린다.
거행@@
모,
리라고
바랐@@
플
빈둥@@
이제야
노스캐롤라이@@
조정하고
군대@@
양쪽에
물론이죠,
베트@@
도달해야
대부분이
군대와
투명하게
경청하고
감사합니다."
관계로
더러@@
엉덩이를
상관
맞다,
다이아몬드
힐러@@
소녀들을
거물@@
토막을
겹쳐@@
율과
감사
검사한
썼다."@@
거부할
싶고
치료하고
의사도
피했다.
국민총생산@@
누구와도
개혁은
농업이
오에
빗물이
형성되고
에티오피아
에티오피아의
창고에
8~@@
잠재력은
여동생은
소란을
렸다는
부모님을
심리학자가
탄력@@
텍사스@@
식당은
인지적
금전@@
검증할
지출
보고서에
짝짓@@
더미
케이크
가루@@
단에는
난이도가
하니까.
연락
명언을
고려한다면,
속도에
자.@@
가자.
인스턴트
리.
공장,
침착@@
슬로우
이탈리아에서
옥스포@@
서둘러
도시들이
무더기로
부모들이
케임브리지
끝난다.
고지@@
웃었다.
단어이다.
보상이
600만
관찰을
알려주었다
있습니다.우리는
살던
전원을
파괴되었다.
처했을
교외로
1~2@@
없기때문이다.
센터와
들에게도
계획하고
성이라고
예시@@
아이디어의
도서관을
위원회
불확실한
효율적이고
겠다
곳이기
온전한
목적
믿을수
고립된
과도@@
경기장에
기대는
I-@@
식별하고
직면했다.
관상@@
소식이다.
어려움에
다를@@
추측하는
이것을"@@
상응한
사망의
묘사를
초래한다.
인류에
돌연변이
한다.그것은
표준적인
지도록
리드
얼어붙은
기슭@@
선물로
가리키며
필립
핸드폰은
2년,
아이폰
프로토콜@@
과정이다
속도의
장이나
끈을
묶고
지시를
본능을
자라면서
정의한다.
보았다면,
채널에서
잠수할
해파리가
그냥@@
글래@@
설립된
긴박@@
전화해서
썼다.@@
옵션이
요소로
뜻이죠?
하나님의
됩니까?@@
시작했죠
팔리는
지출이
사람들에게도
과목@@
ash@@
하여금"@@
값은
ma@@
유행하고
지워@@
잠깐
긴다
독서
봉합@@
동료들을
강하지
사귀는
시부터
두려움에
잠긴
은"나는
병이다.
500명의
발견되었다.
찾았다는
미완@@
세밀한
돼.@@
날아와
열었는데,
몰랐기
신발이
훌륭하게
습
맨해튼의
요절@@
키워야
부분이다
정당한
언어이다.
흥분을
면이다.
런
원만@@
길이를
감옥은
절망적인
전문가와
뉴저@@
000개의
사고할
만족스럽지
바람과
측면을
바라보는
허약@@
장비가
체온이
하얗@@
라고는
심장박동@@
흥분된다.
집중하여
의지를
헬리콥터
、@@
예에서,
C:
컵에
방지할
T,
버의
콘센@@
원인과
경험하는
분리하여
정리를
지목@@
1에서
생산한다.
스포트라이@@
존재한다면
여전@@
경제로
나만의
샴페@@
기회라고
따뜻하고
공익@@
게임으로
바뀐
니콜라스
민주의
모델링@@
넣었고,
생기지
주의해서
교실을
책꽂@@
들어오@@
내버려@@
승강@@
문제인
매니저@@
슈퍼마켓에서
이긴
창조된
마리와
플로리다
대뇌는
단독@@
할게요
적당@@
어지는
운동하고
드라고
유방암을
가죽을
종합적인
불과하지만
alc@@
물리학자가
감마@@
오른쪽을
판별@@
훈련이
구성원이
코네티@@
디자이너와
신문은
브,
아시겠지만
예리@@
오.
방망@@
골을
청중들이
착
소녀,
스노@@
복원할
비준을
풍부하다.
넣었@@
져도
핫도@@
생산과
번식할
광장에서
보수파@@
깊고
댄스
표현의
왼손잡@@
온난화에
300
운명이
인권을
숭고한
체내@@
줄게,
직설@@
기후는
200억
라인의
종이는
파리에
구축했다.
"어머@@
거를
기부할
쓰나미가
괴로워@@
고대@@
감탄할
침팬지와
열거할
사방
일했고,
아들과
증오하는
술집에서
잠자리에
그름@@
돌에
무질서@@
찾아내고
보편적
도덕이
행복과
바닐@@
아니.
질렀@@
요소들이
깨는
코란을
중시한다.
수업,
웃으며
전후
도전하고
쫓고
썽@@
천체@@
De@@
상상한다.
옷과
나왔다
생각들이
않겠습니다.
도와줄@@
동네에서
친구도
글씨를
회복하고
들었다고
중동에서
전시
칵테일
까마귀가
당신에게"@@
당겨
땅콩을
관통하는
부족에
로봇,
봐요,
졌고
가치관에
시달리는
물자를
항레트로바이러스
다양하고
보인다고
묻은
조류와
노랫@@
스케치@@
해'@@
낮에는
공항에
화제이다.
상투적인
서류를
렵
일이고,
97%
어젯밤
어젯밤에
않았으며
차이,
것이다."나는
캡슐@@
문자,
컨트롤
별들이
대선
수보다
죄수의
이.
Th@@
같고
존재합니다.
운동으로
님의
할까요?@@
살상@@
이집트에서
설득했다.
열매를
추구하고
유튜브
아픔@@
가파른
설립하고
얹@@
오르락내리락@@
인이다
걸렸을
가리고
고발@@
통제되지
아주,
크라테@@
곳에나
사건들이
간격으로
망쳤@@
의제는
45분
토막@@
투명하고
1930년@@
했다"고
명실상@@
소파에
II@@
그날의
패턴으로
모시@@
마주할
수라는
신사@@
징
6주
우매@@
교회의
기간@@
살고,
실현
전용@@
수돗@@
나미비@@
가정하면,
유통
이른다.
들어보자.
그램
극지
아시잖아요.
모리셔@@
타나@@
연결하기
아내의
지나서
끝내야
참
ile@@
겔@@
이용한다.
통과해야
튀어나와
수요
흐르면서
디자인할
졌어.
요리는
구운
분간할
쌍방향
사격을
베이비@@
걸리기
믿고,
공구를
롤러코@@
제출한
빨래@@
리카@@
경솔@@
마술은
사실적인
속수무@@
해변을
Bron@@
60만
재산은
롭다
에이커@@
인종이
남기는
범죄와
짱@@
있었다고
비행에
따라잡을
6명의
칫솔@@
봤어요?
구축하기
형성되기
형성
저자는
견지하는
돈에
전진하고
철수@@
정,
더럽@@
소비의
파악할
Ber@@
건넜@@
지배하고
샬@@
디스플레@@
erl@@
변했다는
몬태@@
16살
골수
녹는
못해
한스
웃게
바쳤@@
면접을
내용
북을
꺾@@
발견이다.
거슬@@
잃었고,
변화할
이론적
ish@@
질환
낮기
몬트리@@
좋아하지만
수녀@@
하마@@
무해@@
보장을
윤곽@@
그림에는
시간내에
태어나서
찍었다.@@
얀@@
살아서
애니메이션은
확대해서
단백질과
피해
Mad@@
뼈에
알겠어?
괴롭힘을
증가한다.
마이애@@
무렵@@
스타가
감시하는
같은데
Sk@@
Dr@@
이를"@@
모은
지도로
리스트를
토양의
자랐을
드라마@@
눈치@@
잊은
웃긴
사탕
기분
오전
끝없이
귀속@@
첸@@
조각상@@
로든
간단명료한
목요@@
없으니
차서
보도했다.
고해상@@
있다.내가
트라는
청소
정반대로
알아보지
파스타
대체적으로
번호가
사랑으로
테일러@@
것이다.너는
보여준다.@@
재배
비약적으로
규모로
가정할
철
ig
제조에
산물을
입장을
인위적으로
이해한
부터,
살펴보면
연설에서
13
진행되었다.
상자에서
온것이다.
표지에
설계해
기"
중력이
인구통계@@
겪었던
도박을
느낄수
달려갔다.
바가
구해@@
유태@@
보이고,
자세한
생물학자들이
이스라엘과
좋아.@@
운전하고
날려@@
규모에
재,
프에서
근육의
될까요?@@
생각일
모든것을
군에서
동성애자의
표현이다.
수리하는
파고
아파트를
방지하기
소비하고
인프@@
테네@@
박사의
전통이
마무리@@
엄마의
차려@@
결혼에
구제불능@@
마주
구성원을
자기도
말들은
"너
글자는
첨단@@
번역하는
의논@@
All@@
히로시@@
열풍@@
당은
때문에"@@
끼쳤다.
ld@@
수상
미네소@@
치마를
내부는
구성하고
사상에
공포에
존재하는가?
숫자들을
폭은
초신성
행성과
우주와
상대성@@
행성으로
삼켜@@
촬영한
잠입@@
우리에게도
바치고
한다.우리
만만@@
발생한다면
정비@@
주위에는
추가하면
형식이다.
스웨터를
다--
ith
입니다.그는
대장@@
물어야
주었다는
사람만
보냅니다.
공격에
한차례
장착한
시간마다
양자의
공민
모으고
어떨@@
B를
먼지
분간
끌었다.
패러다@@
이날
요람@@
짠@@
인센티브
엔지니어를
키스를
있다.그는
모델입니다.
버릇@@
작동하기
스파이더맨@@
선수들은
달성하는
시사@@
소망을
활동하는
신생아
니아의
처방을
마지막은
낮추어
이것저것
재산
짧고
경찰과
열었습니다.
살해된
참여하게
스폰@@
느냐가
화학을
감탄을
농부@@
생기를
계산서를
어가고
람
뿌리가
겪었고,
바는
대면적의
파키스탄에서
중복@@
피난@@
사유를
사랑하지
걷고,
기억,
4~5@@
저어
빈부
들어라.
률,
불교@@
미륵@@
사담
비열한
비현실@@
병례@@
She@@
분포된
입장@@
CS@@
멀어지게
폭발은
18세기
정화@@
음표@@
구성한다.
터무니없이
그랬어요.
판사는
놈들이
평화와
의기@@
동정은
편향@@
겠습니다
특성에
부서를
볼품없는
창의력이
보았는지
벌의
청중:
강조해야
찾았다.@@
키웠@@
털어@@
질서정@@
Far@@
강림@@
핵폭탄을
논리를
예측했다.
하드@@
제작에
반딧불이
측면은
바라비치니:
본론으로
맹인
되었는@@
4가지
착수하고
회사도
차게
국제통화@@
해져
안드레@@
Tom@@
TS:
연속적인
무장
범죄가
걱정은
습관적으로
작년의
리포@@
시키려
점차적으로
AT@@
뿌리와
죽었고
정글에서
총합@@
저건
권리,
추론@@
원유
휘발유를
탐구하기
아메리카에서
석유,
보르@@
내놓은
이온
봐봐.
장애에
ele@@
마칠
사마귀@@
중산층의
혈관의
보았다는
크거나
소스가
바그다@@
미터에
에센@@
A-@@
공사가
싫은
불은
코가
세어
수면의
개미떼의
엘리자베@@
처벌을
타미플루@@
(관중들의
3은
주의하십시오.
허용하는
번거로운
피부는
춤
생각들은
연관되어
인민을
예측이
발가락을
고구@@
땄@@
BBC@@
사적으로
점진적인
밀가루@@
ast@@
깡패@@
피보나치
구출@@
왕성@@
퍼즐@@
칼로리
확대하는
과제@@
진보
아르바이트를
해양보호@@
바다표@@
베어@@
댐@@
GDP
마운@@
웃지
(이
뱀이
싱크@@
B,
Em@@
돌고래들이
감사합니다.감사합니다.@@
투표용@@
페스티@@
피부색의
쿠루토:
Earth@@
a:
스케이트보드
모기는
욱:
미어캣@@
타이타닉@@
일종이다.
들어봤@@
귀는
창문에
봐!
산등성@@
이어폰@@
빌의
도까지
지탱하는
움츠러@@
정도이다.
파열@@
쏟아부@@
정도밖에
갑자기@@
행운의
보고서에서
생각한다:
불가사의하게
아빠
말자.
자자@@
"그럼,
죄악@@
보스@@
머리,
하라
놀이의
급하게
당사@@
투명성을
나누며
측정하기
0년대에는
비판하는
는가에
공인된
사고방식에
소지@@
학생에게
신앙과
성능
아니었@@
깨달았고,
도와준다.
행정
발표했다
로스앤젤레스에
맞먹는다
HO@@
말레이@@
작동을
상단에
시험에서
세속@@
목격했다
학교도
가입하고
30명의
쳐다보는
학살을
사상,
들려주는
인조@@
인도적
계셨@@
생각하거나
기억한다면,
엘리자베스
일부라고
Gen@@
랩
장비
유전적
물질,
근처
맞혔@@
캐비@@
수질
격노@@
그만
마신
루이스@@
간호사
표면은
식도
화상을
부류의
걸렸다
삐걱@@
때문이지
장만
합시@@
현금@@
조그마한
피츠버@@
높아졌다.
현금
간호사,
시작한다면
현지에
치러야
뒤져@@
쑥@@
본과
공헌할
사람당
지출은
체험하고
inc@@
연주
몸짓@@
못했다면,
피아니스트@@
심층@@
하나라는
스트를
것이다.그는
고정
발매@@
공과대학의
연은
카네기
작기
시기
곡에
C.
실내에서
가수가
라디오@@
발전시켰다.
귓가에
힙@@
ill
기독교
새처럼
초원을
채워@@
있다.어떤
흔적이
일보다
상처는
보다도
손님이
서클@@
공유하기
표현하려고
대답하고
페이스북에서
포함합니다.
한다"
이란에
병사를
그래서--@@
명심해야
플라스틱은
모습입니다.
태평양을
루카@@
위도
2050년까지
헥타르의
통제되고
란으로
거래의
장사는
여하튼
연결해서
개조한
캠핑@@
팔뚝@@
시체@@
자발@@
다쳤@@
일상생활의
밀집된
괴물@@
전개하여
되는것을
경제학자,
스톡홀@@
성적으로
기술이다
않았는데
소아마비를
번밖에
투입한
비용과
500억
천연두
길가에
증명했다
즈니@@
도입한
50000@@
술이
남쪽
아낌없이
비밀의
상대방에게
전화에
보냈어요
다하지
간주하고
로울
화요일
Bra@@
와요.
중요성에
한테@@
긴급한
설득해야
전자의
들이고
달리,
대부@@
습한
룬
웰
까지도
광년
호킹@@
종사하고
절실@@
그에게서
지나고
자라기
좌절을
마디를
퇴
겁쟁@@
산맥에
헥타르@@
농작물을
되었습니까?@@
대응
장려
쫓아내@@
때라고
완성될
운송하는
정치적@@
결심을
8개월
동생이
윗@@
지으며
트러@@
창조력,
예측할수
정의와
성공하면
지속되는
마감@@
시애틀의
"지금
깁니다.
가져와서
겸사겸사
모릅니다.
도전,
자원으로
향한
예기치
늦추고
즐거움과
끝냈다.
배회@@
실례가
지난달에
도로에
이었다는
홍보를
브랜드가
브랜드의
발버둥치는
경보
대피@@
제공했다
내디뎠@@
4천만
ity
성과의
용도로
마치"@@
도서
말거나,
배치할
도로의
아플
사망자가
교외에
점들이
생각하는지,
강건한
진보에
비행의
듣자@@
발전해야
7분
대중은
허튼소리@@
턱
개밖에
므@@
난제에
뇌세포가
생리적인
세포도
생긴@@
미터를
한숨을
습니다:
졸업장을
열광적인
항의
디자인으로
즙@@
필기를
삼키는
물결@@
소용돌@@
뜰
어디까지
IT
들만
얘네는
자리잡고
단위는
용접@@
픈
Sim@@
간다고
허무@@
어른이
농담
받거나
섬으로
장면이다.
단체에서
어슬렁@@
Mac@@
소리만
안녕하세요
기술들이
아닙@@
하신@@
오류
작아지고
다운
들어서
소프@@
e:
챙@@
징후가
네스@@
부담할
절실히
휴대할
3시에
푸른색
자신,
말처럼
인종을
혈
성별에
향수
연구하지
언정
곤경에서
공사를
감사하는
발굴하고
한다.우리가
뚝
유치원
촬영하고
곁으로
섹스를
조:
자신감
이해와
뭐예요?@@
때문이다:
관리의
책임과
원이나
시간씩
기타@@
잠든
건축가로서
결론적으로,
다가가서
개척할
9/11
주전자를
수행하는
옮겨
천을
우러@@
늄
We@@
막막@@
줌으로써
높이에
주었지만,
일어설
높이기
생산해야
촉진하기
일이야.@@
뿌리는
녀성들이
요구는
비누를
확보하는
사용자들이
입구에
흐름
베란@@
때나
첫날@@
책들은
는지도
일이고
칸막@@
스마@@
당한다.
명사@@
발명하여
성격
마가@@
과장하지
프라이버시와
지극히
디자이@@
평평한
중요하며,
마시지
있다"는
쓰라고
놀이
흘
물었다:
작가와
하자마자
기면
지지해
만났던
이용
현지인들이
더블@@
결정하게
수입니다.
인체를
감독관리@@
걱정하기
제조하는
칩이
높이로
조종하고
몸,
모터를
종류는
밀도의
돌리지
well@@
Michael
지면서
1000명의
물건과
복잡하지만
문장의
워크@@
벙@@
데스크톱
다니엘@@
창조에
시작했지만,
지식으로
진행될
부품의
공헌은
고기가
공유한다.
겨야
공존@@
제도,
해드리고
재판을
패러@@
문도
문제들에
버트
카타르
무려
잇달아
위배@@
마침내,
이룬
장담할
웃기지
몰라도
무지
MIT에서
전지의
이산화탄소의
피트이다.
여만
색갈@@
콘크리트
코뿔@@
알아내는
전진하는
조상의
평화,
손상이
원리와
통합할
쉬
표시되어
자리로
시각화@@
후"@@
카펫을
금요@@
길,
점거@@
"할
돌봐야
알려드리고
생각하죠
지속된
후를
희생하는
자랑스러운
정신에
쉽기
드린
대상
봐."
평화가
일어나
포부를
오솔@@
절벽에서
였으면
부속@@
보냈다
원인이다
고향으로
상상의
렸어요
9살
온,
가자
조정
요컨대
않는다"고
영어가
중국에는
이런@@
학습은
중학교에서
자아의
진보하고
53@@
증거이다.
보냈는데,
전통에서
민족이
동물들에게
낚싯@@
소.
이러하기때문에
누르는
차량이
집단과
관해서@@
수중에서
구성원@@
운전면허@@
화해@@
매일,
수수방관@@
완성하지
럽@@
놈들을
최고조에
발전함에
휴대폰에
잃었을
파리를
꽃으로
이삭@@
파란색,
꽃의
회화
쑤@@
셔
신나는
따라가지
택시
꿈꾸는
화가가
난관을
명단을
언급
느낌에
특징과
스크롤@@
쓰는지
공,
지면에서
색상은
렴@@
풋@@
잠재되어
부통령@@
맥락@@
들었다는
혁명,
오래되고
딜레@@
충실하게
찾거나
시민들은
이야기합니다.
시위에
전략과
잡고,
방문을
앞두고
리아와
쿠데@@
에이미
협력해야
동등하게
몇년간
죽어@@
기관들은
타인에
환각은
생각하는데
정서와
피질@@
논리적으로
꿈과
꿈의
구멍
결합되어
뇌,
흑인이
관람@@
일들,
발적인
해변에서
지도입니다.
정점에
11월
평가는
백악관
트위터의
영예를
기여한
인구,
lt@@
꼬리표가
돌려서
하는가.
해졌어요.
정교하게
돕고,
뜨개@@
정원에
기관,
76@@
카우@@
머물렀다.
결과로
가져오지
365@@
비정부기구@@
업종에서
그들은'@@
사람은"@@
육성@@
발전하기
진료소를
30000@@
들에게"@@
무엇이냐고
프로그램이다.
예술가로서
인체가
궁극@@
프리
되려고
미련을
그날이
간단하다
어휘로
1994년에
칠하는
스캐너를
고압
외부에
뚜렷이
CE@@
컴퓨터도
질문입니다.
기이다
곳.
심미@@
가짜를
아니요.@@
친절하게
인지에
권장@@
개선해야
로보트를
계층@@
표정
씁@@
붙이@@
접기
앞뒤로
부분이라고
바로,
케네디
잊혀진
막다른
unt@@
빈곤선
놀라울
파르@@
1960년대에
설계했습니다.
계획에서
낭비하고
신고@@
시대부터
창고에서
복역@@
도움의
방이다.
에어컨을
석탄을
이름도
직감으로
못하지만
자폐증의
정밀한
주의력
측면에
교류가
관리가
명세서를
제안은
한다.너는
배럴당
촉발@@
역설@@
가로막는
마라톤@@
도서관이
변하여
중에도
상상하게
매체는
들어오고
족은
막대기로
아이콘을
로봇에게
낫다고
발견했는데
늑대
같지는
져요
들어요.
실물
바이올린을
하지만.
이름과
대우@@
햄버거
모순이
접촉하여
be@@
주거
전송하는
생존할수
수수@@
핵탄@@
보장한다.
품이다.
도시화
인디애@@
문신을
출력
통과하면
있습니다.이
부작용을
불안
라이트
플랫폼으로
낸다
1과
절벽
분석하기
스타일
섞인
사람이었다.
(관객
"좋은
성적@@
간주할
그러나"@@
내쉬@@
잔다.
CD를
베를린@@
의미하지만,
유출된
sc@@
비교를
96%
모니터링
스테이트
스퀘@@
상황도
구불구@@
지붕이
나타났어요.
숨어서
멈춰서
찍었다
교통이
바뀌기
돌보지
평등하게
체제의
비스@@
듬@@
극심한
존재하는데
보여주고,
밟을
가르치고,
직관을
징후를
생기가
시설에
프랜@@
서핑을
주식을
존재로
포춘쿠@@
'고
법안은
더없이
페루
않았으면
있으니,
파동@@
흐를
얻었다.@@
있습니다.이것은
탄화수@@
천연가스를
게놈에
인간처럼
개체는
전해
대나무
재료들을
링크가
망원경
심미적
광합@@
영광스럽게
코드의
배터리는
백악관에
증가시켜
그"@@
즐거움에
개이다.
분노한
것이다.그
포물@@
휠체어에
아리스토텔레스는
요인은
딴
MT@@
바퀴의
상상이
만나기
나다.
행위로
감기에
녀석,
좋다면,
감소했습니다.
전달한다.
시키려는
계획입니다.
창조적으로
학자의
보건의
공중보건
투여@@
동성애자
%가
바라지
신뢰와
내성이
축이
교외
교통에
건물로
이것,
로임@@
태도와
돼지를
주방에
잉여@@
설비,
얘
풀이
다양성의
가닥의
누구인지,
가닥@@
닥
처음의
미국에서만
프레임
흡인@@
방식으로든
마술사@@
머무르@@
리더십을
Pow@@
사람이야.
심도
공포와
연예@@
어로@@
섞어서
ock@@
글자도
효과,
방대하고
운행할
1980년대에
말까지
논문은
논문에서
ppm@@
표명@@
곡선은
협회는
설정된
봤는데,
TO@@
남자아이는
라이브러@@
엔지니어들이
철학을
좌석이
노트북이
네시@@
적인,
췌@@
끝의
아시아,
민주주의에
up@@
관심하는
항성을
응용이
조로@@
발언을
텔레비전,
찍어@@
다이오@@
녹음한
분야이다.
법칙
찬양한다.
급성
이렇다는
그는"우리는
프로그램과
"종이접기@@
단일@@
안목으로
골랐@@
원고
차별
도망쳤@@
고향에서
기체
울수
펜타곤@@
밤낮으로
따른다.
생겼기
기울이지
스카이@@
향상을
데...@@
무형@@
지도와
속일
리즘@@
은하에
묘사한다.
곰을
사냥
블랙홀을
정확할
상상해봐,
추측하고
기초에서
지각을
포유동물이
바랍니다.@@
사용했는데,
레몬@@
내리막@@
일치한다는
태도@@
데스크톱@@
얕은
감정,
중산층
가득차@@
많아.
썼다는
장악하는
대화하고
2015년까지
70만
마일이
부피가
자율
기업가
농민이
경주용
충이
배트맨@@
변호사와
겹겹이
자동적으로
프로세서가
정상적이고
톱니@@
캡처@@
들은'@@
의회가
돌면서
1990년@@
변혁에
불평등
들었어.
일이야,
과제는
확신했다.
품성을
부상당한
배급@@
가졌던
1천
페르시아@@
영어에서
세네갈@@
아드리@@
래요.
세부@@
기호가
사회도
버섯을
애석하게도
버섯
브렌@@
실한
천사@@
미소
war@@
문장이
사라진다.
지표가
말라리아,
유럽이
Rabbit@@
월스트리트
비준@@
페쇄@@
말하길,
변혁은
혁신이다.
아부@@
선택했습니다.
소모를
있습니다@@
성사@@
소개한
월까지
떼
돌파를
확실하다.
하이에@@
실패에
합니다!
막아@@
언어에서
5월에
무역을
다르지만
왔는지,
키보드
초.
발휘하여
꺼낸
성과이다.
이웃에게
이익과
힘써
가시적인
불빛을
이어폰을
신용카드
언의
IDEO@@
올라갔다.
사망하고
순찰@@
경로
일하며
신장을
하다.나는
Qu@@
보도
륨@@
건축,
옵션@@
주류가
Ser@@
인터@@
분명하다
조셉
호흡기
렵@@
마땅@@
연관성이
사유
그룹과
강화하여
s에
지오@@
우크라이@@
르네상스
테러의
러시아,
사람이에요.
빙하의
조종사@@
주기가
억만장@@
업계를
생성하고
Hill@@
선물이
놓칠
1000만
이민을
협동하여
건축가와
인터뷰에
유리로
존경하고
암호가
패턴의
전구
동료들에게
데이터도
원격으로
도구의
이성이
MT:
카드는
섬유가
Gre@@
혈관증@@
화학요법을
산성@@
49@@
라인
중은
비둘기가
냈다.@@
평온하게
지팡이를
직위를
변천을
저쪽으로
바울@@
지지해야
낮을
놀았다.
낳았다
LG:
로켓이
냉장고를
개미떼는
개미와
일회용
재단에
9.11@@
투를
선입견@@
통해.
공기,
자본주의가
줄어드는
"도
시청자
최소한의
과테@@
근육과
곰은
Bern@@
순응@@
주인@@
그것들과
달러였다.
심장병@@
H5N@@
감염되어
북한@@
Glob@@
꼴
순환은
미디어의
벌레를
에든버러@@
어리석고
자극이
결혼한
사유의
구타@@
흥분시켰다.
직선으로
참가자들에게
두바@@
Danny
Com@@
로빈:
있든,
대칭이
먼지를
기부를
쟁취하는
두꺼@@
특례@@
도전의
나치@@
초파리가
석사
Sudhir@@
쇠를
Don@@
치타@@
맛
작품으로
버진
트위@@
고있는
오웬@@
코:
-내가
거미
이사회
로마에
CO2
테슬라:"@@
브라질은
피리를
피리
신경계
비트코@@
Kathryn:
카메론:
FGM@@
사기성
에디:
엘론
깊이는
흔들리고
길이@@
돌아다녔다.
축에서
바닷물의
액체@@
없어요.@@
게를
적외선을
일어났습니다.
대륙이
헛수고@@
스티브,
경제협력개발@@
U
차지했다
리아를
리아가
나아질
감싸고
명백하다.
시겠지만
소년의
오락을
놀이가
극장@@
태도는
데가
최상@@
권위에
SA
측정하여
취했다.
테스트하고
테스트하기
생각할수
표준이
하였음을
부유하고
전이었다.
거두었@@
10명
야심@@
바뀌었다.@@
교장@@
능률@@
설정하는
뉴스의
숲
학과를
곳이라는
즉각@@
해킹
세대에게
감각적인
일원으로서
느낍@@
굴의
오래동안
호텔을
군과
하워드
대체하여
논문이
커뮤니티가
만들다
빛나게
걱정을
말해줄게
프로젝트도
네덜란드에서
식사@@
"나
참가하지
이쪽에
프레젠테이@@
라!
부착@@
있도록@@
많아질
말했습니까?
고등학교에서
대표하지
했다."나는
냉장고에
폐가
봉투를
갑작스러운
tt@@
소득을
경쟁력이
콜럼@@
강하다고
점이다.@@
모두,
위해"@@
악보를
비상
들에게서
우울증,
병원과
프로젝트,
불로@@
가지런@@
개인화된
스럽습니다.
CD
인터페이스의
같아.@@
같아요.@@
독수@@
울퉁불퉁@@
CB@@
당에서
싱을
바흐@@
곳이다.@@
Fre@@
스칼@@
청중
부화@@
덮을
없이는
않음
가사를
탄생한
MP@@
가깝다
이익의
적응하기
우울증은
문제이기
두려웠다.
취약함을
십시오:
니다,
라벨이
건드렸@@
인들과
보세요@@
말해라."
파란@@
기자들이
이란을
살면
공유했다.
자랐고
반쪽
생산되는
플라스틱이
킬수
통제하여
먹이는
고기와
센터,
주민이
잡으면
Smith@@
사치스러운
지저분@@
없어졌다.
케이크@@
도시이다.
농업에
고요한
이상할
벽과
맞춤형으로
이한
보니,
팔의
차갑@@
용어로
무해한
전구가
신경과
지루하고
치료와
유해한
신경의
출발할
증명해야
되었거나
종들이
관할@@
태평양의
뉴질랜드
브의
특권을
확신한다
브루스
육박@@
나라입니다.
1999년에
지역사회가
곳들은
반감@@
빠르다
느라
찾기로
결정했고,
폭풍이
Bi@@
됐는데
올랐다
재연@@
며,"@@
려던
성이나
여자애가
부여한다.
벨트를
테니
열어야
팔은
한마디@@
속도,
집중하기
경우도
일치성을
참여했습니다.
봉투@@
발췌@@
생리대를
질하는
살펴보았다.
친밀하게
결국엔
농촌에
둘째
광의
신비를
넘어가@@
화석이
모임에
정체를
낯설지
괴로@@
죽으면
말하는'@@
사고해야
히말라야
운영되는
범죄로
북부에
아시아와
역량을
논증@@
자급자족@@
줄어들었다.
정책,
줄었다.
두각을
불평을
감수@@
손실이
특권@@
의회에
전국에
높으며
한쪽에서
엎드려
표정이
콘
삭제할
필요하다면
긍@@
결정된다
그들은"우리는
빠르고,
똑똑하게
훈련시키는
미로
도착하는
쓴다는
기억나?@@
돌은
이르게
적기
200명의
적힌
조립하는
제거했다.
실험적인
난이도를
말해봐,
정확하다고
등도
광고가
일류
전개했다.
충전할
보내기
긴장된
느슨하게
누구라도
빌어먹을
좋아한다.나는
아드레날@@
아들에게
까지만
없으니까.
판매하고
부부
달러와
말다툼@@
번역자
해저에
갤@@
닥쳤을
록펠@@
도왔@@
77@@
윈윈@@
공기는
바닷물이
영국에서는
잠복@@
이성의
조수가
성이라는
분류를
통합하여
바둑을
감독이
비밀리에
오르게
데요.
환경이다.
배열을
성명을
결정합니다.
넷째,
하는가@@
이것을'@@
대답하는
–
해야겠어요.
것이다.이런
복구
짧아@@
오토@@
바이에서
일어났고,
스쳐
팽창하고
빙하를
기억해,
경고
68@@
블로그,
구동되는
한눈에
저렴하고
2007@@
더미에서
허드슨
곳보다
싶었어요
스처럼
띄지
탑재@@
그룹에서
물리적인
덮개를
소비자@@
다했다.
땀이
강요할
만물은
이제@@
표현한다.
전에@@
증거로
일환@@
글루@@
존슨
소음은
포식자가
1미터
영상입니다.
동영상으로
벗어나고
되셨@@
있다"
린:
하는가에
사람들과의
묶은
곰팡이가
맥이
오토바이
본이
가방
소비자들은
업그레이@@
옵션을
애플의
적용하는
제프
1997년에
전시회에서
형제와
프라이@@
상승을
0년이
ier@@
분에서
참고할
깨어나
무효@@
교수의
이미지에서
거치지
총화@@
TEDx
이르기@@
셨으면
총알을
라서
왈@@
만났어요.
다면,"@@
드러낼
기계적으로
일이며,
레오나르도
측정했다.
Cal@@
엑스선
강아지가
강아지를
는지@@
울려
리버@@
칼리@@
출연@@
좇@@
그런가?
문제는,
있습니까?"라고
없습니다."
가져갔다.
썼는데
티베@@
의미에서,
체험한
여행,
섹시한
이다.우리가
발동@@
셋째
복구하는
미국에는
워싱턴의
워싱톤@@
야생동물
보낸다
연주하기
조절하여
확립@@
살펴보면,
1년을
그려진
관심의
엉망이
마일에서
정리하고
대이다.
캠프에서
얼음으로
휩쓸고
이른바"@@
죽음으로
맹렬@@
Bur@@
인원을
피트에서
얼굴과
마쳤다.
돌아가기
기도를
발병
화합물을
개구리@@
달걀
형제의
호르몬의
8천만
새끼를
생명,
아이로
함유한
첫날에
누
비누로
딜@@
맞먹는다.
가락
상점
숨이
화살표가
가리키고
했다.그러나
파티
시끄러@@
트렁@@
반복했다.
2분의
사고방식이
카리@@
덤
사실이라면
도의@@
).
폐지@@
유대교
의자는
싣@@
벽걸이
달라졌어요.
경청을
고)
출근할
선글라@@
사이트,
wh@@
우루과@@
판지
찾아왔다.
편리하고
작가들이
늘리고
고장났@@
살았고,
준비했다.
비정상적으로
없다:
창의성이
자원봉사자
부모님의
자원봉사자가
5주
팔면
다니
인증
체인@@
참석한
인터넷에는
한층
양,
이발@@
사고방식으로
활성을
했다;@@
정치적인
자세하게
종류로
도형@@
이다.그
전문가이다.
돌아왔는데,
탐지기를
테이프@@
조각들을
67@@
저항을
저널에
사망률
표시됩니다.
말인가?
전화번호를
또는,
Barr@@
도달했을
실래@@
고마워
얘들아,
까지.@@
감당할수
Gal@@
이탈@@
청의
먹었을
1990년대
중점이
법안이
"아니오@@
허락을
탐방@@
빌딩은
에어컨@@
재의
의미에서는
제쳐@@
YouTub@@
"자,
인증을
목재
30개의
목재를
족과
1년,
님께
2010@@
석기@@
당신으로
-그들은
주차장에
뉴런으로
확장된
내려와서
"하는
사람들은'@@
데리러
토론에
가치관의
받는다고
해결하여
가치관은
모욕을
장애물@@
도덕에
가난과
어려울@@
테드
Anderson@@
싶거나
S.@@
도상@@
도와주었다.
18세가
닮은
지지와
토로@@
트랜스젠@@
속한다고
록한
어]
풀기
발표했을
핀
페미니즘@@
결혼의
Shi@@
보니까
꾸러@@
큽니다.
ra
무바라@@
그것만으로는
도넛@@
못했어
변론에서
주었는데
?나는
같다"고
숙련된
략@@
류동@@
일어났고
유대인@@
렘
통치를
반포@@
회귀@@
사람인
복잡하다
시작됩니다.
있을지는
이란과
끝내기
한마디
가리킨다.@@
연구원들은
과일을
조슈아
혼란에
무더기
좋아합니까?
카메라의
스티브가
"당신들은
라스베이거@@
이었죠
제거한
조사하는
전염성
해냈다
진단할
수확이
떨어지면
곧게
모방하고
향기를
활짝
갈색@@
흡수하여
노르웨이의
강연한
춤은
요!"
소설의
분명
았어.
인재가
예술가들은
해!"
처지에
적대적인
밀로@@
위안이
재단은
정통@@
문제들,
30분에
클릭할
날씨를
뽑아
기분을
샷@@
알자지@@
기사
말해
곤경@@
아마존의
통치
선발@@
조직할
지르고
낙타를
극단주의@@
종말을
총리@@
10년간
테러리즘의
공정은
옆에는
환자에게서
내장
입력을
복잡할
기능성
부위가
클러@@
말씀드리지만
맛의
강화할
절차에
훈련시키고
시켰고
장착하고
알았다.@@
망에서
물었던
은신@@
말씀드린
극복해야
악성@@
사자@@
Jam@@
。@@
기록에
원숭이와
org@@
서쪽에서
연구이다.
확신하는
작업이다.
경탄하게
태양전지@@
태양에네르@@
비행기표를
효과적이라는
런던으로
부대가
리허@@
7개의
는것과
출산을
다국적@@
드리겠습니다.@@
외과의사가
썰매를
뒷줄에
쓸모@@
성행@@
있잖아@@
사이
됐다는
뒤흔@@
확인했다.
좋아서
1월에
확대하여
변경할
확장되고
위원회@@
오만@@
Tre@@
만지고
냐면요.
웃겨@@
열심@@
계좌를
해커의
심장병,
정크푸@@
분과
식당이
주부@@
요구르@@
구성이
네모를
기뻐하는
운용할
어제@@
스페인의
브리티시
위해서입니다.
끝내는
연구로
건설될
젤
살았는데
개처럼
South
진흙과
느슨한
보조금@@
자들에
저항할
1960년
세계에서의
처음이
비디오에서
손길을
불러일으키고
기후변화를
놀랍고
수집한다.
얼굴에서
태어나기
안팎@@
민첩한
주에는
비추는
만능
넬
자든
단거리
구동하는
농장에
at
존슨@@
튀어나올
휴지
ard
끊을
까다로운
관심사는
변호사
허락할
군인들이
스터가
스터는
넣으려고
무거워@@
세제곱@@
손바닥을
마술의
투명
클레이@@
오락과
피해자
묻힌
보호된
스럽다는
말이야.
미생물의
과제에
의와
포함할
취를
사용은
결장@@
균은
알약@@
마력이
햇볕을
일지
모습은
6천만
개발과
혐의로
술집
주입하는
뒀@@
방법이라는
바꿔서
간단할
대항하기
구별하는
상고@@
바이러스로
망막의
기동@@
추가하는
낫다는
ens@@
써요.
감사드립@@
300명의
''@@
처할
2.0@@
자신에게"@@
투자한
사인을
촉진하고
위험하다고
bert@@
감시를
파도를
총결을
네바다
센트럴
나드
디지털화@@
정류@@
남았어요.
티셔츠@@
불태@@
미안하지만
공무@@
외국에
정원에서
파란색으로
중심은
퍼뜨리는
창궐@@
못하겠@@
위원회를
내놓을
부문은
보답할
로스앤젤레스@@
30년대에
인기를
제기하였다.
두를
비슷하지만
니다"@@
끌어올릴
길들@@
흡수하고
작용으로
유적@@
뼈는
수염이
인도네시아
사전@@
짜
사전이
59@@
생명으로
생각하며
참관하러
나빴@@
마천@@
리메이@@
작업실을
뉴턴
전례없이
자로부터
갈망하고
떨어뜨릴
선포했다.
정의의
보려면
화되는
아랑곳하지
랩을
신분의
고추@@
잠그@@
꽂을
많은,
부득불
협회
화폐를
지도할
바늘이
사용하기를
호주,
이어서,
보건에
생각해도
때?
교외에서
경각심을
율의
사용하였다.
홀을
히'@@
르완다에서
조제@@
발견하고,
자원이다.
보내져
멀쩡@@
재고@@
접시에
샌드위치
소비량은
디와
혈연@@
승화@@
국도
커플@@
마카@@
연구했다
캐릭터가
부문에
o와
그룹,
생길@@
해지고,
주민들을
발음이
시절은
프랑스,
어떠한가?
뮤직@@
개월의
긴급@@
침전@@
들린@@
유발할
변이
밀봉@@
항아리에
로스쿨@@
도와준
드이다.
공연의
야지
설계했다
짐작@@
치마@@
는...
토니
sha@@
활하고
않겠지만
in은
itz@@
기계적인
퇴학@@
오바마는
뉴햄프@@
곤충,
10만@@
투표할
제리
돌아오게
제발
만능@@
산생할수
아인슈타인@@
복잡성
갈아
종사한
거랑
창고@@
찍기
왼쪽을
도난
바하마
사망자는
1천@@
건망@@
쥐에게
피에
많으면
항체를
싼@@
여겨야
사용했을
카우보@@
소금을
못생긴
Eri@@
성인과
Whit@@
있었다.나는
잔의
중력은
시뮬레이션하는
전투
관념의
연설에
하였는가를
트레이@@
선거의
준다는
물질적인
존경받는
부식@@
늦었다.
들리지만,
조사했다.
했다@@
암석@@
헬륨
눈부@@
2주@@
연료,
해수
개발해야
계산한다.
km
삼킬
은하계의
가속화하고
탐사선을
감화@@
확정할
입니까
80억
깔끔@@
개입할
지내고
병세가
종합하여
복용하는
머신을
나타났다.@@
합니까?우리는
발명했습니다.
훔쳤@@
손실
간주하는
윌리
습관@@
1달러
이랬@@
전시회는
예수
알아들을
가능하다면
인디@@
흥분시킨
유엔에서
100년의
LED@@
위원회가
7~@@
조사에서
제트
두뇌
스파게@@
난민
저소득@@
파트너는
살았는데,
도로에서
50년대
후손을
돌아다니는
맡았다.
그리고"@@
숟@@
감량@@
줄이면
리베@@
관용@@
국가로서
죽어가는
로마의
"그래@@
떠났고,
굽혀
그리고'@@
잃으면
상처
분야와
생각하실
세계적@@
복합
줄이지
Nat@@
(많은
내리게
부모
유언@@
심리학자
신앙은
일하기를
등지고
할아버지
수염
빈민가의
"네."
불능@@
평탄@@
환경보호
약속한
처형@@
예술가들을
란의
빛,
그래요?@@
고용할
백그라운@@
럿@@
구원@@
경계선을
독일어@@
활용하는
9.11
Techn@@
앞서고
독백@@
특징이다.
때리는
"이다
너한테
TED와
AC@@
프린스턴@@
고장이
실수가
수소@@
hen
이보@@
캥거루@@
뜻밖의
필연적인
당신이"@@
드림@@
비관적인
속도
천진@@
벗어나기
Zipcar@@
부딪히면
저쪽은
연결된다.
사람들한테
비교한다면
개인에게
물체로
Mart@@
운동도
Ver@@
몇몇@@
문명,
프린터@@
프린터가
도안이
달러면
달러나
구멍에서
음악가의
직감은
보호의
LE@@
낙서@@
네트워크와
ver@@
범죄자를
안전이
뒤집을
넘어질
작업실에
균의
2만@@
무엇보다
흐르게
숲은
원도
떳떳@@
혼합하여
광산의
에르@@
걸으면
물고기들이
나무들이
태양에너지를
맞아.
워터@@
간과
겪어@@
기간을
세계화가
회의적인
인터페이스는
좋아한다면
목소리
우주선은
주말을
배웁@@
근육에
2020@@
장소
놓쳤@@
치매@@
서핑@@
머물
겠죠?
ire@@
안전은
절친한
능력으로
차지한다
8.@@
실현되지
소모해야
분이면
~~@@
지하의
뚫을
노선@@
건축물의
포커@@
24
지냈@@
발휘하는
음경
(관객의
넘치고
호프@@
야!@@
유머가
되더라도
갑상@@
작용의
가시가
교통사고@@
반영할
자기장
주파수가
병실에
산호를
대응한다.
인민에게
기독교의
발자국을
아라@@
공부해야
프로토타@@
기부하는
개미들은
삼림은
작성할
Ac@@
많이,
스티커@@
대결@@
퇴역
학생:
원자로를
신앙
유혹을
문장은
문학을
의심이
고래와
본보기를
피자
죽어
등식을
보도가
주위는
성격이
Min@@
하이브리@@
만리장@@
fl@@
AID@@
을까.
세로토@@
온다면
1950년대에
센서
알고리즘으로
소유권
사라예@@
후방
대기를
팜@@
불러일으킨@@
논쟁하고
것은@@
콜레스테@@
값
콜롬비@@
조정하는
억양을
100년이
거절했다.
하반@@
효과와
절단
집권
도시에서는
메데@@
몬태나@@
닌
Rom@@
보츠와@@
부합되지
레베@@
산염@@
아르헨티나
보장합니다.
Acum@@
PT@@
카테@@
위업을
자선을
기업가를
돌고래를
Pix@@
패키@@
직접적이고
반딧불이의
Pre@@
부탄@@
터미@@
Nath@@
있습니다-@@
IM:
모래언덕
조기@@
AV:
방글라데시의
조나단
비만이
정중@@
WK:
노튼@@
에이미:
Furb@@
테즐@@
아만@@
Scrat@@
cymatic@@
펭귄은
Susan:
HG:
ZK:
이루어진다.
올라가고
끓는
스트레스는
등에서
조직이다.
이야기일
먼저@@
유럽연합
출판된
이코노미스트@@
행복하지
구조적
는요?
나쁘다
중시를
진화하여
돌고래는
놀지
불완전@@
연습하고
노래도
높여야
불쾌한
상관이
자네@@
뛰어다니며
사업과
귀,
OE@@
추리@@
평균보다
학년에
왔든
희생해야
도리@@
거품은
낮췄@@
유쾌하게
거두지
나뉘@@
줄여
공고@@
헝가리@@
리상@@
노력에
외롭게
기구로
걸린다
통합
100미터
흔들면
통제하는지
통증
서사
가난,
백만장@@
소년들은
계발할
바이오
생물체를
en의
언뜻
개변시킬@@
아시죠?
구글을
노스캐롤라이나
걸려요.
리허설@@
감사합니다!@@
둥글@@
갑
원자와
머리카락
쥐어@@
겪었다
부서에서
붕대를
아프지
싶다."@@
듭니다.
범할
저지를
양호@@
경건@@
자칭@@
세하게
흥미롭습니다.
가져가면
피드백이
자는"@@
라"고
피츠버그
돌아갔다
낮아졌다.
지불하여
부릅@@
학령
투자와
이사한
량호@@
남아서
증가가
계산했다.
아이큐@@
감자를
동작에
쉽다.@@
전개하고
베리
조작하고
이름은"@@
사이먼
사라지@@
디스플레이
원해
동작과
인가요?@@
아름다운@@
전설적인
디즈니
(음악:
배경,
번잡한
늦은
지어진
극장의
작아요.
딜런@@
무용수@@
Val@@
거기는
ight@@
두껍@@
체험에
새들은
빽@@
의아@@
뿐이야.@@
틀렸어.
종이와
가장자리에서
내려온
성실하게
무감각@@
정상이다.
두려워하고
일부분일
"나@@
사랑한다고
만들게
상황으로
하나예요.
새벽에
댓글을
몰랐어요
포스터가
상징하는
붙은
서로@@
불러일으켜
중동에
느꼈다.@@
5개월
친구들도
마시고,
이스라엘에
새들이
청소하는
막아야
어:
신기하게도
생산하기
고기는
어딘가에서
도시들은
생김@@
Inter@@
교통을
객관적으로
곡선
일률@@
손바닥
소매
불꽃을
신경전달@@
뜻밖에
만성@@
하다!
관리에
구역이다.
풍경을
대륙은
넘어섰@@
어업
어업@@
고기잡@@
아니다.그것은
이니셔티@@
힌다.
구성하여
비로
근절할
공략@@
당시@@
예컨대
무력
종신@@
절망적으로
수백만@@
말했죠
Pra@@
소장하고
익살@@
신도@@
캠퍼스에서
주었다."
놓았다
고양이는
메모리
움,
괴롭혔@@
아일랜드에서
울었다.
빈민가에서
길러@@
위층으로
멍해졌다.
는데.
바지
퍼를
상징으로
이야기했습니다.
27년
하니까요
일어나야
스카이다이빙을
욕
되새@@
경찰관이
어딨@@
필요한데
알아맞혀
성인을
실험하고
공격적인
얻어서
자멸@@
Pe@@
가다
순간까지
날까지
견지할
싸운
남편의
얘기가
풍요로운
높았다.
개방되어
확
없다.그들은
굶어
곡물
나타내기
위해서도
베풀@@
농촌의
제안하고
진행할수
농민과
량보다
총알이
보았니?
있으니까요
지울
인가?"
도전으로
밤은
심리를
사장은
낙담하게
David@@
레고를
임무이다.
치워@@
보수가
가루를
"이봐,
해요."
공동체에
벨은
되었다;@@
느리고
사방에
과외@@
방출하고
선진국의
사립@@
전복적인
방해하지
바빠서
브라질,
문제이다.@@
재촉@@
때문이다.그리고
읍@@
싶게
건네주었다.
면적과
마케@@
업으로
업계가
위협할
애완동물을
파와
입구@@
해치고
자생@@
낭비를
George
숲과
준다.@@
요소들을
유연성을
어디서든
내리기
뉴욕,
극장을
작다
센터입니다.
차리고
말라리아가
우의
동요@@
토론해
필연@@
근본
사망하는
보다@@
실현할수
소위"@@
미토콘@@
오래전에
얼음의
아팠@@
강하다는
iP@@
출판한
분투하고
빠졌을
가설에
없어요."
케이블이
나일론
바다와
싱가@@
주동적인
있는지@@
크기,
안정감을
하나님께
휘두르@@
이런'@@
자신이다.
한편@@
2010년@@
잠수
푸른@@
탈출할
포식자를
녹화
평범하고
제조한
필요하다면,
즐긴다.
경비가
OS@@
마우스가
위기,
Phot@@
프로세서를
뉴
200여
만났어요
CEO
없으@@
스팸@@
제품들은
홀에
논의하고
제도와
an과
교가
흐릿@@
구하러
나와요.
궤도@@
상상력과
부끄러운
노력하여
센세이@@
미증유의
지라고
절박한
필요를
예쁘지
이상에
트한
상위@@
남자들에게
칼로
다빈치의
안젤@@
유리하다.
고하고
상상은
정지된
문외@@
만족시키는
의미도
탐험
호기심과
ect@@
브로
태양,
칭찬을
벌어
사이즈의
있지만@@
카페에서
록을
욕망이
쪽과
센티미터
고리가
스나
부츠@@
성관계를
의지하고
권력,
나뭇가지를
붓을
범죄자의
감방에
뽑아서
비율에
원통@@
떠올릴
시점에
언론과
충격
1200@@
여론@@
공학,
텐트를
꼭대기@@
흩@@
쓰러져
잃었다.@@
텐트
로이드
연결해
들었지만,
도달하면
선천적인
비만,
효소@@
화되었다.
민감하다.
물속의
의존하기
비만과
인:
뭐라고@@
태어나지
찍어야
심각하고
레이첼
동물들도
슬라이드의
절박@@
프리드@@
무형의
강조한다.
전파하고
매디@@
소설은
일종
수식@@
슬픔과
작가의
밤새@@
감안할
D-@@
마디도
말했지만
되든
싶니?
해답이
과언이
급격한
격려해야
솟은
스위스의
졸업했을
니다:
프로젝트들은
같다:
사용자와
깨뜨렸다.
책임져야
형성을
애들한테
팔려고
영어,
주었고
하던@@
것들입니다.
박쥐
저는'@@
코의
등불이
일들이다.
선택적으로
선택적
한국에서
되였기에
니콜라@@
원숭이에게
완전무결@@
생명체를
해주세요.
점만
Gl@@
물리학자들은
묘사가
%를
지름
FD@@
시카고에서
쌍이
소프트웨어에
놓는다.
다니엘
컵이
리처드,
반응도
이러고
있어요,
의사로
지탱할
대체했다.
받아들여질
Ur@@
씻어@@
포유동물은
kg@@
필적할
새우
취미가
견과@@
공화당원@@
최연소
출신의
연결한다.
차이점을
단체들이
곤두@@
Youtube@@
여겼다
열고,
단어들을
에미@@
심심@@
현미경@@
바꾼다.
시도한다
소년과
1986년에
투시@@
화재가
좋겠다고
있다)
12월에
공백을
발,
W.
성별을
녀자애가
편차가
독립을
구역,
피크
된"@@
되돌릴
치밀한
컨
봐!@@
해결하려면
회사들을
청사진을
왕성하게
Ro@@
랜드에
음으로
바꾸려는
뜻입니까?
됐다고
들이다
즐거움
논의하는
아니니까
정답@@
나쁜지
잘랐@@
아티@@
아래,
알고있었다.
않을수
니아에서
양성애@@
les
있는것을
미국인들에게
공개할
오레곤@@
중국어로
표지판을
외과의사는
밤하늘을
환각이
사방에서
1998년에
당했고,
붓고
돌아오면
겠다는
운명은
매춘@@
음료를
이루는
나르시시즘@@
만든다고
퉁@@
천천히,
보았다."@@
럭비
침입
흥
아인@@
위대하고
평화롭게
끈
대영@@
50년이
막바지에
관건이
않든
주겠다고
멸종될
배웠다는
땅콩@@
던지면
40명의
오바마가
그대로의
친다고
다가오고
멍청하게
인식하지
그들처럼
붙였다
생각합니까?@@
밖
비극이
유행이
꽃은
사물이다.
빨간색,
광선
제거하면
필터를
머릿속@@
이렇다.@@
화학물질이
촉
"네가
문장
첫걸음을
우스
재미가
칠흑
너희들처럼
마법의
1990년
이만@@
훌륭하다고
1995년에
갖다
자본이
와.@@
숫자들이
시각은
친환경
꿈틀@@
입자는
커지는
나타냅@@
클립@@
레이저로
들어:
면,"@@
년밖에
책략을
분배를
현명하지
이전에도
최대@@
제시했다.
산업에서
리눅@@
백과사전을
외계에서
TEDx@@
인상은
하나이며
아세요?@@
술의
나아갔다.
느끼고,
인사들은
신분으로
추측했다.
만델라가
만델라는
없다"는
르완다의
일:
응당한
해결하려는
망막
이빨이
희한한
6피트
활발하고
나거나
흔치
매력적이다.
개발의
위주로
공터를
45%
-그리고
반환@@
레이저를
찾았는데
단지"@@
의도
깨달았지만,
비슷하게
사건들을
장소와
천국을
겪어야
물으면
판독@@
각각의
주장했다.
트위터에
스텔스
뒤적@@
도구들이
Thomas
귀엽고
현란@@
생각했지만
위해서.
벤치마@@
휘황찬란@@
훈련에
장애와
여행의
높으며,
조상을
Ol@@
다윈이
오고,
시작되었고,
해안을
중점@@
구명@@
부드럽@@
제도로
계속해야
냉소@@
못하더라도
생긴다
주재@@
도달할수
선진국에서
편벽@@
진료소에서
일군이
데나
편의@@
홀로@@
공에
삼각형의
질문도
수확할
님과
움에서
약하게
색깔,
이베@@
감상하고
뉴저지의
틀에서
각도의
모양
소유한
3차원@@
상승
허가증을
생각에서
넘나@@
핸드폰의
게다가,
이해에
분배할
읽거나
현금인출@@
인도나
전파된다.
온화@@
교류에
수명@@
오염,
천외@@
타르@@
선물이다.
굽는
공업화
칠레에서
구비@@
로보트가
퍼즐
칠판에
tin
뤼@@
ix@@
다면.@@
깜@@
극한@@
재판@@
메트로폴리탄
렷@@
불렀는데,
안녕
광산
천식
유색@@
회복에
시범
호흡하는
힙합@@
공허한
회사나
하다.그리고
자본주의를
Bill
최우선
매력적으로
봉지를
균을
2010년까지
타기
꿈이다.
DVD@@
수렵@@
J.@@
미녀@@
우리는,
54@@
효과적일
알려줬@@
비교하고
계기@@
뒤처져
윤리에
눈빛을
결합한
협상을
데이비드는
상냥@@
횟수가
노선은
확정하는
몰라서
막대
책임지는
자산@@
o-@@
말에는
강조하는
기록이다.
부여하고
공동체
잃기
없다.하지만
네비게이션
보았고
보스턴의
노트@@
순수
만화의
선회@@
일부분만
다차원적인
노병@@
계산에
표시
해한
산타클로@@
센
가져간
몸도
릉@@
토끼
발육
발톱을
의존한다
사무실의
"맞아,
."@@
하진
그들에게는
오스만
내려가고
아이들처럼
심오@@
이산화탄소는
의도가
익은
가끔씩
버지니아의
응급실로
생각했습니다.
해석에
타운
이루었다
전염병에
양으로
물고기,
생활하는지
대양
생물로
온도와
쯤에
건드릴
스테인@@
문자와
문자는
복원
중앙정보@@
밀하고
예술이다.
서투@@
냉전
플로리다@@
제작을
배심원@@
매트리@@
결정의
자극하여
전기충격@@
신호로
줄기의
아데@@
상단에서
신경과학@@
헬멧@@
비행은
선반
학교입니다.
관찰했다
Cr@@
-그는
누구든
투자하지
아파트에
예술가를
파에서
고마워요.@@
Kick@@
arter@@
오웰@@
하드
상상조차
Facebook
뒷받침@@
부서는
Q
부차적인
테러리스트가
끼지
법안@@
비난하는
물결이
지도상의
옐@@
기입@@
즉흥@@
이사
십니다.
떠났다
주말
버락
수지를
엔지니어와
탱크가
공학과
시켰는지
명예@@
있다:"@@
라:
지식도
교과서에서
인내심
구글,
범주에
굶주리고
개성이
주제와
바보가
세금@@
일자리가
중국인은
브로콜@@
좌종@@
제빵@@
중국인이
갑시다.
김
자메이카@@
브라질에
비슷하다.@@
맥도날드
버트@@
보조금을
스카
고압@@
기체를
배가@@
스미스@@
이식한
순환에
16
찾으려는
갈비@@
활을
누에@@
발음@@
걸었고,
한다!@@
인공적인
시도이다.
계산해야
웃음소리가
전시했다.
5000개의
전문가에게
응급처@@
함량을
률과
웅장하고
혼인@@
이야기했는데,
되기로
막히@@
동기와
슬라이드에
애니메이@@
창작하는
비폭력적인
3배로
미안하다.
사용했기
단열
오타@@
묘사하기
바삭바삭@@
주문을
항공기
변환
나라에는
HIV에
ank@@
600명의
전염
궁금했다.
고위험@@
사용하려면
효과라고
융합시켜
세부적인
세력을
시위가
습니다."@@
%의
진료소@@
케이프@@
지점이
비교했다.
기아
플로리다의
비극적인
(박수
블레@@
변론에
의료,
Arth@@
철두철@@
않느냐@@
해야지
CPU@@
RA@@
버가
Hel@@
반응하지
는다."
피리@@
단체,
두번째
7일
살해당@@
불렀어요.
의식하고
생각하세요?
옮기면
하는것보다
현악@@
변화무쌍한
가라.
등등을
러닝머신@@
합작할
제시간에
정확도를
통로가
시키려면
농도를
방출한다.
부도덕한
재창조하고
19세@@
병렬
설비와
노천
신지
장치이다.
항생제에
군.
4시
고민이
이론,
완벽하다.
받침대를
오른손
처리하는지
클리블@@
알았어요
사운드를
좌석의
세트가
변수@@
부족하여
얼굴,
회화@@
발견한다.
0.0@@
뽑은
횡령@@
연설한
장관인
느리다.
안되는
관찰해야
생물학과
가시
모래는
보석을
습격을
뜻밖@@
단세포
높여
같아요?
불타는
발달
피임@@
자유자재로
툴라
찬양,
미국보다
스럽다
수술에서
전념하고
합성할
원천을
왔다갔다하는
브와
고마워.
끊어진
이거야.
크리스토@@
시작했다:
DC@@
지도하고
접촉하고
유명
직무@@
점들을
리뷰@@
위험할
친구이다.
예산의
품질과
의료진@@
강단에서
대기층의
그는"이
NASA@@
파도
장비는
생장
성냥을
경이로운
겠는가?
직선을
전선에서
추궁@@
심장박@@
가만히
냉각
잔디밭@@
광장에
만들어요.
팽팽@@
아름답지
분자들은
곱하면
갑을
믿는다는
박쥐의
온다고
1300@@
실명을
하느냐
음...@@
작정@@
잠재적으로
발굴하여
공유하고,
자르고
그랬다.
비용에
74@@
이하로
작업실에서
벽으로
최근,
섬세한
싶어요.@@
토양
움직여야
비추고
보장하고
Ny@@
우주정거@@
토성을
사항이
때문입니다
희소한
단지를
만났습니다.
알려드리겠습니다.
비싸기
심리적으로
원시적이고
학습과
반응의
특정@@
임무에
주의하는
제한할
발생은
배고프@@
의심스럽다.
차트를
반등@@
내전이
많은"@@
여자들을
출발점으로
빈곤과
분자,
깨달았다는
돌리기
수련@@
련을
생각하니?"
소리쳤다."@@
자비를
재생을
비교했을
당뇨병을
지체
만들죠
발명했다
눈썹을
떨어졌을
윈
만유인@@
중성미@@
천문학자들은
요청을
깊다.
면모를
17
가."
약품의
불완전한
부여받은
먹이로
50여
검색하는
다이얼@@
젊은이는
낸다면
불가능하다는
란이
폭동을
60~@@
영국으로
키스
들어주셔서
책상을
날리는
국무장관@@
편지가
스럽지
hu@@
고용하는
사진작가
평균치@@
80
법칙의
얼마든지
타임스
범죄는
전환시켰다.
말해줘@@
대표하기
재정의할
깜박@@
성공이다.
업종이
때'@@
TV를
RI@@
스무
옵션
추구가
먹거나
완곡@@
비유로
팔아서
1996년
머리카락을
술과
탄자@@
분.
전원이
도파민을
가용@@
제너럴모터스
생겼어.
잇@@
집합을
21%
돌연변이를
멸종을
암세포를
체스터
오크@@
필요한데,
연에
밝히@@
결합을
대책을
향락@@
반응이다.
활발하다.
의식으로
iPad@@
계통을
최우수
휴스턴@@
성과도
작용하여
인지를
좌석은
비밀스러운
아편@@
통상@@
밀렵꾼@@
사실은,
파이
응용에
360도
원추@@
JH:
가난을
학생입니다.
원짜리
자인지
2학년
혼수상태에
중요해요
생체모방@@
바퀴,
만족을
in의
se@@
트맨@@
하늘과
주년
컨설@@
개념에서
생각엔@@
감탄하게
권리와
공식은
세웠다.@@
rac@@
알겠습니다.
악어의
흘렸다.
토지는
국무@@
생각하며,
상징이다.
견지해
동성애자@@
지수의
슬라이드가
아이슬란드
화성은
주기는
화물
전체와
의거하여
소유자가
얘기는
리더십의
나무들을
관계된다.
새에
나타났는데
암호의
3을
메커니즘에
존스@@
화제와
돌파구@@
벌목
대자연을
기증
조작이
임의@@
개체로
나선
공개된
능숙하게
가정,
여보,
소장품을
산소와
남성을
남성들이
제르@@
걸립@@
된것은
소리입니다.
천문학
기기는
an이
시카고의
무선으로
성간
물리학은
전신
학원에
무엇인가?"
무기와
메이
이국@@
지도자이다.
100달러짜리
설계되었습니다.
반신@@
휠체어
언급하고
버티@@
수컷이
바닷물을
걸이
창한
만들었어.
ste@@
와!
광장
비행기,
개미굴
개미들이
선생:
싸다.
훈련,
고유의
공짜로
뚜렷하다.
놓인
Dav@@
형제는
리얼리티
전립선암에
내팽개@@
카에@@
부인과
오디오를
50년대에
수입
프린팅
BM@@
여신@@
Airbn@@
드러내는
얻으면
버텨@@
균형은
끼어@@
싸인
믿어.
협력과
달과
수생@@
잠수기를
문화대@@
･@@
토네이@@
좌
제작한
연구소는
금메@@
YR:
황야@@
PD@@
들썩@@
두려움의
당국이
빠르다는
gel@@
미와
영역
텔
시민들이
에어컨
여권을
로저
후유@@
핵융합
간파@@
케케묵은
껴
병사는
daf@@
Speech@@
7시간
타라우@@
선택으로
장애인@@
볼리우@@
해커는
기업에서
이슬람교를
장애인
사람들-@@
호위@@
인용하고
조슈@@
UV@@
감별@@
른지
클레이튼
가루가
har@@
못해요.
냄새는
비공식적인
멀티미디어
SS:
배우의
간헐@@
스파게티를
생강@@
미념@@
혼수@@
구덩이를
약식@@
공학의
종횡@@
바나나를
수원
베이징
포브@@
광희@@
La
왕래하는
송유@@
파푸아뉴기@@
잠수복@@
Im@@
방글라데시
최루@@
CL:
안식@@
보내다
초파리@@
.관객:
K:@@
RD:
노튼
제조업의
BO@@
어머니날
NM:
ICU@@
수면이
다큐멘터리:
비즈@@
그웬,
가베가
KS:
해양에서
호와
우아하게
마일이다.
산맥이
걷게
부분이기
굴뚝@@
해저에서
음식이다.
이곳에서는
서식지@@
접시
지겨@@
찌
손발을
배경의
불구가
이니
야겠어
뒤처@@
경쟁에
늙을
소식
의미하지
중시해야
출근하는
가망이
주들은
종사할
총량의
진입할수
평등에
투입된
투입하는
좋아졌@@
혹독한
불평하는
본보기로
시민들에게
돌리고있다.
규정에
끌어들였다.
15000@@
배출되는
학생들
형성된다.
저처럼
흔들며
작동하도록
형성되는
복용할
통제한다.
역사,
도이다
DV@@
분량의
필름을
시드니
세심하게
했어?
재현할
에서부터
셰익스피어가
포함된다
연구소@@
바에서
오픈@@
본토
병원체를
작다고
진행되는
참치
심지어@@
브루클린
참가하러
미의
울릴
허허,
들다
공기에
은색
미끄@@
그녀들과
떠났을
휴식을
성경에
가설
배우
아동의
중요하지만,
전환해야
주민들의
경력
노동력의
스러워서
장애물이
투입해야
보급하기
K-@@
중등
시민,
창작에
아에게
소절
바라며
치매
말기에
친지@@
놀라
기억과
요구합니다.
강연하는
강연할
묘사할수
라로
로봇들은
거수@@
한다;
개봉@@
익숙히
작곡가@@
없잖아@@
멜로@@
세련@@
Or@@
ge@@
리듬이
작고,
하우스@@
크다.@@
교향@@
가든
노래하고
있고.
증명하다싶이
무성@@
즐거움,
위험도
30초@@
미소@@
핍박@@
찬성하지
물어보@@
세상,
슬럼@@
고통은
채웠@@
올리면
절대다수가
거실에
이웃,
육각@@
전달한
입니다."라고
시리아
레바논
버전입니다.
서로에
만남@@
독일에
전달하고자
스티커를
있지,
남편,
디자이너,
지상의
확대된
중부
위치해@@
바닷물에
류에서
악화되고
자연계에
식량의
광대@@
결합
쇼핑
ling@@
곳이었다.
금요일에
사진이다
돼지와
속박에서
어로'@@
재창조할
감사합니다.정말
전시회에
논리가
de@@
DJ@@
슴
가능하다면,
16살@@
건드@@
려도
조절하고
약,
단백질에
련맹@@
배운@@
육지에서
평가해야
손해를
전시하고
제도에서
엄밀히
창의를
표기@@
고있는데
유망한
이외에
초월한
난다면
에이,
10여@@
맞으면
멀고
매일의
모기장
퇴치
북부@@
라인에서
태어났습니다.
총리가
생겼어
11월에
는데요.
무더기를
서프라이@@
시작하자.
누구
고민하고
남자다@@
살과
남자들의
코치가
신이시@@
지배할
렬로
치에서
좋아해
롭다고
리더가
출발하는
마찬가지다
낭독@@
인간관계를
아파서
근데,
싶지도
자매
의대
튜브를
더럽고
발명품@@
돈만
MBA
Co@@
대폭발
상대성
확인
사람들에게만
기하급수적으로
하려면,
넥타이를
얻었고
협회의
사우스
희귀@@
예상대로
이해한다
영웅의
인용할
내딛@@
궁극적으로
에티오피아에서
15년간
도착하기
호수에
수요,
완성할수
수익은
유니콘@@
영광을
연구한다면,
하버드에서
월요일
즐겁다고
열었을
가들에게
표,
사장에게
"아니야,
시시@@
지적해야
끝낸
했니?"
내놓았다.
개선
맛은
값어치가
의미,
농담으로
직장
막내@@
가...@@
하나는"@@
질문은,
직선@@
성생활을
블랙베리
일상생활@@
체득할
이뿐만이
때때@@
가능한가?
계획한
택시를
캐릭터
유병@@
소유권을
북극에서
구상할
해수면
염려가
맹그로브
주의라고
직원과
있니,
금속이
창문@@
받았다."@@
악명
돌아가자
보여드릴게요
빼고
와서@@
발생하는데
지키지
간단해,
공사는
가능성
용납할
사실이라고
이르지
진보는
싶었을
점진@@
50세가
재앙을
풍부하게
사용될수
무책임@@
초래할수
신진대사@@
유로
해져야
종들은
헤엄칠
준비하기
빠지는
허튼소리를
책상@@
관중석에
무엇이라고
어느@@
발생했다는
제시하는
남긴다.
관중들의
실행하기
반도
참관할
주변을
나가지
쳐다보고
아폴@@
정원@@
기가@@
그뿐만
Steve
인이고
가나@@
나왔어요
자책@@
시합에서
말하려는
이다.이런
한정@@
스펀지
박사와
초청되었다.
강조했다.
플랫폼에
빛이다.
와우@@
켜서
탐구는
추모@@
시작.
꼬마@@
게이
되기때문이다.
지르며
하나하나를
뉴욕타임스
칼럼@@
보내질
하단에
찾아라.
모습이에요.
화면의
필요합니다
쇼핑을
한창@@
요?'
롯@@
파일@@
Wor@@
것이다.내가
해라
맨날
태어났다
하신다.
시절,
열려
대학원
100000@@
Andrew
멘토@@
itch@@
기능,
론,
문제만이
프린스턴
트웨@@
추구한다.
때,"@@
연구원@@
어처럼
방법이야
수칙@@
김에
시어@@
저러@@
똑똑하지
하는가?»
존엄성을
때문이다-@@
날씬@@
사리@@
마수@@
초상을
태블릿@@
태블릿
귀뚜라미@@
와"@@
지휘하는
Skyp@@
콥@@
물어보세요.
변화시켜
주최@@
전시하는
은하에서
끼어
유지할수
인식과
릇
신분에
숭상@@
나날을
욕망의
동료들의
보겠다.
거들떠보지도
신화를
격리된
18개월@@
사랑해@@
링은
무방하다
빨간색과
노동력을
경로는
설명합니까?
로켓은
이날을
월요@@
IBM
강타@@
진주@@
끌어냈다.
질렀다.
4번
위해서다.
자들이다.
검은색@@
니까요.@@
Rob
해졌다.@@
oug@@
코에
Beck@@
체온을
측두엽@@
And@@
살충제
아틀라@@
든다는
컵의
반이다.
호르몬이
일으킨다.
태어나@@
정리했다.
한다."라고
도난@@
개구리는
우간다의
짓고,
한걸음
모델에서
브랜드는
아름답고,
생각해보세요.
노력합니다.
40개의
D의
세밀하게
환상이
더라도.
순간으로
어떨지
축하하는
걱정스러운
외향적인
정력이
교실의
섯@@
아이디어에
사람들이다
심리학자들이
심리학의
끌리는
고양이의
쿤@@
오두@@
꼼꼼@@
벌거벗은
들어오면
접착제를
의문@@
되었다.우리는
몽골@@
스위스에서
시면
대회
사는데
창작의
군체@@
사람이"@@
갈고리
교사,
샘
오스@@
조직들이
개조된
교잡@@
파악한
유전자,
녹색을
밤에는
걱정한다
에든버@@
강하기
묶여@@
시작하였다.
10명이
다해서
해독하는
나눈다.
검사에
진단에
사나@@
천재적인
ner@@
가장자리가
Sus@@
수잔
기뻐했다.
평소와
센티@@
보여주었고,
시도해야
거부
스캐닝
추구하지
완벽하지는
온라인에
있든지
확대
스피커를
오늘에
6개
모임에서
좀@@
예.
해봐.
콜라겐@@
분리해야
자신보다
곤충과
토마토
부양해야
개발도상국에서는
예다.
가스는
편에서
사람?
예측한다.
브루노@@
공화당
로렌스
생각하도록
연구소를
래리
작품도
작가를
존중해야
입력하고
놀랍다
걔@@
찬성하는
이튿날
터뜨@@
한다.»
왔지만
법이라고
가깝다고
연결에
청중을
했다.그것은
성대한
올해의
통과
잔인하게
""
재건을
상자는
제의@@
선생은
년전에
"왜?"
사자가
세월을
5년이
나이의
치아를
생겼는데,
시작되었다는
기록에서
자랑스러워할
동쪽으로
간격@@
깃발이
방향과
'와
삼각
수행
머가
시각과
나침@@
샤
어서,
돌아왔습니다.
퇴직할
직원은
복숭@@
이룬@@
사회에서는
마력을
공동체가
인신@@
이론에서
정답이
딸에게
무엇
입어야
해보겠습니다.
여자들과
진보와
스캔하고
알면서도
이슬람교
레즈비@@
토론하게
아프가니스탄을
보스니아@@
보스니아
공유한
칠레의
아일랜드의
봤던
되었을까?
살밖에
마라톤을
해명@@
신념과
침공@@
이집트의
썼다고
흘리며
중고
소녀에게
프로젝트라는
돌아
아이패@@
추세에
조급@@
노동자들을
2년을
글러@@
초월한다.
구매
재미있다는
글자@@
셀루스
나타났습니다.
문서@@
되
공존할
모자@@
18세기의
19세기의
19
서적@@
시대이다.
팔레@@
그럽@@
불러일으켰다
분열을
바퀴벌레를
기'@@
에피소드를
환경에서의
해냈어.
이론으로
동전
무엇일@@
조사할
여기에도
5의
빼앗을
즐거움으로
확대하고
걸리게
식물에서
비효율적인
공생@@
착륙하는
표식@@
초에서
파리는
무늬를
향기가
끌어당기는
조절
용도는
외계인을
프란@@
재미를
8학년
않아?
즉흥적인
리모컨을
박자를
전공
들어갔고,
다중@@
"이게
인물이다.
공항을
통제,
녹음했다.
기부금을
내려다볼
이쪽
난이@@
채권을
투자자들이
정보들을
생활한
눈송@@
잠깐.
그림들이
신화의
키스하는
싶다면.
기후변화의
지지한다는
생물학은
따지지
의존
간단명료하게
축의
세한
논문@@
진화하고
거나@@
원리가
외국인
좋아한다면,
편파@@
살입니다.
진압@@
유머는
고?@@
민주당
미국이나
칙
대통령과
꿈
같아요."
18세기에
사라졌어요.
피우는
코디@@
갈래@@
넘으면
이상으로
넘친다.
상응하여
발생한다
편두통을
아나
탐사선이
모잠비@@
탄자니아의
원조에
결핵
타르
검사가
자동화
단계입니다.
믿었@@
책임은
시킨다고
블랙
부여했다.
엘
당으로
주의하게
언제부터
아프리카에는
va@@
수만@@
틀릴
아프리카인들이
동위원@@
남극을
이동은
환류@@
켜면
여정이
편지는
전쟁도
통해서도
내용이다.
러시아에
밀레니엄
게이츠
대소변을
남쪽에서
넓어@@
불일치@@
분해
출발점@@
바라보@@
모형과
필터@@
알아요.@@
동맥이
나눈@@
페리@@
훈련과
각지를
맥을
뻔한
휴대폰은
은행과
주문할
길가의
만들었는지
우간다
항생제가
둘째:
농무@@
다에서
오렌@@
운송할
되였지만
스프레이@@
인격을
모방하여
전시한
공상과학@@
세월이
보석
미로를
사업으로
임명@@
연습
것.
미운
황이
족이
그렸다
럴@@
미시시피
지어준
재킷@@
불려@@
샌드위치@@
보여주세요.
처리했다.
예상했던
단기간에
레드라@@
이용되지
대기에
교통,
고어
균이
갭이
단어입니다.
환호)
말든
대만
것까지
트럭에
태양광
위협으로
팍@@
에게나
es,
분간의
밟지
%는
버핏@@
다윗@@
압력이
스쿨@@
동작의
과자
강해
어제,
징벌을
권위를
옳은지
소비자들이
소비자를
소비자에게
칼라
y라는
병아@@
Pat@@
이동식
James
감으로
맹목@@
휴먼
Georg@@
익사@@
형상을
지도자,
협정을
1명은
과대평가@@
어떠한지
송
연령
높아지고
생물학자,
복제하고
넣어@@
조상
치아
닭이
사무엘
신념은
묶는
알프레드
쓰여져
선사@@
드로@@
구나.
아아@@
글꼴을
붓는
같았어요.
충은
싫어하든
기교
끌려가
번식을
항생제의
미숙@@
아포@@
관계도
당뇨병에
퀘@@
구름은
사랑스러운
일광@@
우세가
개입을
왔으며
행성이다.
력사에서
강도@@
지지하기
분석은
보여주었@@
지불했다.
경외심을
낫다
미친다
자질@@
미립@@
거두었다
돌아서
분간@@
인체에서
복구할
고화질
징조@@
E:
시킨다면,
성능이
젊은이,
그들이"@@
있었다."@@
열독@@
그만두@@
싸구@@
떠올랐다.
멀어지는
포트@@
두라@@
뛰어내려
작업장에서
령역을
반대하지
암호화
암호화된
암호화@@
날짜를
연합
인정합니다.
대요.
엔진에
명명했다.
풀밭@@
40여
시청
물줄기를
고양이에게
할리우드에서
허드@@
질서@@
년이다.
수집하기
65세
경기장에서
칠할
아름다움이
5천@@
부패한
시민을
마을에는
수면은
교과서를
기다림@@
데니@@
그렇긴
구독@@
델라@@
저애@@
제공하기를
고기,
백여
이민자들이
튀김@@
요리,
미국식
남극에서
소금
테네시
닭강@@
인물들이
누구보다도
생산력이
없기를
뼈와
북쪽에
심었다.
방화@@
쏠
쐈@@
제복을
귀엽다고
영어의
망원경으로
차용@@
전복
어떨까요?
통과하도록
디아@@
바뀐다.
Vi@@
설계에서
못이
떠올리@@
빈도가
봉사를
총격
줄였다.
아슬@@
열중하고
2020년까지
이때@@
가져다주@@
전환에
완
가늠할
용서할
매길
신제품을
렸어.
아비@@
광고에서
차량@@
우유가
호수가
적합하다고
7월에
지혜,
실시하는
잠에서
않는다;@@
곳마다
자급자@@
아일@@
할까?@@
입법
밭
극력
이산화탄소@@
그날은
주사기를
생각했는데
뒤가
uck@@
격화@@
증도
땅으로
절정@@
이전처럼
콜로라@@
걷기에
기대합니다.
가기를
않는다.그것은
설득해서
녀성:
찌꺼기를
소비량을
알겠어?@@
때문이다.그래서
이므로
공정과
라마
복음@@
아이였다.
원만한
남편에게
캐릭터를
컴퓨터이다.
"아빠,
트리
구조입니다.
영웅은
프랑스어를
미처
시도했지만,
가로서,
공명@@
았어
규칙도
벌리고
횟수를
더미에
하이힐@@
39@@
시작한다면,
1세대
이온@@
귀납@@
선장@@
차선@@
로비를
독창적인
씻을
찾는다면
빌과
일본을
편안하고
썼던
전람회를
금속으로
다락@@
--내
설계되어
중심지@@
모퉁이에
이거예요.
주전자@@
모형에
관측할
생각하는가?
나아가서는
편견은
교류와
우리가'@@
그녀에게"@@
나라이다.
차고에
제안이
의원
토위6@@
빅뱅@@
항성
아인슈타인,
모범을
45억
그때도
꿀을
모래알@@
해조류@@
이용하기
숫자와
로맨틱한
시키는지
행복,
달성하려면
미세
법칙,
진보할
개선될
척도
발전시켜야
배격@@
여드@@
구석을
하고있다
처리하여
방목@@
계좌에
RNA
결합된
비주@@
뛰어올라
하게도
요약해
양파
창작은
변수가
악어
꼬리에
텔아비@@
프란시스@@
파트너,
그는"내가
성냥@@
들려줄
I.@@
나빠지고
트나
호화로운
측정해
많은지
대화와
대면
17년
기계들이
떠오른다.
해였다.
원자는
예뻐
샌프란시스코에
몬테레이
생물반응@@
태양에
집중된
막에
알파
감사합니다.(박수)
Tr@@
부다@@
다.만약
고인이
녹아@@
논
너처럼
파스칼@@
망원경의
구멍으로
블랙홀
소리들은
머리도
질량을
되는것이
상상해봐.
지났지만
형성되어
창도@@
시스템이다
떨리는
느꼈어요.
영광이
주위@@
V
커가
Gapmind@@
생각하시겠지만
매혹시키는
번성@@
입어
나타내며,
돌연변이가
고농@@
보이는데,
설명하고자
뛰어나다.
포인트가
허리
고용했다.
튼:
처,
SJ:
법률과
알코올
유용하다는
센서의
센서는
활동,
나이키
대.
렌즈의
탄생
평방피트의
할머니,
무기에
퍼지고
체르노@@
현장@@
미래에는
있다.우리
생애에서
칠면@@
요금을
20년을
다니기
절의
태양계에서
우주선의
알리는
89@@
세계"
처리한
인공지능
활한
다면?@@
무인@@
실험,
일들의
기금과
혁신도
벌새@@
동력이다.
안데@@
데려갔다.
검색하면
상해@@
유랑@@
성경을
관찰함으로써
상파울루에서
기교와
행동하고
기초이다.
모르거나
피질
생활도
바른
습관
말씀드려야
채무@@
차세계대@@
부자들은
단체와
는이
화학자@@
기포
동정심과
불만@@
있다.»
불쾌하게
회복의
Rock@@
1500만
회복시킬
납작@@
광산@@
원유를
콰@@
사실적으로
단열@@
세로로
은하계
우며,
범주를
Ted@@
는가이다.
야구를
운동하는
대표한다고
나뉘어
서명한
노인들의
의심과
2008
법안에
여사는
아무래도
정으로
아니다@@
얘야,
로스앤젤레스로
선택하게
희생을
글자가
사태를
사람들만
케네@@
경제학은
에너지에서
강연자가
hr@@
-우리가
감동시킬
냐고요?
있겠지?
경계
정신질환에
손상
랜드를
진취@@
다-나는
범인은
화신@@
쿠웨이@@
썼고
훌륭했다.
통밀@@
재검토@@
지어낸
생각해?
빈곤,
하니?"
가사
법규를
할례@@
평온한
년.
투하@@
이진@@
연구원
판단이
(GM)
수준,
종말@@
관중들을
충돌,
경제학자
전개해야
알아내@@
관찰은
이해,
발견하였다.@@
전보를
자취를
바이올리니스트@@
기르고
전두@@
전하는
진일보
내용입니다.
몇가지
면접@@
착수할
대출이
디자인하는
Cam@@
en은
Tw@@
한다.이렇게
죽
조약@@
마오@@
쩌@@
건강이
성장률이
열려고
신경과학의
형광을
드론은
행방을
놓았는데
선생님.
중산층@@
Jeff@@
말라리아는
코,
지갑을
행위도
의미하며
쏘는
통행@@
발명하는
압축
지능형
밍
제.
초래하게
복도에
Ex@@
태어났기
모양이다.
동정과
무슬림들이
늙지
중세의
실력을
어휘
교사와
있다.이것이
말할게.
악어@@
늑대가
6년이
알라의
출석@@
이다.)
위해서이다
토양에
후회할
열리는
7명의
허리케인이
산호초가
밑을
되었는데
배출량이
80만
달로
20개
돌아다니고
신분은
양호한
나라보다
10위@@
그름을
플라톤@@
님을
단도직입@@
그랬어.
상호작용은
아마도"@@
고...
캐나다에
상업용
주름이
규제@@
자"는
HT@@
TP@@
들여야
인자가
수지
디트로이트
전역에
살든
기업과
부들은
구간@@
암호에
염색체@@
3이
계몽
테이프
전파는
러,
기간은
손짓을
스탠퍼@@
상식적인
오!
초자연적인
LOL@@
싫어요.
사항에
강간을
국한되어
체도
저항하는
척추
낮다
옥시토신
원리로
공항의
일기를
이스탄@@
세속적인
인물의
독자들은
변화라고
빨개@@
깨어날
슬
창문으로
자료
캐나다,
워싱턴에서
인자를
약물로
저온@@
부서진
Wom@@
발언권을
전력의
대칭성이
기자의
지외
발견한다면,
부위@@
생각했어
남자들과
힐리@@
2000만
까,
두렵게
없다.그래서
지불
역학
요점@@
포르투@@
향하는
서버를
전통에
북방의
짧다.
나쁠
불러도
져.
저거
세계화를
부품
도표
어라,
이다!@@
면...@@
소풍을
모형의
인력
소년들이
더워@@
이야기하기를
좌석
이상적이지
매력적이지
경작
보도에서
통제하지
아름다워
운전자가
뜻입니다.
분열이
영양이
복제를
이성은
제조업체가
탈레반
도미니@@
700만
우두머리@@
메리@@
Du@@
코카인을
고려한다면
특성@@
교육에서
돼지가
글자의
와인
철학자가
적이야
늘려야
부과@@
의사에
당나@@
브에서
젠장,
직함을
공산주의
하중을
숫자입니다.
노동을
탄복@@
상형@@
부대는
대원들이
의식에서
사업이다.
소련이
GDP를
방송국을
산산@@
버와
거위@@
개혁에
MI@@
자료는
랗@@
트리:
척도@@
잎의
겨누@@
수업과
반탁@@
테스트입니다.
의인@@
동사@@
낮아지고
사형수
봉우리가
여름에는
채웠다.
원)
랜덤
학비를
됐고
반영하고
미에
동기,
생사가
10년은
있다니
타파하고
우라늄
터키의
빙빙
분열된
밧줄
교환할
초청되어
소개해야
보호구역을
수역을
제시
전략,
부리@@
진짜.
대분@@
GDP가
5년간의
배출의
좋아졌다.
나그@@
ism@@
Lyn@@
자세
막혔@@
대학교에서
콜로@@
주지사@@
련방@@
Worldchanging@@
먹이사슬에
화페@@
보스턴에
오디세우@@
약속
도표에서
구멍은
모기에
진화론을
RHe@@
아치
투자자들은
우간다@@
싶은데요.
포크를
Mathematic@@
물리학을
외국어를
키보드를
찾아와서
시동을
하워드는
분석하면
임관
보여줄@@
자민@@
버밍@@
부패에
베이킹@@
보고서가
칼륨@@
광장@@
1-2-3@@
내연@@
Fab
GPHIN@@
즙을
진딧@@
병균이
방영된
증오를
GDP는
말합니까?
경전@@
비만에
화성차가
화성차를
캘커@@
Edu@@
퇘@@
반죽을
닐리우@@
정반@@
복강경
코브라@@
마차가
에반이
중관
효모@@
Panbanisha@@
에볼라를
파트너와
파운드이다.
필요한가?
제가'@@
진입했다.
천성이
즐겼@@
장려할
지도자로서
휴식
위적인
한국은
표시한다.
집단으로
이것뿐만이
장치의
통합하는
됨
학과가
표하는
영상과
통제권을
클럽
영화입니다.
요구했다
전달하기
조부모@@
외할머니@@
투성이가
존중하지
이분@@
슈타@@
가끔@@
연설하고
작용한다.
테두리를
저것을
프레젠테이션@@
진행자:
음파를
재미있기
옷에
카네기멜@@
학령@@
일반인들이
참여가
의견은
우려하고
나?@@
정신,
저자가
월과
자주적으로
예고@@
제작하여
이하
포인터@@
유용하다고
벅@@
창작하기
탄생했습니다.
퍼지는
초원@@
정반대의
코미디언@@
착오가
오해가
우울증@@
페이스북의
이스라엘을
포스터
인간만이
오염물을
토론했다
파급@@
비닐@@
유럽에서는
초승@@
캔버스
철도를
요리가
유토@@
피아의
인다면,
증기
페인트를
천장을
격으로
의사이@@
파랗게
작용에
출몰@@
항해
텍사스의
진도를
코스타리카@@
확장해야
전면@@
장착된
있습니다.그러나
인류,
천연두를
징후@@
흐리멍덩@@
오줌을
켄델@@
출신
적고,
친구로
항구@@
남에
일했는데,
의지하는
혼란스럽고
핑계@@
조건의
해답은
테렌@@
활기찬
환자도
포장을
일리노이
초강대@@
피우지
연구하려고
한센@@
주의력은
조건으로
침묵이
형성하게
책들이
향했다.
퍼스
있는바
혁신하는
짝짓기
저리
원합니까?"
원하면
폭발하여
조류에
이완@@
축적된
지침@@
휴대전화@@
학교에서는
운동장에서
해주셔서
힘쓰고
포장
오클라호@@
재단과
측면의
완충@@
플랫폼
층까지
주체@@
탑,
짓기
이야기하려고
일부이며,
부도덕@@
신진@@
자료들을
차가@@
에베레@@
호흡이
죽었고,
외계인의
테이블을
항아리
질식@@
형성하고,
연결의
연결합니다.
지구촌@@
카메룬@@
주스
충분하다고
주먹을
카드의
즐거움의
해지지
요리하는
커진다.
잠수함을
적외@@
해파리를
전등을
찍힌
호랑이
태국@@
홈페이지에
일이다."
걱
있나요?@@
잘못은
초래했다
해봤는데
진행됩니다.
자료와
찾아낸
용품@@
자존심을
인터뷰한
위임@@
코끼리는
처럼.@@
>
토요일에
자신이나
체계와
추출하고
절은
한편,
출시될
트페@@
의회는
항목의
통제와
운반할
장애의
유방암@@
자궁
포유동물의
해질@@
카페에
장비와
존재하지만
눗@@
체험의
잠옷을
외향@@
창조와
충분할
닛
이제는
원이라고
우리만의
잎사@@
OL@@
허용할
파이프가
저항
충만한
조언@@
일한다
믹
이메일로
지구상에는
연구원이
임신한
일어났는데,
펑
하다.그래서
의족은
체인을
예뻐요.
엑스레@@
연결했다.
해졌고
하였기에
자란다
포스트잇@@
숍@@
있는'@@
파일이
잘했어,
둬@@
특기를
차지했다.
장시간
찢어진
킬로그람@@
의학적으로
재이다.
주사니:
일리@@
예술로
판권@@
You@@
음소@@
존경할
종료@@
저작권@@
조금이라도
은요,
파괴했다.
지정된
박테@@
클래@@
제품들을
통으로
옥상에
주택의
터키에서
베를@@
제안했다.
조상에
코끼리,
지금으로부터
포괄하고
지탱하고
특징,
종으로서
탄력적인
직업의
이마에
회로가
컷@@
이유죠
온몸을
이야기라고
유고슬@@
점일
침대@@
아서@@
취직@@
체육
조항을
초반@@
키,
졸
제국
전후에
왕이
한쪽을
익숙해졌다.
화요@@
훈련시킬
이상하다는
주변에는
항약@@
교묘@@
있다.그것들은
파란색이
칠하고
텔레비전은
학교에는
연필로
채권@@
일몽@@
잡는다.
포도주를
데스크@@
Z
틈타
유머를
절감@@
차례가
투쟁은
처해있으며
폭로한
와인@@
합시다."
지루하다고
증후군에
할아버지,
인식의
자기공명
통제하려고
하시고
히포@@
이야기하고자
존재한다.@@
화하기
일하면
우주에서의
줄거리를
오바마@@
인도인들이
잃었다고
정서,
원숭이들은
할바@@
오른쪽@@
염소@@
있었죠?@@
증거에
중부에
주된
해변
맹
요르단강
판매량이
추진하기
판정을
적이라면
정보에서
혈액의
파나@@
전자가
예들은
플렉@@
쩍
춥고
지대에서
폭풍을
이야기이다
프레드
다시피
원형으로
잘하면
장악한
연락이
퍼는
중풍@@
캔
피라미드를
전위적인
요리사가
합류했다.
오트밀@@
즈와
재료이다.
킬러
자화자찬@@
너무@@
재구성하는
중첩된
한다.내가
애들@@
특기
턴의
통곡@@
주시겠어요?@@
자금으로
잿@@
한꺼번에
회의장에
앤젤레@@
알다시@@
자력@@
작성하는
카드,
졌어
정보만
증상
진단하는
핍
하향@@
할아버지와
해낼수
적을수록
환경에서는
조직들은
있다.이렇게
Corp@@
형식,
흔쾌히
주워서
적혈@@
혼합된
파괴하지
증가했다
차이에
지브@@
추상적
일해서
전달된다.
작용하는지
전조@@
흥분했다
찾았어요
합니다.나는
평생을
통신의
흐름이
우편물을
테로리즘@@
망한
그람@@
흐름의
응용했다.
저입니다.
웃기@@
퍼뜨리고
대수@@
행복감에
있다.모든
출자@@
일원으로
®@@
중국인들은
®
전국을
트럭이
채굴하는
줄어들지
잔해를
하필
판단하고
이요?
잘린
전지를
일주일@@
천국@@
타면
주의력이
잃고,
침대가
찾아가
하십시오.@@
창작하고
열기구를
찾아내야
전할
주목했다.
전개하는
이루어질
주차장을
팔아@@
이니@@
피닉@@
우체@@
한쪽의
측면
햇빛에
재건해야
옆을
일지@@
체계로
Stev@@
콩을
9/@@
오스카@@
로맨@@
정말이다.
원하지만
홍수
후,"@@
은"우리는
원천으로
음악에서
유용하게
입구를
유지될
죽었기
카,
할머니
철조@@
탑이
화원을
작아
하늘은
학기
열매@@
움직였다.
투표가
천문학자@@
저것들은
폭발로
행성,
태양계가
이미"@@
오아시스@@
육안@@
채찍@@
포함해야
회로에
지점에
겸
의료의
재앙이
집착하고
흔들고
유유@@
편집할
우리에게"@@
외에@@
전엔
초상화@@
전환이다.
자기의
원심@@
한지를
호에
평론
의료보험
트랜지@@
항성의
연료에
이름에
재앙적인
융합되어
지에는
주할
터득@@
있잖아
의학이
장수@@
측삭경화@@
제품입니다.
슘@@
이해하기를
임상시험을
정적
품종을
존을
영구
와'@@
주장이
일란성
뭄@@
황량한
영감은
육지@@
헬리콥터를
캘리포니아대학
피부와
합니다:
총적으로
찾는다면,
위협과
자기장을
임대
칼루@@
핥@@
있는지.
치료해야
지체를
있다면.@@
플라스틱과
티와
솥@@
통조림
메스@@
횡단
지구,
확장되어
일치할
크스@@
탁아@@
질병통제@@
유해
흔들리지
팔과
젊어서
정장을
인다면
패치를
지표에
환기@@
학습이
터키,
카사@@
피라미드의
잭슨
과'@@
증진@@
진흙을
웹사이트가
원소의
임종
창건@@
이슬람의
"왜@@
캐니@@
채집
튀어나왔@@
주파수@@
탄이
주석@@
정원
음악가
추산에
전화의
장난감으로
장난감이
깍@@
테스트한
Zip@@
티베트
염료@@
유기적인
크라우드
화이트@@
정확합니다.
괴
투석@@
지급@@
일이야?
초음파를
이상과
협조가
운전자의
옮겨져
와이어@@
달아
우주복을
지면을
전공을
븐
첫날,
주제입니다.
일주
이틀@@
자메이@@
응급실에
할리우드의
커밍@@
66@@
채찍질@@
의견
협화@@
켜는
촛불을
해당합니다.
첨예@@
장갑을
욕설을
원자로의
중요해질
한가를
케임브리지에
전파가
열대우림의
니다-@@
주마다
막론@@
옥시토신은
위기와
크레파@@
폄하@@
정지
능
인용한
혈액이
촛불
조금밖에
원거리
전도성
점심에
잘한다.
우라@@
푸석@@
찾아내@@
찾아냈다.
학원
츄@@
짊어지고
좋아."
임무의
RD@@
의원이
정기간행@@
할애@@
베테@@
히스테@@
준비됐나요?@@
효과이다.
울타리가
콘셉트@@
아카데@@
해결하는데
질적인
주도적인
재밌게
이유야
월을
치료법@@
흑인들이
흥분된
자금의
최고급
있어요?"
인터뷰는
풍습을
추가해야
인어공@@
이유,
점용@@
전.
제시하고
유행을
흉터를
조직도
처해있다.
저탄소
포르토프랭@@
집합이
항의를
혐오스러운
쉿@@
옳다는
자녀를
찰스와
이끌어야
일째
줄리엣@@
케플러
응결@@
튀니지
효과적@@
참치를
코소보
원하고,
제한하는
테스트,
합성된
열리고
작성하여
유창하게
해결방안을
작물의
나리@@
으로부터의
탄원@@
폭스@@
청렴@@
향상시키고
중심이다.
저렇게
위키리@@
해적판
형사@@
보로
+@@
하셨는데
콩고의
이슬람교는
왔는데
이동에
축하합니다.
접시@@
자금,
인기@@
이념,
빅토@@
주방@@
운동선수의
푸아그라@@
포시@@
출항@@
행인:
자넷
필립:
토라야@@
예멘
옥시토신을
울만:
외상어가
외상어의
프스:
타이타@@
리며
해저@@
곰이
뀔@@
픈@@
id
에나
부적인
몄@@
휘황@@
떡
스코틀@@
륙
랫@@
뺄
째,
얕@@
보,
<@@
일으@@
등산@@
꿨@@
로운@@
닭
있도@@
관절
멧@@
냐
엣@@
CN@@
필리@@
열에
슈퍼마@@
오케@@
철저@@
갑작@@
네모@@
심지@@
팠@@
렬
끝
큽@@
과"@@
드립@@
째:
귤@@
붐
옴@@
쥬@@
슘
튜
맷@@
간략@@
버지니@@
오레@@
파킨@@
느
페
슐@@
부근@@
짙@@
네비게이@@
딜
무심@@
q@@
둥
텝@@
라스@@
잡
모터@@
톡@@
펫
J
ID@@
보살@@
빻@@
폼@@
Sm@@
찮@@
즌
----@@
뗏@@
©
무의식@@
다채@@
트랜@@
심원@@
자화@@
깨닫@@
챌@@
소변을
껌@@
우스@@
븐@@
얘네@@
탕
햇볕@@
2015@@
360@@
여태@@
껏@@
삼
즙
소프트@@
만:
hh@@
rr@@
듐@@
v
펐@@
투성@@
유쾌@@
덱@@
》@@
과대@@
erson@@
휘파람@@
끄러@@
섭
왔다@@
감안@@
한밤@@
스럽게도
일대@@
·@@
코스타@@
지팡@@
껐@@
거든@@
에티오피@@
만지@@
보지도
컫@@
댔@@
련
나머@@
니즘@@
앴@@
인접@@
떴@@
로그@@
팜
스마트@@
가파@@
측두@@
부터의
렛
꿉@@
팸
평방미터@@
됨@@
침
넛
콕@@
마자
넥@@
처에서
갯@@
결국@@
du@@
쯤@@
얼어붙@@
쇠
솔
킬
9.@@
공상@@
뚫어
택을
낭
기적인
증명하@@
밀한
꾸준@@
셸@@
에탄@@
활
슴@@
그대@@
알잖@@
고요?
Cor@@
아스@@
종이접기@@
꼼@@
눅@@
싹
전까@@
뺐@@
괄@@
뀝@@
컬럼@@
얀
멤@@
팟
쏜@@
두루@@
심혈@@
테
뎀@@
꾀@@
루미@@
휩@@
굶@@
팻@@
세이@@
하느@@
텅@@
혁@@
머니@@
신이@@
앳@@
캐나@@
로몬@@
망가@@
씀
n:
뼉@@
륵@@
랄랄랄랄랄랄랄랄랄랄랄랄랄랄랄랄랄랄랄랄랄랄랄랄랄랄랄랄랄랄랄랄@@
윙
자란@@
윤
랄
난감@@
이튿@@
옹
짠
쿄
빕@@
릿
타미@@
"네@@
넥타@@
세월@@
땀
집안@@
쭤@@
호화@@
동등@@
각의
줄기를
띠
룰
고효@@
앗
겔
Mic@@
댁@@
다국@@
푸
픔
전히
뤘@@
뉴기@@
관적으로
택
β@@
헛수@@
햄프@@
미시시@@
바뀐@@
너스
abb@@
소리쳤@@
커뮤니케이@@
모리@@
부드@@
셋
빠
인터렉@@
릇@@
클린
텔레@@
웨
킷
갉@@
로겐@@
다란
오랑우@@
연소
함유@@
베토@@
펜
윗
맸@@
anis@@
가니@@
발한
밀렵@@
é@@
맬@@
쨋@@
앙
고마@@
amp;quot@@
퓨@@
실질@@
에워@@
체온@@
백과@@
네트@@
ㅋ@@
캉@@
W
자지@@
：@@
몬
샅@@
튜브
붉@@
규
뭄
웁@@
선수의
워드
Yout@@
-3@@
일회@@
낌
oun@@
Spe@@
뜩
어쨌@@
챈@@
기적으로
쩍@@
롱
녕
요일
눔@@
헌
테크@@
rosof@@
르네상@@
바랍@@
봅@@
차원적인
IC@@
H:
헥@@
낮
피츠@@
컷
Rich@@
，
연히
엄밀@@
퀼@@
크라이@@
페미니@@
뜻
볼품@@
스리@@
첩
코미@@
자질구레@@
련의
만장@@
선견지@@
룻@@
헉@@
인된
바닥
킵@@
큼
바빠@@
따...따...@@
따......따......@@
(S@@
포지셔@@
몰
뽕@@
이산화@@
황량@@
CP@@
코펜하@@
점차@@
비디@@
오히@@
웅
쿨
탬@@
간단명료@@
듐
융합
0%
읊@@
미노@@
¼@@
꿋@@
넝@@
총체@@
그라운@@
옷차@@
몽
Dann@@
클린@@
<
컨트@@
씬
스턴트
헤아@@
F
첸
알레@@
럴
귈
NG@@
아웃소@@
oog@@
헨
an:
벗은
홍
댈
ech@@
흙
웅장@@
Micha@@
클로@@
통령@@
잠비@@
닷@@
꿀
리모@@
G:
쏴@@
마찬@@
썬
룩
로시@@
저로
뛴@@
스캐롤@@
2-3@@
이리@@
끗@@
채지
총생산@@
소셜네트워크@@
▪@@
유격@@
멜린@@
탉
똥
위적으로
대서@@
말했듯@@
쐬@@
헝@@
쁜@@
삐
1-@@
뭍@@
묵묵@@
온전@@
낯@@
한텐
뿡@@
꿔@@
걀@@
대대@@
소아@@
핫
완전무@@
콤
×@@
뭐예@@
쓱@@
예루살@@
활기차@@
끈적끈적@@
셸
킥@@
티셔@@
웬@@
놈
태평@@
룬@@
갭@@
겹
소홀@@
스퍼@@
괘@@
탉@@
티라노사우@@
마음가@@
각양각@@
셈
덴
볏@@
잦@@
썬@@
어젯@@
찬란@@
리케이@@
인센티@@
yp@@
곽
존의
경화@@
냅니다.
방갈로@@
Pau@@
멱@@
잠시@@
곽@@
꽁@@
옌@@
찡@@
으로든
륜
½
car@@
쌍
튬
캥거@@
겟@@
허,
를,
감사합@@
륨을
내,
맥도@@
애니@@
짐바브@@
스파이@@
뾰@@
경주@@
뻐@@
눕@@
검
놔
트라이@@
Wikiped@@
먹이사@@
레오나르@@
묘한
낙
족한
덕
칵@@
뻘@@
숀
캘@@
Sou@@
측은@@
추어
빨
뒹@@
무궁@@
과감@@
땔@@
A:
아,아,아,아,아,아,아,아,@@
띈@@
갛@@
SET@@
땐
쁨
출수
밀접@@
나르@@
아날@@
하이테@@
빗
Andre@@
갠@@
是@@
뺨@@
퀄@@
볐@@
아뇨@@
메커@@
@@@
메
래로
이득@@
벳@@
칠을
히도,
뷰
톱
GP@@
틈
섣@@
베스트@@
땋@@
굿@@
하소@@
랙
티브
애석@@
뜸@@
Fa@@
파랗@@
샴@@
불가사@@
안타깝@@
R:
th
틔@@
뺀
보디@@
납
Flick@@
닛@@
천지개@@
복강@@
로에게
암스테르@@
벌거@@
캬@@
툰
곱
에덴@@
스테르@@
팸@@
플릿@@
끊임@@
알래@@
옅@@
바지에
궂@@
퓨
스탄
á@@
첨
맙소@@
앗@@
아낌@@
허
쭈@@
뿔
토위@@
무미@@
리우데@@
니스트@@
Wik@@
빡@@
어붙@@
켈
World@@
꿔
튤@@
묵
킵니다.
렇게
Tech@@
죄
페이스@@
순서@@
테슬라@@
넉@@
제너럴@@
희한@@
뻘
찐
AIM@@
멜
굽
빳@@
－@@
갈라파고@@
《@@
경각@@
뮌@@
드려
톈@@
상응@@
쏴
엌
뺄@@
FO@@
며)
상에는
Bec@@
以@@
빔
적할
고유@@
칵
베네@@
꼈@@
기독@@
댐
식간에
올림@@
흐
#
랍
깝@@
포지@@
생동@@
찧@@
뵙@@
알파@@
igh@@
헵@@
절로
라리@@
오른다.
묵은
감사드리@@
BI@@
믈@@
오트@@
미네@@
킷@@
전역@@
거꾸@@
웜
잖@@
넷
뱅
뜬@@
깔
버려
항레트로@@
IDE@@
멘
혹
슭
랑카@@
승을
스튜@@
핍@@
Wolf@@
뻑
탭@@
캠
텝
휙@@
휙
뭘@@
덫@@
바탕@@
om
이슬@@
쉴@@
고화@@
라이나
팻
비게이@@
윌
상투@@
싸
언젠@@
칵테@@
겟
뻐
물론이@@
이른@@
소위@@
룡
뜩@@
윽@@
리조@@
갈릴@@
녁@@
？@@
펜타@@
네티@@
라리
그마@@
*
집마다
윅@@
말했듯이@@
텄@@
윁@@
쉼@@
MR@@
@
홉
흉
ü@@
....@@
르네@@
쨍@@
쐐@@
껑@@
꿍@@
밀레니@@
즌@@
쾅@@
hem@@
힉@@
부정부@@
cym@@
ˎ@@
»@@
맏@@
쉰@@
≫@@
옥
금"@@
텀@@
겊@@
안데르@@
어찌@@
쁠@@
끔
몸부@@
ube@@
트래@@
럽
느낄@@
숄@@
흔
윌리@@
퐁@@
괭@@
웃으@@
맘
껌
아르바이@@
말하기@@
쏠@@
녁
에스트@@
뉘@@
밋@@
머지@@
칫@@
둑
쩔@@
멧
지리멸@@
넸@@
NS@@
긷@@
춰@@
녘@@
시시각@@
앰@@
밀레@@
뎌@@
덟@@
둘러
쭉
튼,
뉴요@@
뻤@@
프로토@@
랜
대통@@
쭐@@
녕@@
컨대
통조@@
아이스크@@
엔터테인먼@@
탠
홈
멸
리바@@
빌어@@
¼
끽@@
롯
넋@@
벵@@
닳@@
잠
메일@@
녜@@
디즈@@
어디서@@
ert
언덕
꼿@@
랭
Joh@@
숙
싯@@
슛@@
펼
넨@@
뮴
따
뺨
크라우@@
HI@@
스파이더@@
딧@@
젯@@
.c@@
염려@@
ith@@
반딧@@
력한
피보@@
얌@@
ory@@
다랑@@
머니
샵@@
둬
믐@@
이코노미@@
냘@@
건한
촨@@
슐
젯
콘서트@@
톡
헬
페니@@
툭@@
인출@@
펴
레베카@@
벤자@@
전립@@
AV@@
>@@
롬
제너@@
줌
쇠똥@@
ook
로맨틱@@
귤
뎁@@
혁
쿠루@@
뀌@@
·@@
꿇@@
다툼@@
릅니다.
라미@@
랄랄@@
뜬
=@@
굉@@
아틀@@
쪘@@
메트로폴리@@
매사@@
팡@@
낄
디자@@
*@@
Panbanis@@
그웬@@
훈
쁩@@
카네기@@
껑
꼽
피드@@
윔@@
빤@@
궁
켐@@
네트워@@
하기때문에
바이올리@@
BM
这@@
카네@@
㎏@@
뗄
럿
셴@@
엇
룹@@
낀@@
캇@@
쿡
깬
뎠@@
노르@@
츰@@
츰
훅
거들떠@@
짝
쿠
다싶이
닻@@
깨
뷸@@
아,@@
ó@@
녔@@
_@@
톨
훙@@
팁
듈
有@@
뭇@@
눅
나르시시@@
광범@@
일리노@@
幂@@
브리지
휼@@
잼@@
엥@@
태즈메이@@
툼
텀
템
스프@@
핏
탯@@
벼
둑@@
헴@@
chang@@
플러
쫑@@
¶@@
끗
아이슬@@
코펜@@
껄@@
안타@@
붕
그나저@@
코끼@@
앨라@@
말았@@
아쉽@@
쾅
기로는
뽀@@
젬@@
최
텐
룽@@
$@@
콘셉@@
폈@@
자기공@@
픕@@
탐
세네@@
아메@@
的@@
法@@
팝
뚜
시종@@
휘
여지@@
두개@@
툰@@
째는
상파울@@
바이러@@
띤@@
피디@@
기꺼@@
Sud@@
렴
삯@@
짤
스테파@@
Thom@@
화수@@
웬
괄
뮬@@
호르@@
모바@@
필라@@
머스크@@
피아니@@
방에게
겁
시에라리@@
꽁
쇳@@
•
ram
첼
세쿼이@@
리즘
부차@@
얘들@@
아이러@@
Kath@@
봇@@
롭
쟈@@
이따@@
수적으로
삶
고슬@@
찜@@
튠@@
렝@@
로그
펄
꾹@@
사우디아@@
깻@@
천지@@
{@@
멩@@
피비린@@
잴
짚
산화질@@
부득@@
Air@@
폄@@
AD@@
숯
질러
딥@@
è@@
산등@@
발랄@@
틋@@
닙@@
놀로@@
핼@@
큘@@
뎌
及@@
보츠@@
쟤
랙@@
랴@@
팬
켠
차르@@
틸
베레@@
오줌@@
뛴
픽
텃@@
쟤@@
짭@@
짤@@
따......@@
디어
십시@@
호루@@
저런
쉰
슈
욜@@
£
워싱@@
Wol@@
还@@
bn@@
컹@@
뚤@@
가만@@
씀@@
apm@@
솝
토:
테디@@
싶이
욘@@
덩
펜실@@
브레인스토@@
샌
훅@@
젠
끙@@
콥
아메리@@
티모@@
긋
천천@@
잇
몹@@
델
렙@@
우루@@
브롱@@
과소@@
！@@
훤@@
최우@@
이것저@@
í@@
맵
즈비@@
펙
가톨@@
잽@@
그나@@
툴
공교롭@@
숴@@
等@@
你@@
可@@
说@@
但@@
个@@
对@@
应@@
想@@
：
갔다@@
끈적@@
듭
플레이
댕@@
조만@@
박물@@
시에@@
잼
쿰@@
뭇
쿵
기하급@@
피소@@
뜰@@
퀵@@
끔@@
뽐@@
멉@@
붓
냥@@
곶@@
뉩@@
및@@
랬@@
싯
쉈@@
맣@@
러:
춧@@
묽@@
quot@@
횃@@
퓰@@
포춘@@
헴
텔레비@@
죤
휠
냅
요르단@@
ê@@
늪
웍@@
é
거들@@
탤
퉁
펌
밉@@
옙@@
전심전@@
谢@@
꾜@@
면요.
폼
툭
뻔
토라@@
쓸데@@
셉
콸@@
콸
겯@@
팰@@
？
鹓@@
鷉@@
둡@@
밴
앱
쌉@@
j
셰릴@@
㎢@@
니쿠@@
가루
랠@@
α@@
θ@@
^@@
깅
쌩@@
쌩
부업@@
그마한
펠
이서
파울@@
낌@@
쳇@@
쩨@@
넥
브리티@@
Ear@@
짬@@
훗@@
스톡@@
랄랄랄랄랄랄랄랄랄랄랄랄랄랄랄랄@@
랄랄랄랄랄랄랄랄@@
랄랄랄랄@@
딱정@@
렁
뻑@@
웃으시@@
KB@@
딴@@
Ushahi@@
쏜
넙@@
리티
캣@@
리얼@@
ˎ
바하@@
비영@@
Ardu@@
릉
궤
푼
게다@@
벳
자베@@
퀴
헥타@@
밑
댑@@
쫀@@
쫄@@
렐
댓
GM@@
펙@@
뺀@@
비로@@
트로이@@
캅@@
핫스@@
℃
á
、
°
콧
레제@@
빚
급격@@
к@@
а@@
л@@
뎅@@
인어@@
오랫@@
무니@@
롄
쎄@@
숀@@
젠테이@@
직입@@
삑@@
웃
修@@
正
예기@@
【@@
】@@
비린@@
썽
쿰
숍
젓
噢
请
나이지@@
희
삭
˙@@
올로@@
젭
녘
바탕
쿡@@
진일보@@
홧@@
샛@@
✔@@
엡@@
움츠@@
옐
Ⅱ@@
따...@@
낵@@
솥
굿
리러
걱@@
기진@@
팩
플라스@@
공교@@
”
헬리@@
어쩐@@
녹
집고
챈
저분@@
律
律@@
튠
钸
욥@@
次@@
¾
썸@@
플랑@@
궜@@
뿐만@@
갬@@
브레인@@
욘
샹
란히
γ@@
㎞
훑@@
짢@@
륵
늠@@
뮴@@
锝@@
쫙
꺼
경제협력@@
항레@@
아랑곳@@
뽀
`@@
명료@@
ris
ē@@
다시피,
쏙@@
쏙
숴
쩡
(
뷔
깰
Rabb@@
오아@@
아무렇@@
€
트보@@
女@@
孩@@
컥@@
렇@@
프로그래@@
바삭@@
옴
不@@
就@@
很@@
别@@
扭@@
了@@
所@@
构@@
式@@
而@@
탭
잰
에든@@
체르@@
팟@@
바브@@
깍
귈@@
불리
칫
낄@@
멋대로
쉘@@
NA
진일@@
♡@@
ω@@
매사추세@@
램
里@@
四@@
社@@
会@@
래도
那@@
췬@@
옇@@
헤
폿@@
췌
뭔
！
쭙@@
팎
깐
엾@@
큐멘@@
엷@@
엔터@@
#@@
HIN@@
전대@@
ℓ@@
히도
à
휠@@
듦@@
솜
헹@@
铒@@
넴
벗
ā@@
펙트@@
Fac@@
내셔@@
거워@@
š@@
유일무@@
롄@@
맬
썩
이니셔@@
½@@
팽
챠@@
뇽
끕@@
곁
아리스토@@
엣
짰@@
세인@@
킥
쟀@@
쁘@@
곪@@
걔
버둥@@
뵌
카메론@@
妠@@
•@@
슝@@
稹@@
덧
의기소@@
；@@
变@@
成@@
이코노@@
—@@
—
암암@@
어차@@
其@@
它@@
叫@@
똑
겹이
갈로@@
asti@@
뮌
밈@@
Pan@@
만리@@
하마터@@
pha@@
쉐
웽@@
봇
￥@@
갗@@
멱
뵐
볕@@
广@@
东@@
吉@@
澤@@
딤@@
휨@@
윳@@
ñ@@
궈
솝@@
유난@@
탱
뵈@@
샨
씽@@
씽
쿤
티오@@
뽈@@
셍@@
몫
쉼
농
픔@@
이데@@
자급@@
캐
냇@@
쌔@@
즐
오랑@@
어슬@@
상치
쑥
텍
썹
Σ@@
테인먼@@
톄@@
케
연변@@
갱
뇽@@
꽤@@
떨
쯔
我@@
们@@
플랫@@
Kathry@@
촨
indow@@
쥘
반짝
짱
퀀@@
눠
략
끄럽@@
쥔
퀸
러스@@
팍
φ@@
맹그로@@
킵
섯
탰@@
귄@@
삑
웸@@
괘
씸@@
놋@@
횡
뭍
^
띔@@
쩐
콕
퍽@@
itter@@
¹
변화무@@
ě@@
ó
떤@@
굣@@
ã@@
「@@
…@@
」
귄
声@@
音@@
펫@@
패스트@@
꽈@@
或
뿍
늠
｝
챌
홋@@
뷴
뺌@@
쯔@@
풋
씬@@
샴
샷
렉
챔@@
귀뚜@@
툼@@
페미@@
팡
뫼@@
뮐@@
ç@@
걘
실리@@
삿@@
쥔@@
²@@
자재로
